, 669120
. 584450
s 399592
▁de 273785
▁a 250812
▁the 242501
▁que 195729
▁and 175443
▁to 155425
▁la 147053
' 142222
▁of 135625
▁en 134557
▁y 118547
▁that 112032
▁in 107416
▁i 103624
▁el 100371
▁it 90065
▁we 81264
▁you 80591
▁un 74898
▁es 74406
▁is 74201
t 67855
▁los 61351
n 58617
▁una 58488
▁no 57650
▁this 56490
r 50386
▁se 47849
? 47179
▁con 46414
▁so 45839
▁lo 44092
▁para 43720
▁" 43456
▁las 42702
▁Y 40578
re 39800
: 39548
▁they 38742
▁for 37614
▁was 36684
▁— 36242
▁me 36145
d 35065
▁por 34888
es 33862
▁are 33407
) 33361
▁del 33136
▁( 32948
▁but 32272
▁have 32128
ing 32005
ed 31726
▁on 31338
- 31170
▁what 30364
▁can 30147
▁más 29719
▁with 29577
m 28685
▁be 28309
▁as 26314
▁como 25709
▁about 24837
▁not 24132
▁there 24089
▁at 23940
▁¿ 23852
a 23818
▁su 23224
▁do 23046
o 22882
▁all 22638
▁al 22528
c 22338
▁my 22024
▁one 21389
▁o 21253
▁he 21026
▁people 20313
y 20098
▁an 19827
▁like 19616
ve 19070
▁or 18892
▁si 18723
▁if 18590
▁from 18478
▁our 18477
▁mi 18463
e 17829
do 17003
▁just 16761
▁now 16516
▁when 16315
▁these 16288
ly 16251
▁because 15116
▁out 15041
er 14853
▁Pero 14709
▁son 14630
▁esta 14452
▁by 14332
▁muy 14104
▁este 14014
▁up 13959
mos 13933
▁very 13836
▁them 13812
▁know 13737
▁pero 13712
▁how 13696
▁more 13495
ar 13451
te 13415
p 13324
▁had 13299
i 13246
ó 13245
▁re 13147
▁esto 13141
▁going 12982
▁who 12882
l 12876
▁their 12738
g 12699
al 12689
▁think 12507
▁your 12360
▁see 12333
la 12266
▁us 12260
▁were 12259
▁eso 11926
▁hacer 11798
▁would 11734
▁cuando 11666
▁ser 11509
▁which 11360
▁está 11334
ll 11302
▁really 11258
▁here 11211
▁años 11127
le 11100
mente 11070
▁todo 11026
▁La 10931
▁get 10914
ra 10834
lo 10758
▁world 10753
▁sus 10750
▁nos 10733
▁porque 10611
▁then 10595
▁hay 10580
▁Así 10573
da 10560
▁time 10535
▁No 10517
▁some 10451
▁mundo 10445
▁has 10377
▁don 10348
▁algo 10265
ción 10211
laughter 10137
; 10057
en 9963
▁sobre 9935
se 9901
▁era 9873
u 9764
▁ 9675
é 9599
▁En 9526
." 9452
▁le 9426
▁into 9383
▁ha 9338
▁where 9318
▁Es 9298
Risas 9296
▁go 9250
▁will 9230
▁way 9160
▁actually 9012
▁gente 8940
▁want 8889
▁years 8886
▁ver 8878
▁personas 8850
▁El 8840
▁could 8733
▁things 8674
▁other 8665
▁cosas 8647
▁A 8541
▁e 8477
as 8459
▁qué 8454
ba 8451
▁puede 8425
▁vez 8343
to 8332
ta 8305
▁todos 8291
▁make 8240
▁she 8232
me 8225
▁been 8214
ro 8195
an 8184
ndo 8088
in 8042
▁uno 8023
▁right 7791
í 7785
▁fue 7693
▁those 7642
▁well 7541
▁first 7476
▁over 7362
▁idea 7337
ce 7316
▁something 7294
b 7259
▁así 7210
▁than 7206
▁two 7182
▁said 7143
" 7136
de 7086
▁vida 7010
▁also 6931
▁much 6930
▁están 6929
▁new 6920
▁tiempo 6906
▁most 6904
▁solo 6893
li 6891
". 6865
ci 6860
▁even 6817
▁también 6816
▁tiene 6692
▁aquí 6690
no 6681
▁work 6668
▁ese 6629
▁yo 6613
... 6593
▁back 6543
▁sin 6483
▁look 6479
á 6466
▁forma 6446
▁got 6440
vi 6428
▁his 6399
▁hecho 6386
di 6363
▁les 6360
▁thing 6357
▁life 6347
▁s 6315
co 6297
▁pueden 6268
os 6259
ca 6235
▁little 6227
▁only 6227
ti 6208
▁cómo 6205
▁need 6204
▁many 6179
▁estos 6169
▁hace 6162
▁dos 6137
▁say 6133
▁Si 6078
▁mucho 6075
ía 6072
ma 6029
ri 6008
mp 5979
▁te 5906
tion 5868
▁her 5859
▁take 5856
▁esa 5850
▁cada 5798
▁estas 5789
▁donde 5714
▁tenemos 5700
on 5697
▁come 5676
ron 5652
▁let 5631
▁bien 5627
▁Se 5614
ck 5563
▁tan 5558
▁good 5534
▁did 5524
▁ahora 5489
▁lot 5428
dos 5425
▁every 5406
▁realmente 5401
na 5379
?" 5345
▁estaba 5302
▁gran 5288
▁kind 5276
▁around 5260
th 5259
able 5256
▁podemos 5245
ir 5241
▁De 5223
ion 5200
▁different 5154
▁use 5144
▁parte 5128
▁Lo 5100
▁entre 5069
tu 5054
▁tienen 5053
ten 5050
▁why 5025
▁han 4967
ado 4955
▁down 4924
ted 4897
▁through 4851
▁había 4841
ur 4832
mo 4830
▁ya 4806
us 4789
go 4776
▁same 4770
▁tu 4769
▁being 4732
▁manera 4723
▁ca 4699
ia 4698
il 4689
applause 4678
h 4655
▁Los 4655
▁trabajo 4647
▁real 4636
▁decir 4630
▁mis 4612
▁día 4611
▁Por 4596
un 4587
so 4560
▁nuestra 4560
▁day 4541
▁10 4532
▁pro 4527
pa 4517
k 4517
Aplausos 4497
les 4491
▁va 4487
▁nuestro 4480
▁mismo 4479
sa 4466
fi 4451
▁mejor 4434
▁lugar 4410
▁man 4400
▁tener 4387
ando 4379
po 4374
▁realidad 4336
▁three 4335
▁pre 4324
▁put 4311
▁nosotros 4299
idad 4269
el 4263
f 4260
▁historia 4236
▁co 4226
▁doing 4223
it 4213
▁poco 4213
▁Ahora 4209
▁Me 4201
▁human 4174
▁desde 4174
ne 4171
▁ellos 4168
▁sea 4162
ter 4161
▁estamos 4103
▁tipo 4103
▁any 4072
amos 4062
ciones 4051
▁dis 4049
w 4038
▁di 4023
▁today 4017
▁thank 4008
or 4007
▁hasta 4002
▁after 3991
▁own 3990
ment 3988
▁otra 3987
ría 3978
▁percent 3962
ting 3905
ic 3900
▁part 3897
▁called 3888
▁luego 3882
▁made 3851
▁fact 3850
▁tell 3846
▁millones 3844
is 3840
z 3839
▁menos 3826
▁creo 3821
tra 3810
▁otro 3800
▁find 3795
ica 3792
▁per 3790
za 3790
," 3765
das 3751
▁ni 3736
est 3735
▁change 3732
ers 3726
si 3720
pe 3716
▁great 3710
▁20 3706
▁didn 3698
▁talk 3697
▁momento 3665
ation 3657
! 3635
bu 3633
▁sólo 3633
man 3632
▁Esto 3624
nos 3620
▁dijo 3618
▁should 3616
ación 3602
▁year 3589
que 3586
ru 3583
tor 3562
ity 3552
ido 3551
▁todas 3544
▁hemos 3541
▁después 3539
▁entonces 3534
rse 3520
lu 3516
án 3514
mi 3510
▁♫ 3507
ga 3478
▁thought 3465
▁started 3464
▁before 3459
▁año 3457
va 3456
▁last 3448
ch 3445
▁él 3424
ge 3419
▁u 3415
▁nuestros 3410
▁social 3409
▁never 3398
Qué 3376
▁big 3373
▁problema 3369
▁antes 3369
be 3366
▁another 3360
▁hoy 3357
▁might 3355
▁muchos 3354
▁Mi 3353
▁better 3350
▁niños 3350
bo 3349
▁importante 3349
▁Esta 3338
▁Entonces 3332
▁ven 3330
▁veces 3319
▁otros 3279
ent 3276
▁off 3265
▁tenía 3261
▁S 3260
▁car 3255
▁bit 3247
A 3223
▁Este 3217
ja 3216
▁give 3202
▁still 3195
▁important 3179
▁ejemplo 3178
▁together 3174
▁ago 3164
▁problem 3163
▁system 3156
▁end 3154
▁able 3146
qui 3146
▁long 3136
▁O 3136
▁mí 3127
▁him 3119
▁C 3109
▁E 3103
las 3100
▁cuenta 3098
▁durante 3097
▁tra 3080
▁went 3078
▁control 3073
los 3072
▁start 3066
▁Cuando 3066
▁each 3061
▁ex 3058
▁c 3050
▁global 3045
▁sistema 3044
emos 3043
▁place 3042
▁few 3037
▁am 3036
▁agua 3035
x 3034
ada 3030
▁came 3029
▁sí 3028
▁next 3019
▁story 3013
tic 3008
▁casa 3005
▁women 3004
▁nada 2995
▁primera 2993
ul 2991
▁help 2991
▁too 2988
▁pregunta 2985
▁again 2972
▁tres 2967
▁3 2961
▁show 2960
▁vi 2957
▁sino 2957
con 2955
ha 2946
▁course 2945
▁does 2938
▁pensar 2932
▁brain 2914
ke 2909
▁love 2909
▁da 2908
▁unos 2907
▁water 2902
▁poder 2899
▁tanto 2898
▁nuevo 2888
▁ve 2876
▁ir 2871
du 2867
▁estado 2861
▁19 2855
▁found 2850
▁muchas 2849
▁ideas 2847
▁algunos 2845
▁data 2843
▁call 2840
▁feel 2836
▁hacia 2832
▁estar 2829
ú 2824
▁Hay 2821
▁otras 2816
▁cerebro 2812
▁ella 2811
▁simple 2804
▁g 2791
ban 2790
he 2790
▁podría 2786
▁estoy 2776
▁mujeres 2776
▁contra 2773
bi 2765
▁bo 2760
▁used 2755
vo 2754
▁mo 2748
▁nunca 2741
ist 2733
▁technology 2726
▁question 2725
▁maybe 2717
▁hablar 2712
▁tecnología 2710
▁esos 2709
▁between 2708
encia 2707
▁mean 2706
▁point 2703
tas 2692
▁live 2688
▁esas 2683
▁second 2673
▁home 2663
▁quiero 2663
▁Bueno 2652
▁alguien 2651
▁Las 2640
▁may 2636
ian 2635
the 2632
▁siempre 2632
fa 2623
▁understand 2619
▁allí 2617
tri 2615
▁nuestras 2613
▁tal 2607
▁sido 2602
▁30 2586
▁example 2572
S 2561
▁incluso 2554
▁ti 2553
▁persona 2548
▁dice 2547
▁school 2546
▁space 2542
▁datos 2535
ho 2521
▁pe 2520
▁toda 2519
sh 2507
▁doesn 2505
▁hacerlo 2505
▁Eso 2501
▁children 2500
▁wanted 2499
fe 2495
▁person 2482
per 2479
▁public 2472
▁información 2470
▁mar 2466
▁Al 2464
▁ever 2463
▁believe 2462
▁looking 2459
▁mayor 2454
2 2444
▁comp 2440
dor 2435
▁Gracias 2432
▁auto 2430
▁significa 2426
▁light 2425
▁always 2422
▁usar 2417
▁saben 2413
▁done 2408
▁sa 2405
▁grandes 2395
▁create 2393
▁cualquier 2372
ig 2370
▁crear 2370
qué 2369
▁country 2368
▁p 2368
▁haciendo 2367
▁power 2364
▁sub 2360
▁Una 2358
▁Con 2350
▁four 2348
▁cosa 2347
▁red 2345
▁working 2337
ry 2335
▁par 2333
▁diferentes 2332
▁fe 2317
▁away 2315
▁50 2312
▁whole 2311
▁encontrar 2299
hi 2298
je 2291
▁trying 2288
ad 2283
ida 2282
et 2281
▁personal 2267
▁high 2264
▁punto 2262
▁acerca 2261
▁everything 2260
▁lado 2257
▁Porque 2256
ies 2246
rá 2242
nd 2236
▁million 2235
▁sort 2230
ados 2230
▁algunas 2229
▁using 2225
▁try 2224
▁casi 2223
min 2217
▁B 2217
▁cambiar 2209
at 2204
ness 2200
▁"¿ 2192
▁ahí 2191
C 2186
▁five 2176
▁means 2176
▁old 2166
▁ma 2165
▁100 2165
▁thinking 2164
tar 2164
▁país 2164
▁Yo 2164
io 2162
", 2160
▁medio 2156
▁aún 2156
son 2155
ue 2154
▁number 2154
▁hard 2153
▁problemas 2145
▁espacio 2145
▁verdad 2141
ni 2137
▁small 2134
▁van 2131
1 2127
▁war 2127
▁times 2124
▁information 2123
ver 2123
▁kids 2119
▁voy 2118
▁money 2117
▁po 2115
▁future 2114
▁play 2113
▁ra 2112
▁15 2111
▁misma 2111
▁men 2108
▁design 2107
▁moment 2105
▁primer 2104
ente 2100
ous 2096
▁ju 2095
ber 2095
▁mal 2094
▁hacen 2093
Cómo 2088
ina 2084
▁dinero 2084
▁took 2083
▁trata 2081
▁t 2077
▁Uds 2076
▁tengo 2075
▁li 2071
▁energía 2068
▁final 2065
imos 2064
▁mayoría 2063
▁cambio 2057
▁best 2055
▁2 2054
▁become 2051
▁miles 2046
▁video 2044
▁Un 2044
▁futuro 2038
▁posible 2036
ble 2029
▁enough 2027
▁sense 2024
▁ask 2022
▁fuera 2019
▁Para 2018
▁left 2017
ria 2014
gen 2011
▁tomar 2010
ré 2001
up 2000
▁under 1996
▁f 1996
cha 1994
dores 1991
▁haber 1985
▁lives 1983
▁funciona 1983
8 1981
7 1981
ie 1976
▁city 1975
▁difícil 1974
▁' 1969
▁getting 1969
▁without 1966
aba 1964
ros 1955
nte 1952
▁ro 1952
▁dar 1952
▁health 1950
▁move 1948
gi 1948
▁less 1945
ico 1945
ton 1943
▁care 1943
Por 1942
▁pasado 1938
▁imagine 1937
wa 1936
jo 1936
▁EE 1936
sión 1934
▁gra 1929
▁bring 1926
▁eran 1926
▁Su 1926
▁comes 1924
▁food 1921
▁través 1920
▁4 1914
ine 1908
ng 1906
▁mientras 1904
▁inter 1902
▁cu 1900
ces 1898
▁ciudad 1897
▁alrededor 1897
▁mil 1895
5 1892
ieron 1891
▁color 1890
▁head 1889
▁media 1887
▁ba 1887
% 1887
▁science 1882
▁face 1882
▁mu 1882
and 1882
▁side 1881
▁making 1878
▁días 1876
▁natural 1875
▁países 1868
▁general 1865
iendo 1863
illa 1860
zo 1857
▁quite 1855
▁interesting 1854
▁particular 1854
▁talking 1853
▁ustedes 1851
▁puedo 1850
▁sentido 1850
▁probably 1848
▁told 1846
▁body 1839
▁dentro 1836
gan 1835
▁bueno 1835
▁sería 1833
▁hand 1831
▁dije 1829
▁bastante 1828
▁diferente 1825
▁I 1823
▁family 1822
] 1821
▁earth 1819
4 1815
▁art 1814
ven 1813
▁room 1809
P 1809
▁happened 1808
▁build 1808
▁matter 1806
I 1806
ntes 1804
pre 1803
▁Re 1803
▁far 1794
tes 1793
▁while 1790
▁luz 1789
▁modo 1786
▁process 1784
00 1783
▁5 1783
▁cierto 1783
▁energy 1781
▁grande 1781
M 1781
▁Ma 1775
▁pretty 1774
we 1774
▁pi 1772
ón 1772
▁ayuda 1772
▁ob 1766
▁salud 1766
v 1765
▁madre 1765
che 1762
▁humanos 1759
▁super 1758
▁such 1757
ate 1756
ncia 1756
▁hi 1755
▁open 1754
car 1754
▁¡ 1753
▁b 1752
ct 1752
▁remember 1747
land 1746
▁local 1745
▁supuesto 1744
▁across 1739
com 1736
▁anything 1736
tos 1736
if 1735
▁ta 1734
▁soy 1733
▁young 1732
▁vamos 1729
▁gracias 1726
ero 1724
▁countries 1724
▁entender 1724
▁pa 1723
3 1721
mer 1717
▁cual 1716
▁bajo 1715
▁experience 1714
ían 1714
▁half 1713
▁Como 1713
6 1711
▁com 1709
▁hizo 1709
▁building 1704
▁reason 1702
▁razón 1695
▁d 1694
▁- 1694
▁Aquí 1694
T 1692
▁parece 1692
ty 1690
▁once 1689
▁later 1689
ras 1689
cho 1688
▁bad 1683
▁learn 1682
▁project 1682
▁having 1682
▁coming 1680
▁hombre 1679
▁living 1674
age 1674
▁sé 1674
▁ways 1670
▁proceso 1669
pro 1663
sta 1663
▁cuerpo 1663
ió 1662
▁billion 1660
▁G 1657
rán 1657
▁dollars 1655
adas 1655
▁both 1652
▁asked 1652
▁bu 1652
▁llegar 1652
▁diseño 1649
▁K 1649
▁saw 1648
R 1648
▁happen 1645
▁set 1640
▁often 1639
▁yet 1636
▁makes 1635
▁grupo 1632
▁podía 1632
▁hope 1631
▁alguna 1629
▁na 1628
▁sal 1627
ence 1626
▁stuff 1626
til 1625
▁18 1624
▁saber 1624
ff 1623
ger 1622
tive 1621
▁ciencia 1621
▁Creo 1621
D 1621
▁keep 1620
▁form 1619
▁caso 1617
▁sure 1616
▁case 1615
▁else 1614
▁Le 1614
▁[ 1612
id 1610
▁mind 1610
▁almost 1602
▁seen 1597
▁planeta 1597
▁em 1596
▁community 1589
iva 1588
▁days 1587
▁single 1587
ant 1580
ance 1579
ling 1576
▁40 1576
um 1575
▁sabemos 1574
▁pasa 1573
▁estaban 1568
bra 1565
den 1564
▁africa 1561
▁cancer 1561
▁hombres 1561
▁somos 1560
▁past 1558
9 1557
▁test 1556
ize 1554
▁age 1554
▁plan 1553
▁pequeño 1551
ran 1549
▁read 1548
▁someone 1548
▁arte 1548
▁nueva 1548
▁says 1544
ol 1544
▁respuesta 1541
▁Ca 1540
▁simplemente 1537
▁answer 1532
▁research 1532
por 1532
xi 1527
▁ce 1526
less 1524
▁happens 1521
▁already 1520
▁trabajar 1519
▁equipo 1513
▁nothing 1512
▁llamado 1511
▁top 1510
▁inside 1509
▁six 1508
im 1506
ible 1504
▁line 1502
▁m 1502
▁since 1501
ized 1501
ster 1500
▁camino 1498
tiva 1497
▁visto 1497
▁myself 1496
▁hacemos 1496
▁ayudar 1494
▁normal 1489
▁cuatro 1488
▁whether 1487
▁escuela 1486
▁goes 1485
▁history 1485
No 1485
▁12 1484
▁picture 1482
▁problems 1482
cion 1482
▁cerca 1482
▁mother 1481
▁debe 1479
ea 1477
▁imagen 1477
▁saying 1476
▁instead 1476
▁computer 1476
▁name 1474
▁interesante 1474
▁wrong 1469
▁states 1464
▁meses 1461
▁siguiente 1458
Y 1458
▁P 1456
▁run 1452
▁familia 1452
ismo 1449
▁buena 1448
▁within 1447
▁hu 1447
▁possible 1447
▁child 1447
▁construir 1447
▁número 1447
▁dólares 1447
ista 1446
▁sometimes 1445
▁job 1442
▁proyecto 1441
▁vemos 1439
▁visual 1438
▁digital 1438
▁Tenemos 1436
ex 1434
▁Ha 1434
▁business 1430
▁amazing 1429
▁planet 1425
▁looked 1424
izar 1423
ary 1420
ivo 1420
E 1420
▁palabras 1420
▁nivel 1419
mbi 1418
▁order 1417
cy 1416
▁mucha 1414
▁igual 1413
▁bio 1411
▁self 1410
▁algún 1409
▁black 1407
▁He 1406
,000 1405
▁true 1404
▁dr 1404
▁Bien 1404
▁noche 1403
▁experiencia 1402
men 1398
▁base 1398
▁largo 1398
▁llevar 1398
gue 1397
▁wasn 1395
▁internet 1394
▁quería 1394
▁necesita 1393
▁humano 1392
▁pr 1391
▁dónde 1390
▁fueron 1390
UU 1390
▁comunidad 1389
dy 1388
▁education 1387
▁months 1387
▁mujer 1385
cción 1383
▁material 1382
ita 1382
▁hijos 1381
▁stories 1380
▁stop 1380
mon 1380
▁llama 1379
ving 1378
aria 1377
▁je 1374
▁heart 1372
aron 1371
▁F 1371
ier 1370
▁cha 1369
▁puedes 1367
▁group 1364
▁government 1363
▁book 1363
rnos 1359
▁words 1358
▁tras 1357
▁turn 1356
▁También 1355
▁beautiful 1354
▁J 1354
▁house 1353
▁humana 1351
▁everybody 1349
▁fi 1349
▁night 1347
▁basically 1347
▁model 1346
▁record 1345
▁fall 1343
▁todavía 1343
▁ok 1340
▁fa 1340
vers 1340
▁dejar 1339
▁Di 1338
▁du 1336
▁cells 1335
▁woman 1334
▁T 1332
▁until 1331
ure 1331
▁historias 1331
▁poner 1329
▁mente 1329
▁vidas 1329
▁nadie 1327
▁África 1326
▁6 1325
▁couple 1324
▁60 1324
▁looks 1323
▁pequeña 1323
▁front 1322
fu 1321
tica 1321
▁act 1320
▁fo 1319
▁especie 1319
▁language 1318
ner 1318
ism 1317
▁exist 1315
▁air 1314
▁bar 1314
▁D 1312
▁Quiero 1311
▁united 1306
▁micro 1304
ful 1303
▁large 1302
▁guerra 1302
▁niño 1301
▁share 1300
▁lugares 1299
ante 1297
▁heard 1296
B 1296
▁ne 1295
▁centro 1295
▁solar 1292
▁exp 1291
▁isn 1289
▁learned 1288
▁embargo 1287
der 1286
▁present 1286
O 1285
▁knew 1280
ñ 1279
▁vol 1277
▁atención 1277
▁cantidad 1276
ish 1275
▁mano 1275
▁programa 1275
▁células 1275
▁market 1273
ste 1273
▁fácil 1272
ler 1271
▁ho 1270
▁san 1270
▁Son 1269
▁cáncer 1269
▁público 1268
▁friends 1266
▁movimiento 1266
▁primero 1266
line 1265
▁guy 1264
▁pasar 1264
ial 1263
▁free 1263
▁individual 1263
▁causa 1263
▁gobierno 1263
▁hospital 1262
iz 1261
▁seguro 1260
▁st 1259
▁importa 1259
nes 1258
▁step 1255
▁study 1255
ales 1254
lic 1253
▁nombre 1253
▁necesitamos 1253
▁libro 1252
▁team 1251
▁must 1251
ña 1250
▁everyone 1248
▁Fue 1248
▁partes 1247
▁amigos 1247
▁Era 1245
▁works 1243
▁25 1243
▁became 1243
▁post 1241
em 1241
▁7 1240
aciones 1240
▁ja 1239
▁close 1239
▁though 1238
▁llamada 1238
▁decided 1237
▁pat 1237
▁tratar 1237
▁difference 1236
▁sent 1236
van 1236
ut 1235
des 1235
▁view 1235
▁escala 1234
▁gusta 1234
▁environment 1233
ning 1233
▁state 1231
▁built 1230
▁middle 1228
idos 1228
▁mental 1227
ez 1227
▁robot 1221
▁fundamental 1221
▁Les 1220
▁rápido 1220
▁segundo 1220
▁land 1219
▁nu 1218
▁similar 1218
j 1218
am 1217
▁horas 1214
▁somebody 1213
lin 1212
▁diferencia 1212
old 1211
tal 1211
▁línea 1211
▁11 1209
tions 1209
▁against 1208
▁In 1208
▁mismos 1207
▁yes 1205
▁society 1203
▁cinco 1203
▁questions 1202
ios 1202
▁america 1200
▁places 1199
▁company 1199
▁fin 1198
nta 1197
▁tierra 1196
▁web 1195
▁ourselves 1194
ite 1194
▁9 1192
▁word 1192
▁ted 1191
ps 1190
▁exactly 1190
▁Te 1189
▁siglo 1189
▁phone 1186
▁nature 1186
▁Tierra 1186
▁species 1185
▁arm 1184
▁animal 1184
▁empezar 1184
▁produce 1182
ac 1182
▁completely 1176
▁music 1175
▁others 1174
sis 1173
▁hear 1171
▁american 1171
▁pan 1171
▁culture 1171
▁campo 1171
▁ellas 1171
▁actual 1170
▁8 1166
▁ri 1165
▁probablemente 1165
▁sociedad 1165
▁economic 1164
▁taking 1164
▁leave 1164
▁cara 1164
▁themselves 1163
remos 1162
▁figure 1161
▁film 1161
▁Uno 1159
▁sound 1156
▁animales 1156
▁walk 1155
▁aprender 1155
▁news 1152
▁queremos 1152
▁ocean 1151
▁alto 1151
ones 1151
era 1149
red 1148
▁huge 1146
par 1144
▁k 1142
▁increíble 1142
can 1141
▁nuevas 1141
▁sala 1140
▁comida 1140
▁tienes 1140
▁educación 1140
for 1136
▁disease 1136
▁Ro 1135
▁god 1134
▁alta 1134
▁Nos 1133
▁students 1132
▁estructura 1132
▁paso 1131
▁quizá 1131
▁okay 1130
▁hours 1129
▁gustaría 1129
▁Ya 1129
▁formas 1129
▁rather 1128
▁única 1128
▁support 1126
fin 1126
▁capacidad 1125
▁ello 1124
▁Esa 1124
▁happening 1123
▁cell 1123
▁últimos 1123
nder 1121
istas 1121
▁sta 1120
▁turns 1120
▁allá 1120
▁vivir 1119
▁desarrollo 1119
▁gets 1118
▁Todos 1117
▁moral 1116
▁muestra 1116
▁padres 1115
ical 1114
▁piece 1113
▁learning 1113
▁hice 1113
▁suficiente 1113
▁clase 1113
▁qui 1111
▁impact 1110
▁minutos 1110
▁fish 1109
▁rep 1109
▁imágenes 1109
▁along 1108
▁foto 1108
▁Vi 1108
▁anti 1106
icos 1106
▁worked 1104
tivo 1103
▁será 1103
ap 1102
mor 1102
▁sucede 1102
▁african 1101
▁quien 1101
▁met 1097
▁oportunidad 1097
▁difficult 1096
▁rest 1096
king 1096
▁quiere 1095
gar 1094
▁Pa 1094
▁Sí 1094
▁risk 1093
▁experiment 1093
▁Sin 1093
▁bi 1092
tric 1092
▁economía 1092
▁thousands 1091
▁cost 1090
▁third 1088
▁population 1087
▁couldn 1086
▁cultura 1086
during 1085
▁000 1084
▁center 1083
▁última 1082
▁amor 1081
▁demasiado 1081
cas 1078
▁cabeza 1078
▁kinds 1077
▁itself 1077
▁único 1077
chi 1075
▁early 1075
ima 1075
▁juego 1075
▁preguntas 1074
qu 1073
ador 1073
▁mejores 1073
▁ten 1072
▁level 1072
▁machine 1072
mar 1072
▁created 1071
▁pueda 1071
▁medida 1071
▁fear 1069
▁quieren 1069
cor 1068
▁trans 1068
▁pay 1067
▁investigación 1067
▁common 1065
▁lu 1065
▁extra 1064
▁TED 1064
▁modelo 1064
▁short 1062
▁acuerdo 1062
▁fu 1059
▁image 1059
▁cor 1057
ya 1057
ización 1057
▁ga 1054
▁seguir 1054
▁ciudades 1053
vis 1051
ally 1050
▁debería 1050
▁padre 1050
▁sw 1049
▁crisis 1048
▁Hace 1046
▁systems 1045
▁tarde 1045
▁animals 1044
▁yeah 1044
▁representa 1044
ring 1043
▁dicen 1043
▁entire 1042
▁robots 1042
tan 1042
▁preocupa 1042
▁política 1041
▁cities 1040
▁minutes 1039
oc 1039
▁ab 1039
cia 1038
▁hablando 1038
▁claro 1037
▁estudio 1037
▁música 1037
▁universe 1036
V 1036
▁political 1035
▁least 1035
▁gu 1034
▁china 1033
cent 1033
▁volver 1033
▁grow 1032
▁buy 1032
▁outside 1032
▁behavior 1032
▁valor 1032
sum 1031
▁estudiantes 1031
▁completamente 1030
▁mundial 1030
▁aunque 1030
▁seven 1028
N 1028
▁Internet 1026
▁naturaleza 1026
▁full 1025
▁mon 1023
▁death 1023
▁cre 1023
▁virus 1023
▁feeling 1023
▁india 1022
▁won 1022
▁muerte 1022
▁pequeños 1022
▁Muchas 1021
▁menudo 1020
ities 1019
▁companies 1019
▁cap 1018
▁papel 1018
▁perhaps 1016
▁exactamente 1016
▁finally 1014
▁sexual 1014
▁encanta 1014
leg 1013
▁v 1013
ario 1012
Es 1012
▁ge 1011
pen 1011
té 1011
▁iba 1011
side 1010
▁field 1010
▁edad 1010
▁sign 1009
.000 1009
▁éxito 1008
▁tenían 1007
▁propia 1007
▁M 1007
▁felt 1006
▁resto 1006
▁Nueva 1006
▁game 1005
▁die 1004
▁h 1002
fo 1002
▁voice 1000
▁1 999
▁común 999
▁white 998
▁friend 998
cómo 997
▁ojos 997
▁Da 997
amente 995
▁viaje 995
G 994
▁Des 994
ther 993
▁gas 993
▁podrían 993
▁changed 992
▁trabajando 992
▁Be 992
▁map 990
▁siendo 989
▁Todo 989
▁york 987
▁fund 987
▁sistemas 987
▁miedo 987
▁gave 986
▁palabra 986
▁total 983
▁behind 983
dora 983
▁último 983
▁structure 981
▁needs 980
▁taken 980
lar 980
▁app 979
op 979
▁powerful 979
ip 979
▁scale 978
▁pensé 978
▁sonido 978
▁tema 977
▁L 977
▁frente 977
▁easy 976
pt 975
▁seeing 975
▁mas 975
▁program 974
▁sex 974
▁aire 974
rme 973
tura 972
▁week 971
▁protect 970
▁parents 970
▁80 969
cio 969
▁mirar 969
ula 968
▁software 968
izado 968
▁India 968
▁needed 965
▁lots 964
▁población 964
▁given 963
rí 961
▁Estos 961
well 960
▁reality 960
▁habían 960
way 959
▁amount 959
▁York 959
▁consider 958
▁jóvenes 956
spect 955
ño 955
▁uso 953
▁guys 952
▁Co 952
ard 951
▁fui 951
ka 950
▁vista 950
▁doctor 949
▁U 949
▁juntos 949
cen 947
port 947
▁che 946
▁yourself 945
idas 945
▁justo 945
▁mitad 945
▁favor 944
▁Podemos 944
one 943
▁prop 943
▁semana 943
▁paper 942
▁hora 942
▁multi 941
fer 941
▁takes 940
▁Está 940
▁Ba 940
▁deal 939
▁tri 939
ult 938
▁14 938
▁compartir 938
▁propio 938
year 937
tina 937
▁tamaño 937
▁stay 936
▁ph 935
▁capital 935
▁genes 935
▁resulta 935
▁drive 934
▁movement 934
ud 934
▁estás 934
▁eight 933
▁tenido 933
wi 932
▁hands 932
▁nuclear 931
▁national 930
▁fuerte 930
▁toma 926
▁pensamos 926
▁simply 925
▁sol 925
▁began 924
▁happy 924
▁China 924
ned 923
▁realized 923
▁sentir 923
▁eyes 922
ward 922
▁humans 921
oso 920
▁father 919
▁Po 919
cla 917
▁climate 916
▁area 916
▁Estas 916
▁report 915
▁atrás 915
▁mercado 915
▁existe 915
▁turned 914
▁key 914
▁blue 914
▁sun 914
▁Mo 914
▁low 912
▁podríamos 912
▁solve 911
▁wall 911
▁sur 911
▁enfermedad 911
ding 910
▁tend 910
▁usando 910
▁imaginar 909
▁green 907
▁crea 907
▁mostrar 907
▁gana 907
▁seguridad 907
ced 906
▁mañana 906
▁objetivo 905
▁spend 904
▁océano 904
▁century 903
▁hicimos 903
▁Li 903
▁size 902
gui 902
illo 902
▁longer 901
▁hum 900
▁shape 900
▁16 899
▁certain 899
▁contar 899
▁beginning 898
▁baja 898
▁cannot 897
▁challenge 897
▁Estados 897
table 895
▁explain 895
▁cri 895
▁principio 895
▁teléfono 895
mu 894
▁Unidos 894
▁Ni 894
▁relación 894
▁lleva 894
▁poor 892
▁sociales 890
om 889
▁south 889
▁blood 888
▁generation 888
arse 888
▁ag 887
▁sabe 887
▁period 886
▁dio 886
▁pienso 886
▁measure 885
you 884
▁whatever 883
▁200 883
▁buen 882
▁debemos 882
▁17 881
▁enorme 881
L 880
gas 877
cr 877
▁access 877
▁marca 877
antes 877
my 876
▁th 876
▁rate 876
ense 876
▁l 876
▁siquiera 876
lí 876
▁central 875
▁laboratorio 875
led 874
▁adapt 874
▁demás 874
▁Dios 873
▁Él 872
▁oh 871
▁special 871
▁audience 869
▁CA 869
rop 868
▁científicos 868
▁moving 867
▁ru 867
▁resolver 867
▁viene 867
zar 866
▁Estamos 866
▁pacientes 866
▁col 865
cle 864
▁empresa 864
ped 863
rio 863
▁Do 863
▁resultado 863
▁hit 862
▁terms 861
ship 861
▁sabía 861
▁stand 858
▁begin 857
su 857
▁parts 857
▁Na 857
▁movie 855
▁falta 855
by 854
▁lost 854
▁ground 854
▁europe 854
▁speak 854
▁cultural 854
eo 854
▁interact 853
▁quién 853
udi 852
▁empresas 852
▁física 852
▁’ 851
▁conversation 850
▁seis 850
▁nuevos 850
end 849
▁class 849
▁Pueden 848
▁fire 847
▁girl 847
cos 846
▁break 846
▁cl 846
▁lograr 846
▁crecimiento 846
dia 845
▁charla 845
mina 844
▁salir 844
▁wonderful 843
▁deep 842
▁dan 842
▁70 842
▁tratando 842
▁cámara 842
▁haya 841
▁comportamiento 841
▁importantes 840
ide 839
aban 839
▁cientos 839
!" 837
▁value 837
▁terrible 837
ging 836
▁neuro 835
▁cal 835
én 835
▁ocurre 835
▁attention 834
▁radio 834
▁win 833
▁original 833
▁Luego 833
ju 832
▁fuerza 832
▁approach 831
▁arriba 831
▁hubiera 831
▁spent 830
▁entra 830
bar 829
▁universo 829
form 828
▁ability 828
▁known 828
▁fast 827
ino 827
▁libre 827
▁tried 826
▁semanas 826
▁quickly 825
lie 825
cial 824
▁sp 824
▁law 823
▁mantener 823
ático 823
▁focus 822
mas 822
▁patients 821
▁Estoy 821
▁Ese 821
▁pick 820
▁either 820
bia 819
▁básicamente 819
H 819
▁Ella 819
ization 818
ny 818
mbr 817
pp 816
▁Sa 816
▁opportunity 814
▁lead 814
▁surface 814
▁region 814
▁medical 814
▁pen 814
▁wi 813
▁oil 812
▁non 812
▁travel 812
▁totalmente 812
▁abajo 812
▁medios 811
▁kid 810
▁weeks 810
▁ci 809
▁sean 809
▁puedan 809
▁dijeron 809
▁visión 808
▁shows 806
▁based 806
▁born 806
▁acaba 806
▁Hemo 806
▁scientists 805
▁ante 805
▁conocimiento 805
▁superficie 805
▁gone 804
sen 804
▁motor 803
▁escuchar 803
▁safe 801
▁lab 800
▁hold 800
▁digo 800
▁efecto 800
▁diciendo 799
▁ambiente 799
▁Bu 799
▁esperanza 797
▁complex 796
▁ice 796
ás 796
có 795
cional 795
▁riesgo 795
▁Hoy 795
▁gene 793
▁reach 793
▁leg 793
▁br 792
▁trust 792
▁finalmente 792
▁continue 790
▁cat 790
▁manos 790
▁truth 789
▁enfermedades 789
▁permite 789
▁Estaba 789
0 788
▁tuve 788
ura 787
▁situation 787
▁interested 787
▁jo 787
▁joven 787
siones 787
▁genera 786
▁máquina 786
▁situación 785
▁Tiene 785
▁Mar 785
▁eat 784
▁action 784
▁growing 784
▁familiar 784
▁clear 783
nas 783
▁stage 782
▁product 782
▁result 782
▁wouldn 782
iente 782
▁resultados 782
▁changes 781
▁provide 781
▁street 781
ated 780
▁etc 779
▁chance 779
▁sitting 779
▁message 779
ín 779
▁Ho 779
▁growth 778
▁fun 778
▁hijo 778
▁meta 777
ating 776
eros 776
▁conseguir 776
▁write 775
▁character 775
osa 775
▁Va 775
▁main 772
rri 772
▁connect 771
val 771
▁pensando 770
▁Puede 770
▁box 769
▁north 769
▁quienes 768
▁development 767
▁watch 767
▁popular 767
▁segunda 767
bil 766
▁indica 766
▁Cada 766
▁♪ 764
▁necesitan 764
▁realize 763
▁dna 763
▁hicieron 763
tado 763
▁morning 762
▁fondo 762
▁integra 761
▁ka 761
▁invent 761
▁cool 760
rios 760
oh 759
ag 759
▁virtual 758
▁fra 758
▁cut 757
▁table 757
▁understanding 757
miento 757
▁hundreds 756
nce 756
▁mapa 756
▁average 755
▁revolution 755
▁peor 755
▁computadora 755
▁text 754
tter 754
▁buscar 754
▁tipos 754
▁Ga 754
▁corazón 754
▁goal 753
▁tus 753
ología 752
ability 751
▁incredible 751
▁secret 751
ye 751
▁obtener 751
▁especial 751
▁decía 751
▁pu 750
▁acceso 750
▁forest 749
▁numbers 749
▁literally 749
▁girls 749
▁anyone 749
dr 749
▁90 749
▁dado 749
▁economy 748
▁pequeñas 748
▁knowledge 747
▁medicina 747
▁rápidamente 747
▁afecta 747
▁ninguna 747
▁izquierda 747
▁recursos 746
▁industria 746
▁libros 746
▁cru 745
▁gr 745
ábamos 745
▁piensan 745
▁nice 744
ping 744
▁chi 744
ito 744
▁universidad 744
ris 743
▁eres 742
▁w 740
▁physical 740
▁termina 740
bb 740
▁producto 740
▁tools 739
▁alone 739
íamos 739
▁ADN 739
▁lista 738
▁Bo 738
ists 737
▁millions 737
▁debido 737
▁images 736
what 736
▁network 736
imiento 736
▁sitio 736
▁soon 735
▁areas 735
▁honest 735
▁herramientas 735
▁telling 734
▁civil 734
▁coral 734
▁books 733
▁photograph 733
▁camera 733
▁seems 733
▁legal 732
▁sector 732
▁educa 732
▁habría 732
▁empecé 732
▁bur 731
▁brought 731
▁bro 731
▁vision 730
yo 730
▁industrial 730
▁bank 728
aje 728
▁Solo 728
mic 727
istic 726
▁strange 725
▁grab 725
▁voz 725
▁respecto 725
day 724
▁pueblo 724
▁dead 723
▁baby 722
ctor 722
▁esté 722
▁dream 721
hu 721
▁online 720
rían 720
▁pesar 720
▁road 719
▁teoría 719
▁issue 718
ular 718
▁visit 717
▁meet 717
rlo 717
▁respond 716
▁piensa 716
▁Ar 716
▁listen 714
▁r 714
dan 714
iera 714
▁sat 713
ology 713
ana 713
▁dolor 712
▁película 712
▁llega 712
La 712
▁likely 711
▁queda 711
▁blanco 711
▁edificio 711
▁role 710
cl 710
▁send 710
▁solución 710
▁grupos 710
▁enter 709
▁giving 709
rd 709
▁derecha 709
▁star 708
▁leer 708
▁ningún 708
ries 707
▁n 707
▁Pe 707
lly 706
▁vuelta 706
▁starting 705
▁pl 705
▁pronto 705
▁escribir 705
▁especially 704
▁vivo 704
via 703
nk 703
▁R 703
ev 702
▁suerte 702
▁mine 701
▁opera 701
▁mira 701
▁quizás 701
▁impacto 700
▁Jo 700
▁innovation 699
▁wrote 699
▁13 699
▁pie 699
▁fre 699
▁cars 698
▁modern 698
▁24 698
▁expect 697
▁cuanto 697
▁Tu 697
▁running 696
ium 696
▁tuvo 696
▁Tengo 695
rla 694
▁dicho 694
adores 694
▁pensamiento 694
▁cuidado 694
▁push 693
▁malo 693
▁forward 692
▁guess 692
▁emp 691
▁fotos 691
ile 690
lan 690
▁bottom 690
▁plant 690
▁encontramos 690
▁enseñar 690
▁cierta 690
▁teach 689
▁usa 689
▁sola 689
▁absolutely 688
▁generación 688
▁casos 688
▁plane 687
▁industry 687
▁artificial 686
eña 686
▁azul 686
mento 685
▁developed 684
▁recently 684
▁strong 684
▁dark 684
▁ley 684
put 682
▁discovered 682
▁represent 682
▁utiliza 682
▁siento 682
▁type 681
vin 681
▁productos 681
▁viendo 680
▁feet 679
ece 679
ki 679
▁amigo 679
▁expand 678
▁” 678
▁Después 678
▁primeros 678
▁asking 677
▁gal 677
▁geo 677
bel 676
El 676
▁Mu 676
▁Tenía 676
▁office 675
▁carbon 674
▁decisiones 674
▁tratamiento 673
▁nacional 673
ey 672
▁bacteria 672
▁Europa 672
▁creating 671
▁force 671
▁factor 671
▁touch 671
▁spread 671
ach 671
▁sha 670
▁document 669
▁electro 669
▁potencial 669
▁pasó 669
ak 668
▁carrera 668
▁obra 668
cut 667
▁concentra 667
▁radical 667
▁genial 667
▁calle 667
▁puerta 667
▁puntos 667
▁worth 666
▁male 666
▁university 666
▁Je 666
▁página 666
▁llamamos 666
▁recognize 665
bor 665
top 665
▁pasando 665
uda 664
▁door 663
▁communities 663
▁lucha 663
▁interior 662
▁sorprendente 662
▁mass 661
▁basic 661
▁especies 661
▁ran 660
▁eye 660
▁comprar 660
ound 659
▁observa 659
▁Soy 659
amiento 659
▁reduce 658
▁issues 658
▁save 658
▁mejorar 658
▁lenguaje 658
izing 657
▁term 657
▁desp 657
▁technologies 656
▁offer 656
▁j 656
▁transform 656
▁perfect 655
▁sounds 655
ngu 655
▁cub 655
▁treat 654
▁designed 654
▁gui 654
▁cambios 654
▁código 654
▁choice 653
▁develop 653
quen 653
▁fuente 652
▁wo 651
use 651
▁smart 651
ática 651
▁genetic 650
▁busca 650
▁prueba 650
▁poli 649
her 649
▁hago 649
bles 648
▁tiny 648
▁completo 648
▁jobs 647
F 647
▁21 646
▁/ 646
▁screen 646
▁bus 646
▁señal 646
▁farm 645
▁depend 645
▁allow 645
med 645
▁changing 645
▁sold 645
▁perspectiva 644
▁razones 644
▁violencia 644
▁wonder 643
▁agree 643
▁seem 643
▁estábamos 643
▁hija 642
▁z 642
▁deben 642
▁médicos 642
▁sueño 642
▁relationship 641
▁nobody 641
▁sit 640
▁500 640
ah 640
▁extraño 640
▁seres 640
▁component 639
▁pun 639
▁rich 639
▁follow 639
▁cambia 639
▁source 638
▁pass 638
▁motiva 638
▁tecnologías 638
▁site 637
light 637
▁ll 637
▁comunidades 637
▁mensaje 637
▁bosque 636
ee 635
▁suggest 635
▁beyond 634
▁kill 633
▁N 633
K 633
▁solution 632
▁redes 632
▁términos 632
▁director 631
▁clean 631
▁success 631
meter 631
▁major 630
idades 630
▁sigue 630
▁practice 629
▁sleep 629
▁dispositivo 629
▁buenas 629
▁metros 629
▁explicar 629
▁lejos 629
time 628
▁showed 628
▁journey 628
▁activa 628
▁cuestión 628
▁área 627
U 627
▁pantalla 627
cula 626
▁block 626
▁college 625
▁code 625
▁verde 625
▁tú 625
▁groups 624
▁maneras 624
▁prove 623
▁playing 623
▁clave 623
▁gives 622
▁desarrollar 622
▁coche 622
▁terminar 622
« 622
▁fly 621
▁resources 621
▁tumor 621
Cuál 621
▁wait 620
▁considera 620
▁intentar 620
▁op 619
▁patient 619
▁deseo 619
▁deliver 618
▁religion 618
▁» 618
▁qua 617
ham 616
▁talked 615
fra 615
▁fight 615
▁towards 615
▁nine 615
▁deberíamos 615
▁bomb 614
▁treatment 614
▁costa 614
▁Que 613
▁trip 612
▁page 612
▁flu 612
▁violence 611
▁international 611
▁libera 611
▁evidence 611
▁anima 611
▁Z 611
▁jugar 611
▁entrar 611
▁computers 610
▁interest 610
mica 610
▁village 609
▁google 609
▁theory 609
▁pul 609
▁noticias 609
▁velocidad 609
▁reasons 608
▁aid 608
▁search 608
icia 608
▁principal 608
cido 608
▁grado 608
▁capaces 608
ándose 608
▁several 607
fr 607
tada 607
▁económico 607
▁Ellos 607
▁rights 606
▁humanidad 606
▁count 605
tivos 605
▁park 604
▁rob 604
▁dura 604
tiendo 603
▁Ka 603
▁médico 603
▁check 602
gua 602
▁pur 601
▁extend 600
row 600
▁buenos 600
▁pocos 600
▁president 599
▁response 599
▁tro 599
▁teníamos 599
▁incredibly 598
▁boy 598
▁desea 598
▁feliz 598
▁led 597
▁lived 597
▁attack 597
▁haven 597
▁content 597
cub 597
▁ésta 597
▁pobres 597
▁interesa 597
rlos 597
▁San 597
▁debate 596
▁serie 596
▁hacía 596
▁llamar 596
mate 595
▁simula 595
gún 595
ley 594
▁aren 594
▁increase 594
▁dedica 594
▁add 593
▁apart 593
▁suelo 593
▁compra 593
▁Ra 593
ores 592
▁camp 592
▁concepto 592
▁compañía 592
▁subject 591
▁developing 591
▁gen 591
▁caja 591
▁presente 590
▁pensaba 590
▁version 589
▁becomes 589
▁track 589
▁neg 589
▁práctica 589
▁recon 588
▁slow 587
▁drug 587
▁bigger 587
▁reto 587
▁escrito 587
▁familias 587
lógico 587
han 586
right 586
▁corre 586
▁habla 586
▁medicine 585
▁pública 585
▁artículo 585
▁decide 584
De 584
▁corta 584
▁ganar 584
▁putting 583
cal 583
▁calidad 583
▁relaciones 583
▁favorite 582
ice 582
▁dig 582
▁emerge 582
▁potential 581
▁pal 581
torio 581
▁Ja 581
▁creer 581
▁distancia 581
▁carga 581
▁prison 580
▁fotografía 580
▁estudios 580
▁hundred 579
▁predict 579
▁pictures 579
▁literalmente 579
▁mom 578
low 578
▁poll 578
▁sensor 578
▁tendría 578
bilidad 578
▁security 577
▁ke 577
▁ciento 577
▁Gran 577
▁recordar 577
▁families 576
▁300 576
▁urban 576
▁fit 576
▁amp 576
▁dog 576
▁comenzar 576
▁path 575
▁feed 575
▁drugs 575
▁list 575
▁aquellos 575
▁inteligencia 575
▁eventually 574
▁organization 574
▁english 574
▁separa 574
▁capaz 574
▁derecho 574
▁account 573
▁connection 573
pic 573
▁Pro 573
▁mostrarles 573
▁anybody 572
grade 572
▁junto 572
▁confianza 572
▁zona 572
▁available 571
▁successful 571
▁década 571
▁died 570
▁store 570
cé 570
▁usan 570
▁innovación 570
▁libertad 570
▁fix 569
▁error 569
ji 569
▁rules 568
▁prefer 568
▁experimento 568
▁effect 567
▁mat 567
arlo 567
▁bed 566
▁police 566
▁further 566
▁derechos 566
▁Podría 566
press 565
▁diver 565
▁wish 565
▁“ 565
▁montón 565
izada 565
ok 564
▁universal 564
▁spa 564
▁V 564
▁bill 563
▁progress 563
▁mars 563
▁bla 563
▁físico 563
▁near 562
▁concept 562
▁rock 562
▁espera 562
▁Par 562
▁producir 562
▁usamos 562
▁meaning 561
▁scientific 561
endo 561
lia 561
▁creen 561
▁comenzó 561
▁involved 560
toria 560
▁larga 560
▁viven 560
▁recuerdo 560
▁notice 559
ker 559
▁choose 559
▁cra 559
▁superior 559
▁Google 559
▁aprendizaje 559
▁month 558
▁obviously 558
ever 558
▁appear 558
▁tele 558
▁abierto 558
▁siente 558
▁varios 558
▁cro 557
▁blog 557
ecto 557
▁oído 557
▁democracia 557
▁finding 556
▁mountain 556
▁pudiera 556
▁ejemplos 556
▁descubrir 556
▁plantas 556
▁sacar 556
▁conocer 556
▁creative 555
▁detect 555
▁wind 555
▁compar 555
▁schools 555
▁cree 555
▁paciente 555
▁peace 554
▁er 554
▁cross 554
▁please 554
ologist 554
▁empezamos 554
▁petróleo 554
▁Había 554
▁perspective 553
▁card 553
▁amenaza 552
▁adult 551
▁cuánto 551
▁comercial 551
▁reglas 551
▁segura 551
▁mediante 551
▁promedio 550
▁creado 550
▁varias 550
▁bas 549
iv 549
uro 549
▁detrás 549
▁certainly 548
▁expert 548
▁skin 548
ably 547
▁object 547
▁west 547
▁veo 547
▁máquinas 547
pri 546
▁speed 546
▁flow 546
▁higher 546
▁late 546
▁fan 546
ano 546
▁hermano 546
▁ocurrió 546
▁writing 545
▁ball 545
ically 545
▁walking 545
▁argument 545
▁comer 545
▁climático 545
▁escucha 545
▁partir 545
▁cause 544
gun 544
▁maravilloso 544
▁materiales 544
▁invest 543
flu 543
▁memoria 543
lent 543
▁encuentra 543
▁aumenta 543
▁prevent 542
▁moved 542
▁empieza 542
▁llevó 542
▁decision 541
▁remain 541
▁shi 541
▁pull 541
▁líderes 541
▁áreas 541
▁mala 540
uer 540
▁negocios 540
▁Algunos 540
▁ki 539
▁cura 539
▁pagar 539
▁entorno 539
▁brillante 539
▁conflict 538
▁adelante 538
▁esperar 538
▁rodea 538
▁leaders 537
▁hall 537
▁hero 537
▁masa 537
▁carbono 537
▁Vamos 537
▁indeed 536
kin 536
▁examples 536
let 536
▁cover 536
enta 536
▁llena 536
▁correcta 536
▁UU 536
▁return 535
▁ready 535
▁vo 535
▁direct 534
ney 534
▁números 534
▁poverty 533
▁particularly 533
▁intelligence 533
▁results 533
▁pla 533
▁mayores 533
▁oficina 533
▁accept 532
▁function 532
ib 532
▁throw 532
▁fl 532
osos 532
▁bloque 532
▁sell 531
dad 531
▁autos 531
▁Tal 531
ral 530
▁duda 530
▁puesto 530
▁compara 529
▁watching 529
rk 529
▁Quizá 529
▁invisible 528
▁element 528
▁planta 528
▁comienza 528
▁vino 527
▁biggest 527
▁sky 527
▁vive 527
▁podían 527
▁especialmente 527
▁pobreza 527
▁supposed 526
▁river 526
▁showing 526
▁hole 526
▁reducir 526
▁enseña 526
▁siete 526
▁chinese 525
▁student 525
itos 525
▁complejo 525
▁including 524
▁task 524
▁policía 524
▁objetos 524
▁totally 523
▁context 523
▁among 523
▁mono 523
ear 523
▁enviar 523
▁dirección 523
▁price 522
▁brains 522
▁individuals 522
▁evolución 522
▁Incluso 522
▁crazy 521
▁grew 521
▁suddenly 521
▁starts 521
▁conocido 521
▁morir 521
▁imposible 521
▁diría 521
▁hot 520
▁position 520
▁machines 520
cular 520
▁daughter 520
▁exciting 519
▁stick 519
▁draw 519
▁shift 519
▁standard 518
▁democracy 518
▁everywhere 518
bal 518
▁disponible 518
▁época 518
▁conflicto 518
▁objeto 518
▁x 517
▁compassion 517
lle 517
▁repente 517
▁chris 516
▁calcula 516
▁hip 516
▁dia 516
▁wave 516
tera 516
▁escuelas 516
▁train 515
▁quality 515
0,000 515
▁device 514
act 514
▁meeting 514
▁evitar 514
▁técnica 514
▁malaria 513
au 513
▁vas 513
▁necesario 513
▁empezó 513
▁To 513
▁hielo 513
▁pain 512
▁eleva 512
▁evolution 512
▁onto 512
▁Nunca 512
▁improve 511
50 511
▁magic 511
▁acción 511
▁Voy 511
▁Están 511
▁USD 511
▁positive 510
▁entend 510
▁servicios 510
▁convertir 510
▁plazo 510
▁conmigo 510
▁aparece 510
▁wa 509
▁fuel 509
▁nano 509
▁estudiar 509
▁cualquiera 509
▁profundo 509
▁drop 508
▁worse 508
▁existen 508
▁comunicación 508
▁respect 507
bert 507
▁negro 507
▁"¡ 507
▁gasta 507
▁bebé 507
▁link 506
▁taught 506
▁wide 506
▁email 506
▁ban 506
▁sale 506
▁H 506
▁tercer 506
▁Nuestro 506
▁east 505
▁letter 505
▁however 505
▁traditional 505
▁describe 505
▁allowed 505
jan 505
▁anterior 505
▁cerebral 505
gado 505
▁convierte 505
▁connected 504
▁female 504
▁conversación 504
▁sh 503
▁require 503
▁sc 503
sol 503
▁regular 503
▁contexto 503
▁serio 503
ky 502
▁brother 502
▁named 502
ified 502
ze 502
rgi 502
▁pone 502
▁affect 501
▁meant 501
▁loved 501
▁muerto 501
▁tasa 501
▁estadounidenses 501
▁valores 501
▁respira 500
▁explore 500
▁desarrolla 500
▁piel 500
▁lower 499
▁mini 499
▁tool 499
▁largest 499
▁lie 499
▁criminal 499
▁correcto 499
▁precio 498
▁adopt 498
▁afuera 498
▁inteligente 498
▁chemical 497
▁square 497
▁2000 497
▁detail 497
▁invita 497
▁eje 497
▁Chris 497
▁tuvimos 497
W 497
▁viejo 497
▁evidencia 497
▁standing 496
▁hour 496
▁cocina 496
▁cielo 496
ko 495
▁encontré 495
▁ocupa 495
▁training 494
▁dance 494
▁principle 494
▁memory 494
▁career 494
▁km 494
▁ó 494
▁orden 494
▁plants 493
▁shown 493
▁direction 493
▁enfoque 493
▁salvar 493
▁diseñar 493
▁sexo 493
▁waste 492
▁trade 492
pan 492
▁essentially 492
▁escenario 492
▁race 491
fund 491
▁mesa 491
▁So 491
▁además 491
▁address 490
▁pin 490
▁llegó 490
▁esfuerzo 490
▁útil 490
▁decirles 490
▁cuán 490
▁tenga 490
▁island 489
▁proteger 489
▁computadoras 489
vía 489
▁join 488
▁stress 488
▁teachers 488
▁negocio 488
▁proyectos 488
▁millón 488
▁pues 488
▁john 487
▁determina 487
▁sentado 487
▁intenta 487
▁signal 486
▁patent 486
ció 486
▁modelos 486
▁conjunto 486
▁Per 486
▁cent 485
bla 485
▁sangre 485
▁Ne 485
▁profesor 485
cap 484
▁products 484
▁zero 484
▁cold 484
▁hubo 484
Lo 484
▁cases 483
▁gay 483
▁cama 483
▁anyway 482
▁materials 482
▁economist 482
▁ace 482
▁permitir 482
work 481
▁models 481
▁usually 481
▁dinosaur 481
▁hogar 481
▁costo 481
almente 481
▁Sol 481
▁brazo 481
▁montaña 481
▁projects 480
▁conditions 480
log 480
▁extraordinary 480
▁older 480
▁investiga 480
▁organización 480
▁Tra 480
▁extremely 479
ft 479
▁survive 479
out 479
▁bodies 479
▁doctors 479
▁revolución 479
▁buscando 479
▁aspecto 479
tamos 479
▁audiencia 479
▁lose 478
▁shot 478
▁healthy 478
▁freedom 478
q 478
▁Mientras 478
▁financial 477
▁cir 477
▁haría 477
▁hermoso 477
▁somewhere 476
▁trees 476
del 476
▁capa 476
Sí 476
Bueno 476
▁verlo 476
▁genética 476
rry 475
▁due 475
▁paga 475
rón 475
▁condiciones 475
▁alimentos 475
▁materia 475
pped 474
▁algorithm 474
▁depende 474
▁excited 473
▁ideal 473
▁decisión 473
▁éste 473
▁mirando 473
▁empleo 473
▁truly 472
▁decisions 472
▁rural 472
▁none 472
▁reading 472
▁Sólo 472
▁árboles 472
▁principios 472
▁preguntar 472
▁rise 471
▁propios 471
▁próxima 471
▁mismas 471
▁inglés 471
▁revela 470
▁amplia 470
▁debajo 470
▁Duran 470
lor 469
▁habit 468
▁serious 468
ight 468
▁disc 468
▁tengan 468
▁parecía 468
▁tienda 468
▁disco 467
▁allows 467
▁sensación 467
▁perform 466
▁somehow 466
▁frustra 466
▁tells 466
▁vio 466
▁río 466
▁esposa 466
▁norte 466
▁soluciones 466
▁texto 466
▁Ex 466
▁identidad 466
▁board 465
▁critical 465
▁net 465
plan 465
▁requiere 465
Se 465
▁consciente 465
▁wife 464
▁series 464
▁buildings 464
▁tax 464
▁song 464
▁unique 464
▁humanity 464
▁podamos 464
▁partner 463
▁remind 463
▁killed 463
cua 463
▁vote 463
▁objects 463
▁Necesitamos 463
▁sad 462
▁service 462
of 462
▁threat 462
▁above 462
▁blind 462
▁pattern 462
▁violent 462
▁gobiernos 462
▁programas 462
▁niña 462
▁tree 461
▁reco 461
▁wild 461
▁famous 461
▁implica 461
▁edificios 461
don 460
▁beings 460
▁dad 460
▁solía 460
▁instituciones 460
▁reflect 459
▁gar 459
▁combustible 459
▁Tom 459
▁Cu 459
▁honor 458
pping 458
▁games 458
▁videos 458
▁terrorist 458
rimi 458
cado 458
▁construcción 458
▁sentía 458
▁gi 457
▁town 457
gamos 457
▁burn 456
▁mor 456
▁dirigi 456
▁Ti 456
▁Primero 456
▁hablamos 456
▁trabajado 456
▁perder 456
▁tarea 456
▁comprender 456
▁complete 455
▁kept 455
▁policy 455
▁impossible 455
▁institutions 455
▁aprendido 455
▁políticas 455
music 454
▁espero 454
▁quieres 454
▁W 454
▁caminar 454
▁estilo 454
rate 453
▁thousand 453
lf 453
▁vulnerable 453
leta 453
▁Pi 453
▁felicidad 453
▁interés 453
▁faster 452
▁labor 452
▁ambos 452
▁crecer 452
▁rojo 452
▁actividad 452
▁Hi 452
▁lesson 451
▁window 451
▁achieve 451
▁mark 451
▁darles 451
▁mío 451
puesto 451
▁decidí 451
place 450
▁mosquito 450
rico 450
▁vuelve 450
▁producción 450
▁quisiera 450
▁bra 449
▁hack 449
▁complicated 449
ab 449
▁alter 449
▁probar 449
▁económica 449
▁sabes 449
▁bunch 448
▁plastic 448
mbre 448
▁completa 448
▁estrategia 448
▁pedir 448
▁estrellas 448
▁artist 447
▁floor 447
ug 447
▁actor 447
▁vaya 447
▁controlar 447
▁purpose 446
▁massive 446
▁John 446
▁científico 446
▁centra 446
▁utilizar 446
ografía 446
▁armas 446
▁respuestas 446
how 445
▁studies 445
▁workers 445
▁imagina 445
▁supone 445
▁patrones 445
▁decades 444
▁regula 444
bl 444
▁asunto 444
▁fri 443
▁insect 443
▁demand 443
▁ended 443
▁accident 443
▁décadas 443
▁range 442
▁clearly 442
▁skills 442
bling 442
lico 442
▁responsabilidad 442
▁tuviera 442
▁perro 442
▁búsqueda 442
▁bin 441
▁pop 441
rna 441
▁prepara 441
▁método 441
▁evento 441
▁hermosa 441
▁solutions 440
▁fine 440
▁collect 440
▁vast 440
▁upon 440
▁lin 440
▁horrible 440
▁hair 440
▁cita 440
▁Tienen 440
▁Marte 440
▁cambiado 440
▁chicos 440
▁target 439
stitution 439
▁private 439
▁emotional 439
▁tira 439
▁lines 439
ieran 439
▁deberían 439
▁momentos 439
▁Ge 439
▁jump 438
▁ship 438
▁afford 438
▁propias 438
posición 438
▁sucedió 438
▁minute 437
▁anymore 437
▁metal 437
▁challenges 437
▁teacher 437
▁cop 437
▁suma 437
▁roll 436
▁governments 436
▁communication 436
▁responder 436
▁probable 436
▁menor 436
▁contrario 436
rco 435
▁larger 435
▁exact 435
▁35 435
▁monitor 435
▁dangerous 435
▁obtiene 435
▁income 434
▁wealth 434
▁1, 434
▁mid 434
▁transforma 434
▁compañías 434
Música 434
▁conduct 433
▁400 433
▁weren 433
bro 433
▁listening 433
eta 433
▁Go 433
▁New 433
▁architecture 432
▁hiv 432
iste 432
▁colegas 432
Quién 432
▁compasión 432
▁matemáticas 432
▁reg 431
▁specific 431
▁waiting 431
▁finger 431
roll 431
▁spi 431
▁políticos 431
▁cuál 431
▁debía 431
▁ataque 431
▁encima 431
▁biology 430
▁glass 430
▁earlier 430
▁points 430
▁cloud 430
▁hará 430
verdad 430
ética 430
▁current 429
▁except 429
▁host 429
▁military 429
▁values 429
▁obliga 428
▁website 428
▁foot 428
▁niveles 428
▁habrá 428
▁Más 428
▁Otra 428
▁hagan 428
▁pieces 427
▁cable 427
▁bat 427
▁scan 427
▁patterns 427
▁pena 427
zca 427
▁acepta 427
▁apoyo 427
▁simples 426
like 426
▁discover 426
▁loco 426
▁paint 426
▁mix 426
▁carta 426
arios 426
▁cuales 426
▁verdadero 426
▁tocar 426
▁veía 426
▁Wa 426
▁sentimiento 426
▁significant 425
over 425
▁gira 425
▁secreto 425
ciendo 425
▁X 425
▁tendencia 425
▁tap 424
ang 424
▁trial 424
▁raise 424
▁Lu 424
▁célula 424
▁habilidades 424
▁stra 423
▁shared 423
▁cook 423
▁americans 423
▁worry 423
gon 423
▁forget 423
▁ocho 423
▁vehículo 423
▁increíblemente 423
▁haga 423
▁necesitaba 423
▁services 422
▁gold 422
▁oportunidades 422
▁cadena 422
▁deja 422
▁elegir 422
▁politics 421
▁joy 421
▁enjoy 421
▁alive 421
▁neighborhood 421
▁math 421
cita 421
▁piensen 421
▁tampoco 421
▁conectar 421
▁environmental 420
▁justice 420
▁although 420
▁manipula 420
▁posibilidad 420
▁conciencia 420
▁tejido 420
▁effort 419
▁spot 419
▁cultiva 419
▁curso 419
▁funcione 419
▁Universidad 419
▁darle 419
▁paz 419
▁aumento 419
▁written 418
but 418
▁press 418
▁becoming 418
▁novel 418
▁aun 418
mé 418
▁aprendí 418
▁print 417
tory 417
▁throughout 417
▁rule 417
eron 417
▁cero 417
▁electricity 416
▁rain 416
▁activity 416
▁balance 416
▁greatest 416
▁extremo 416
▁frecuencia 416
▁150 415
▁happiness 415
▁divide 415
▁helped 415
▁conferencia 415
▁electricidad 415
▁tv 414
▁pressure 414
▁stars 414
▁birth 414
try 414
▁confi 414
▁venir 414
▁Ta 414
▁propósito 414
▁segundos 414
▁reconocer 414
▁patrón 414
▁usted 414
▁instala 414
▁performance 413
▁moon 413
▁servicio 413
▁maravillosa 413
tz 412
▁limita 412
▁barrio 412
▁herramienta 412
▁slide 411
▁evalu 411
▁manda 411
▁calor 411
▁physics 411
pin 411
▁transporte 411
▁– 411
▁temperatura 411
▁desafío 411
▁biología 411
▁cuarto 411
▁abandon 410
▁45 410
▁core 410
▁rid 410
▁arquitectura 410
▁contenido 410
▁Ud 410
▁Fi 410
▁levels 409
▁diseases 409
▁transport 409
▁court 409
▁compren 409
▁pruebas 409
▁ciudadanos 409
ético 409
▁Wi 409
▁pérdida 409
▁participa 408
▁babies 408
▁citizens 408
▁vivimos 408
▁duro 408
▁Hu 408
▁presidente 408
▁include 407
▁harm 407
▁laws 407
ería 407
▁llamo 407
▁leyes 407
▁effective 406
▁forms 406
ches 406
▁flor 406
▁musical 406
▁belleza 406
▁emociones 406
▁juegos 406
▁inteligentes 406
▁epi 405
▁opinion 405
▁cheap 405
▁therefore 405
▁expensive 405
▁fail 405
▁versión 405
▁financia 405
▁personaje 405
▁option 404
▁sorts 404
▁instance 404
▁transmit 404
point 404
culo 404
▁idioma 404
▁mezcla 404
▁spin 403
▁sister 403
▁elimina 403
▁professional 403
lio 403
▁verán 403
▁comienzo 403
▁pintura 403
Si 403
▁ritmo 403
▁difíciles 403
▁experiences 402
▁match 402
▁desarrollado 402
quí 402
▁estadounidense 402
▁beauty 401
▁photo 401
▁walked 401
rte 401
▁perdido 401
▁presta 401
▁creemos 401
▁estudia 401
▁experiencias 401
▁willing 400
▁mission 400
▁kilo 400
▁Mundial 400
▁temperature 399
▁minds 399
▁unfortunately 399
▁interview 399
pit 399
▁estén 399
▁científica 399
▁emocional 399
▁presentar 399
▁silencio 399
▁sorprend 399
▁Norte 399
▁colleagues 398
▁separate 398
▁player 398
▁apply 398
▁necesidad 398
▁efectos 398
▁estudiante 398
▁individuos 398
ua 397
▁za 397
▁enormous 397
▁decade 397
▁painting 397
zz 397
board 397
mine 397
▁western 397
▁interpreta 397
▁limpia 397
▁matar 397
▁contacto 397
▁niñas 397
▁immediately 396
▁costs 396
▁collective 396
▁directamente 396
▁cambió 396
▁averiguar 396
▁driving 395
▁implement 395
▁fija 395
▁extraña 395
▁relationships 394
ise 394
▁trick 394
▁sand 394
▁activist 394
▁exterior 394
▁clima 394
▁informa 394
▁Muchos 394
▁secuencia 394
▁domina 393
▁method 393
▁anywhere 393
▁greater 393
adora 393
▁organizaciones 393
▁calles 393
▁conexión 393
▁nation 392
▁bear 392
▁grand 392
▁drink 392
▁types 392
▁profunda 392
▁vienen 392
▁parecen 392
▁fair 391
voca 391
▁organism 391
▁smaller 391
▁biological 391
▁preserv 391
▁facebook 391
▁pareja 391
▁ingresos 391
▁justicia 391
iéramos 391
▁contact 390
▁define 390
lock 390
gram 390
▁contain 390
▁cola 390
▁cur 390
▁peso 390
▁pieza 390
▁peces 390
▁Siempre 390
▁locales 390
ciente 390
▁neighbor 389
▁charge 389
▁celebra 389
▁combina 389
▁tomó 389
▁suficientemente 389
▁Muy 389
▁speaking 388
▁bone 388
▁struggle 388
▁fat 388
▁Sé 388
▁marcha 388
▁doble 388
▁Imaginen 388
▁opinión 388
▁Facebook 388
▁breath 387
▁party 387
▁panel 387
burg 387
▁combat 387
▁bebés 387
▁refugee 386
▁reales 386
▁avión 386
▁espacial 386
▁presión 386
▁summer 385
▁agricultura 385
uch 385
▁75 385
american 385
▁prosper 385
▁daño 385
▁medir 385
▁aplica 385
▁diga 385
▁abierta 385
▁influence 384
▁fantastic 384
▁refer 384
▁identity 384
▁absoluto 384
▁agujero 384
ecía 384
▁nube 384
▁engineering 383
▁organizations 383
▁cast 383
▁mistake 383
▁boys 383
▁sup 383
▁despite 383
▁hor 383
▁mata 383
▁Ven 383
▁serán 383
▁negros 383
▁serve 382
▁express 382
▁custom 382
▁bru 382
▁elección 382
▁administra 381
tones 381
craft 381
▁himself 381
tón 381
▁Sabemos 381
▁opción 381
▁atrapa 381
▁costos 381
▁revista 381
▁frontera 381
▁viola 380
ene 380
▁Mon 380
▁absolutamente 380
▁llegado 380
▁galaxia 380
▁production 379
▁museum 379
▁catch 379
▁forth 379
▁chip 379
▁vital 379
▁teaching 379
▁antiguo 379
En 379
tió 379
▁mobile 378
▁mostly 378
▁failure 378
▁chino 378
▁líneas 378
▁laugh 377
▁"( 377
eci 377
▁prob 377
▁bal 377
pues 377
▁descubrimiento 377
▁Pu 377
▁poderoso 377
▁pregunté 377
▁clases 377
▁observar 377
▁choices 376
▁continent 376
▁circle 376
▁crime 376
vier 376
▁habilidad 376
▁interesantes 376
▁tomamos 376
▁damos 376
▁rare 375
▁seat 375
▁corner 375
aw 375
▁val 375
▁arma 375
nza 375
▁amar 375
jó 375
▁acto 375
▁convirtió 375
▁whose 374
▁fabrica 374
▁frase 374
▁obviamente 374
▁películas 374
▁foundation 373
▁prima 373
▁árbol 373
▁beneficios 373
▁estaría 373
▁negra 373
▁trabajadores 373
▁demanda 373
▁alcanzar 373
▁evoluciona 373
▁probabilidad 373
▁speech 372
lk 372
▁weight 372
▁communicate 372
▁gun 372
▁prior 372
lig 372
▁... 372
▁distintas 372
▁responsable 372
▁heat 371
▁broken 371
▁ear 371
▁hate 371
zi 371
▁landscape 371
▁ingeniería 371
▁Nuestra 371
▁poderosa 371
▁pesa 371
▁viento 371
part 370
▁infrastructure 370
▁lack 370
▁spoke 370
▁grave 370
Q 370
▁colabora 370
▁cuerpos 370
▁reciente 370
▁generate 369
▁afraid 369
▁vale 369
▁gigante 369
▁lanza 369
ónica 369
▁cruza 369
▁active 368
term 368
than 368
▁election 368
▁streets 368
▁grit 368
▁encontrado 368
▁enfrenta 368
▁usuario 368
▁campaign 367
▁sick 367
▁recent 367
phone 367
▁verdadera 367
▁Realmente 367
▁triste 367
▁accidente 367
▁zonas 367
▁médica 367
▁genome 366
cies 366
tec 366
▁infraestructura 366
▁funcionar 366
▁Han 366
▁capture 365
▁Ac 365
▁asegurar 365
▁noticia 365
▁adolescente 365
▁ahead 364
▁station 364
▁bridge 364
▁effects 364
▁ventana 364
▁captura 364
▁campaña 364
▁Fui 364
▁hermana 364
▁neuronas 364
▁consecuencias 364
▁shock 363
▁habitación 363
abilidad 363
▁comencé 363
▁abrir 363
▁obvious 362
▁militar 362
▁barco 362
bio 362
▁opciones 362
▁estuviera 362
▁divertido 362
▁Quería 362
▁worst 361
▁volume 361
▁atmosphere 361
▁vehicle 361
hal 361
▁boca 361
▁visita 361
▁significado 361
▁quick 360
▁paid 360
▁opt 360
▁ch 360
& 360
▁protein 360
▁provoca 360
▁pase 360
▁entrega 360
▁piso 360
▁alimenta 360
▁useful 359
▁instrument 359
▁mad 359
▁knowing 359
▁following 359
▁estadística 359
▁conocemos 359
▁dieron 359
▁double 358
ow 358
cum 358
▁gender 358
▁aleja 358
▁verano 358
▁emocionante 358
▁próximos 358
▁banco 358
▁región 358
J 358
▁tercera 358
off 357
▁hotel 357
ego 357
▁london 357
▁orient 357
▁posición 357
▁corto 357
▁período 357
▁progreso 357
▁atmósfera 357
▁silla 357
▁pude 357
▁sociedades 357
▁feature 356
▁clo 356
berg 356
▁mess 356
▁nearly 356
▁bacterias 356
▁temas 356
▁diseñado 356
▁explorar 356
▁recibir 356
▁correo 356
▁Ri 356
▁vota 356
▁sufri 356
▁cirugía 356
▁brand 355
▁22 355
lógica 355
▁criatura 355
▁básica 355
▁plástico 355
▁entiende 355
▁repeti 354
mal 354
▁dispara 354
▁mud 354
▁interaction 354
▁pudo 354
▁importancia 354
▁copia 354
▁género 354
gente 354
▁visible 353
▁television 353
▁trouble 353
▁event 353
▁understood 353
▁continua 353
▁straight 353
▁gain 353
▁junta 353
▁político 353
▁etapa 353
▁ensayo 353
▁emotions 352
▁random 352
▁neurons 352
▁stopped 352
▁rota 352
▁unit 352
▁involucra 352
▁funcionan 352
▁whi 351
hand 351
▁answers 351
▁gap 351
▁autor 351
▁pocas 351
▁organiza 351
▁lleno 351
▁señales 351
▁replace 350
▁molecular 350
lé 350
▁felices 350
▁sitios 350
▁Man 350
▁diversidad 350
▁beat 349
▁highly 349
▁traffic 349
▁australia 349
▁layer 349
▁traje 349
▁liberal 349
▁genoma 349
▁química 349
▁pared 349
▁entrepreneur 348
▁shoot 348
▁belief 348
ugh 348
▁organ 348
gh 348
▁contarles 348
▁planetas 348
Me 348
▁creamos 348
▁rostro 348
▁peligro 348
media 347
▁destroy 347
▁limit 347
▁99 347
▁cabo 347
▁antigua 347
▁plataforma 347
▁mamá 347
▁conference 346
▁avoid 346
▁master 346
▁permit 346
▁members 346
cus 346
▁programs 346
▁planets 346
▁crucial 346
▁círculo 346
ándolo 346
hop 345
▁tissue 345
▁distance 345
▁listo 345
▁recientemente 345
▁kilómetros 345
▁nigeria 344
▁investment 344
▁construct 344
▁vibra 344
▁islam 344
dado 344
▁conocen 344
▁edge 343
▁saving 343
▁remove 343
▁depression 343
▁societies 343
▁lit 343
ena 343
▁realiza 343
▁hoja 343
▁artista 343
▁diferencias 343
▁camina 343
▁proteína 343
▁ropa 343
yes 342
▁copy 342
▁noticed 342
▁cab 342
▁2008 342
▁volar 342
▁creatividad 342
▁wood 341
▁graduate 341
▁experiments 341
▁determine 341
▁sla 341
riendo 341
▁celular 341
▁nuevamente 341
▁religión 341
▁directly 340
▁responsibility 340
▁admit 340
▁diversity 340
cop 340
dimensional 340
▁author 340
▁circula 340
▁usado 340
▁VIH 340
tiene 340
▁adultos 340
▁switch 339
▁condition 339
▁metro 339
▁arena 339
▁California 339
▁golpea 339
▁sample 338
▁closer 338
▁satellite 338
▁various 338
▁professor 338
▁differently 338
▁resid 338
▁editor 338
▁eficiente 338
▁minuto 338
▁fenómeno 338
▁conoce 338
▁chico 338
▁paisaje 338
▁california 337
▁flying 337
▁hell 337
▁creativity 337
▁indian 337
▁muslim 337
▁café 337
▁solamente 337
▁función 337
▁interesado 337
▁creando 337
iento 337
▁entrevista 337
▁refugiados 337
▁easier 336
▁surprising 336
▁addition 336
▁mover 336
▁victim 336
▁ancient 336
▁sac 336
▁technique 336
▁emit 336
▁trabajan 336
▁secundaria 336
▁Londres 336
▁scientist 335
▁damage 335
▁correct 335
▁sustainable 335
▁helping 335
▁trauma 335
▁profound 335
▁bol 335
▁giant 335
▁abstract 335
▁cer 335
oma 335
▁escena 335
▁ignora 335
▁raro 335
▁creía 335
▁ruido 335
▁posibilidades 335
▁transformar 335
▁seemed 334
▁husband 334
▁2010 334
▁banda 334
▁subir 334
damente 334
▁miembros 334
▁vacuna 334
▁escribió 334
▁pobre 334
▁bag 333
▁remarkable 333
▁argue 333
▁inspired 333
▁coast 333
▁promise 333
▁driver 333
▁surgery 333
▁rápida 333
Mi 333
cierto 333
▁apenas 333
▁aproximadamente 333
▁profesores 333
▁ref 332
▁engage 332
▁equal 332
▁arab 332
Ha 332
▁alternativa 332
▁perfecto 332
▁experimentos 332
Cuánto 332
▁extraordinario 332
▁tuvieron 332
▁similares 332
▁órgano 332
▁altura 332
▁elecciones 332
▁fragment 331
▁disappear 331
▁gather 331
▁supply 331
▁causes 331
▁ko 331
why 331
▁border 331
hood 331
▁Car 331
▁creación 331
▁ciclo 331
▁principales 331
▁delante 331
▁Algunas 331
▁estrés 331
▁easily 330
▁missing 330
▁climb 330
▁desert 330
▁tough 330
▁cave 330
▁reserva 330
Puede 330
▁miramos 330
▁instrumento 330
▁parecer 330
▁sentí 330
▁relaciona 330
▁escond 330
▁acelera 330
▁vieron 330
▁possibly 329
▁informe 329
▁legs 329
▁contest 329
▁regresar 329
▁riqueza 329
▁muestran 329
▁occidental 329
▁gráfico 329
ek 328
▁loca 328
▁vaca 328
▁Además 328
▁trabaja 328
▁below 327
▁desire 327
▁dying 327
▁ultimately 327
ivity 327
ency 327
▁zo 327
▁quedar 327
▁continente 327
▁Otro 327
▁piezas 327
▁parque 327
▁laptop 326
▁dynamic 326
▁invented 326
▁pack 326
▁passion 326
bility 326
▁drogas 326
▁sobrevivir 326
▁partículas 326
▁capacity 325
▁pole 325
▁carne 325
Pero 325
▁mueve 325
▁Somos 325
▁mecanismo 325
▁cycle 324
▁employ 324
▁king 324
▁imper 324
:" 324
▁increíbles 324
▁sencilla 324
▁enormes 324
▁dando 324
▁cambiando 324
▁aboga 324
▁Pues 324
Video 324
▁platform 323
▁rat 323
▁predic 323
vu 323
▁tren 323
ólogos 323
▁compleja 323
▁Nadie 323
▁diario 323
▁pesca 323
▁llaman 323
▁coloca 323
▁23 322
▁transfer 322
▁hearing 322
▁sorry 322
▁encourage 322
▁techo 322
▁suena 322
▁continuar 322
▁saca 322
▁fuerzas 322
▁internacional 322
▁independiente 322
▁traer 322
▁Hasta 322
▁complicado 322
▁published 321
▁cry 321
▁fill 321
▁birds 321
▁Resulta 321
▁empezando 321
▁ganado 321
▁sienten 321
▁consumer 320
▁alternative 320
▁gotten 320
▁played 320
▁slightly 320
▁networks 320
▁inferior 320
▁misterio 320
▁alimentar 320
▁Cor 320
▁wire 319
▁fully 319
▁apple 319
▁background 319
▁strength 319
▁rem 319
▁conectado 319
▁favorito 319
▁aquel 319
▁esperando 319
fí 319
▁emplea 319
▁occur 318
▁humor 318
▁brazil 318
▁0 318
▁sentence 318
▁mercados 318
▁claramente 318
▁colores 318
▁forces 317
nny 317
▁luna 317
head 317
▁studying 317
▁arrest 317
▁smell 317
▁cooper 317
▁escuchado 317
▁consumo 317
▁vender 317
▁propiedad 317
▁encuentran 317
▁cuesta 317
imo 316
▁aware 316
▁held 316
▁inevitable 316
▁opportunities 316
▁leadership 316
▁coal 316
▁replica 316
▁breve 316
▁detener 316
▁boat 315
▁aspira 315
▁ingredient 315
▁pies 315
▁chicas 315
▁precios 315
▁asesina 315
▁extreme 314
▁engineer 314
▁claim 314
▁10,000 314
▁outcome 314
▁explica 314
▁Comp 314
▁comunes 314
▁misión 314
▁piedra 314
▁mensajes 314
▁oxygen 313
▁weird 313
▁origin 313
mark 313
matic 313
▁suffer 313
▁reaction 313
▁narra 313
▁Isla 313
▁hecha 313
▁riesgos 313
▁vivía 313
▁logra 313
▁hueso 313
▁clínica 313
▁elementos 313
▁twice 312
▁religious 312
video 312
▁fábrica 312
▁peligroso 312
▁TV 312
▁benefit 311
▁sequence 311
▁chair 311
ef 311
▁produced 311
▁nations 311
▁passed 311
▁noise 311
▁sharing 311
▁symbol 311
▁meters 311
var 311
▁viva 311
▁miran 311
▁querían 311
▁existencia 311
▁inspira 311
▁construido 311
▁identificar 311
▁Rein 311
▁enfrentar 311
▁commercial 310
▁solid 310
dding 310
▁opposite 310
▁article 310
life 310
ological 310
▁beneficia 310
▁dé 310
▁complejidad 310
▁basura 310
▁crean 310
▁imagination 309
▁recover 309
look 309
chu 309
▁classroom 309
▁curva 309
▁vean 309
▁pensado 309
▁acciones 309
▁sucediendo 309
▁operation 308
▁absorb 308
▁hurt 308
▁modifica 308
▁alma 308
▁América 308
▁volví 308
▁Dr 308
▁sueños 308
▁mantiene 308
▁decidir 308
▁basis 307
▁root 307
▁dreams 307
▁focused 307
▁poet 307
▁Piensen 307
▁realizar 307
ducción 307
▁etiqueta 307
▁salta 307
▁pasión 307
▁orbit 306
▁crowd 306
▁devices 306
▁carry 306
▁engine 306
▁suffering 306
▁muscle 306
▁federal 306
▁entirely 306
▁infla 306
▁cine 306
▁shark 306
▁fila 306
▁fuego 306
▁construye 306
strucción 306
Oh 306
▁detectar 306
▁negative 305
▁afghanistan 305
▁importantly 305
▁bought 305
▁efficient 305
▁consume 305
▁reflex 305
▁incluyendo 305
▁próximo 305
▁expertos 305
▁nueve 305
▁scene 304
▁moda 304
▁empower 304
now 304
▁funny 304
▁israel 304
▁parent 304
▁explora 304
▁hacerse 304
▁análisis 304
▁basa 304
▁móvil 304
▁necesidades 304
▁estrella 304
▁coffee 303
▁correspond 303
▁astro 303
20 303
▁canción 303
▁depresión 303
▁lengua 303
▁blow 302
▁farmers 302
▁european 302
▁definition 302
▁interface 302
▁bright 302
▁magazine 302
▁actuar 302
▁enfoca 302
▁Trabaj 302
iéndose 302
▁flujo 302
▁lucky 301
▁1,000 301
▁counter 301
▁quiet 301
based 301
▁photos 301
▁broad 301
▁garden 301
▁partido 301
cuál 301
▁intento 301
▁puso 301
▁cumpl 301
▁estuve 301
▁tremendous 300
▁hang 300
▁satisfac 300
cious 300
ella 300
▁fuimos 300
▁malas 300
▁pega 300
▁profundamente 300
▁fascinante 300
▁errores 300
▁ejército 300
▁proporciona 300
▁mostraré 300
▁raised 299
▁yellow 299
▁implant 299
▁abuela 299
▁procesa 299
▁entera 299
▁chain 298
▁russia 298
▁warm 298
▁vertical 298
▁belong 298
▁estima 298
▁band 298
▁monta 298
▁actualmente 298
▁carretera 298
▁jamás 298
▁Bi 298
▁Pre 298
▁artistas 298
▁tareas 298
ándole 298
▁vimos 298
net 297
▁benefits 297
▁designers 297
▁exercise 297
▁oxígeno 297
▁diseñadores 297
▁electrónico 297
▁Col 297
▁competition 296
▁mr 296
lum 296
▁manage 296
▁identify 296
▁pudiéramos 296
▁siguen 296
▁aspectos 296
▁imaginación 296
▁definición 296
▁disminu 296
▁vía 296
▁pierde 296
▁norma 295
tech 295
▁bias 295
▁fluid 295
▁colo 295
▁iran 295
▁Sal 295
▁basado 295
▁Pienso 295
▁básico 295
▁participar 295
▁Com 295
▁límites 295
▁degrees 294
this 294
▁necessarily 294
▁intent 294
▁vuelo 294
▁miren 294
▁creativo 294
▁Algo 294
▁intentando 294
▁notion 293
▁faith 293
▁evolved 293
▁application 293
ví 293
ístico 293
ística 293
▁saludable 293
▁llevan 293
▁decían 293
▁oficial 293
▁investigadores 293
▁experimentar 293
▁periodista 293
▁architect 292
poli 292
▁puente 292
arme 292
▁influencia 292
▁podíamos 292
▁tradicional 292
▁conocí 292
▁establec 292
▁Parece 292
biendo 292
▁recuerda 292
▁Ki 292
▁artists 291
▁dimension 291
▁hol 291
▁mouth 291
▁decid 291
▁drag 291
▁strategy 291
▁chose 291
▁fácilmente 291
▁digamos 291
▁tantas 291
▁fantástico 291
▁Sur 291
▁Aunque 291
product 290
▁club 290
▁unlike 290
▁church 290
▁consciousness 290
▁ambas 290
▁viaja 290
▁aplicar 290
▁tarjeta 290
▁comunica 290
▁moléculas 290
▁parecido 290
tividad 290
▁versus 289
▁stuck 289
▁fashion 289
▁ski 289
▁molecules 289
▁narrative 289
▁avance 289
▁corriente 289
▁desaparece 289
▁sencillo 289
▁descubierto 289
▁blanca 289
▁spending 288
▁drawing 288
▁responsible 288
▁zone 288
▁proud 288
bed 288
▁rev 288
▁bomba 288
▁gro 288
▁ingenieros 288
▁Ve 288
▁rueda 288
▁caliente 288
▁abuelo 288
▁Sha 288
▁otherwise 287
position 287
▁deeply 287
▁stone 287
▁diagnostic 287
▁remote 287
▁manifest 287
▁discurso 287
▁viviendo 287
▁compromiso 287
▁Existe 287
▁clientes 287
ificación 287
▁ilumina 287
▁turning 286
▁ritual 286
▁billones 286
▁Afganistán 286
▁explota 286
▁recuperar 286
▁juntas 286
▁asombroso 286
▁impulsa 286
▁creencia 286
▁moderna 286
▁vacío 286
▁quote 285
▁figured 285
▁foreign 285
▁agent 285
▁contamina 285
▁civilization 285
▁arch 285
▁chica 285
▁tendrá 285
▁competencia 285
▁Ahí 285
▁Pri 285
▁intelectual 285
▁levanta 285
▁eléctrica 285
▁observ 284
▁suit 284
gging 284
▁according 284
▁mechanism 284
▁salió 284
▁descubrí 284
state 283
▁fighting 283
▁stem 283
▁identifica 283
▁fines 283
ü 283
▁venta 283
▁golpe 283
▁escribí 283
▁verdaderamente 283
Esto 283
▁cercano 283
▁tomando 283
▁normalmente 283
▁fueran 283
▁viajar 283
▁volvió 283
▁navega 283
▁Guerra 283
▁surprise 282
▁forever 282
▁tradition 282
▁iraq 282
▁estimate 282
▁contrast 282
▁pasan 282
▁aquella 282
▁llegamos 282
Co 282
▁Medio 282
▁tech 281
▁engineers 281
▁majority 281
that 281
▁imita 281
▁telescope 281
▁discrimina 281
▁diapositiva 281
▁consejo 281
▁aldea 281
▁Nosotros 281
▁distintos 281
▁extraordinaria 281
▁comunicar 281
▁Cha 281
▁tercio 281
▁complexity 280
▁adults 280
▁hunt 280
▁trend 280
▁eating 280
▁date 280
▁extremadamente 280
▁jefe 280
▁puse 280
▁aparato 280
Dónde 280
▁hablan 280
▁superar 280
▁Puedo 280
▁cultivo 280
▁possibility 279
▁believed 279
▁brilliant 279
▁multiple 279
▁consequences 279
▁2009 279
▁estándar 279
▁moderno 279
éis 279
▁caza 279
▁Todas 279
▁Saben 279
▁Gu 279
▁famoso 279
▁compared 278
▁bottle 278
▁critic 278
▁pretend 278
▁score 278
▁colonia 278
▁holding 278
▁shop 278
▁motion 278
▁ray 278
▁activo 278
▁bicicleta 278
▁baño 278
▁lección 278
▁medicamentos 278
▁aprende 278
▁oscura 278
▁cuándo 278
▁aumentar 278
▁attempt 277
gg 277
▁puzzle 277
▁journalist 277
▁mega 277
▁empa 277
▁surge 277
▁borde 277
▁estuvo 277
▁ambiental 277
▁inversión 277
▁ejercicio 277
áramos 277
▁Miren 277
▁leading 276
▁repeat 276
▁scar 276
▁grade 276
▁coordina 276
▁advantage 276
▁2007 276
▁For 276
▁ofrece 276
▁vieja 276
▁positiva 276
▁oír 276
▁gift 275
▁survey 275
▁minor 275
▁rein 275
▁resultó 275
▁David 275
▁generar 275
▁desastre 275
▁Qu 275
▁conecta 275
▁terreno 275
▁ubica 275
▁permiten 275
▁desafíos 275
▁flight 274
bol 274
▁reward 274
▁ecosystem 274
say 274
▁punta 274
▁decidimos 274
▁organismos 274
▁St 274
▁ricos 274
▁televisión 274
▁quiera 274
izó 274
▁naturales 274
▁ventaja 274
▁david 273
▁roof 273
▁technical 273
▁events 273
▁department 273
▁marriage 273
▁weak 273
▁formula 273
▁researchers 273
▁amiga 273
▁pudieran 273
▁matemático 273
▁decimos 273
▁llegan 273
▁liderazgo 273
▁27 272
▁clip 272
▁finish 272
▁mc 272
▁disorder 272
▁pinta 272
▁sostenible 272
▁plantea 272
dujo 272
▁frío 272
▁llamó 272
▁trastorno 272
▁particles 271
▁previous 271
room 271
▁roja 271
▁aplicación 271
▁descubrimos 271
▁premio 271
▁ecosistema 271
▁opened 270
chan 270
▁cord 270
▁alien 270
▁france 270
▁march 270
▁kenya 270
▁location 270
▁clinic 270
▁incrementa 270
▁hablo 270
▁positivo 270
▁dispuesto 270
▁convertido 270
▁trataba 270
▁Mc 270
▁expresión 270
▁oscuro 270
▁piernas 270
▁abejas 270
▁earn 269
▁paul 269
▁compare 269
▁daily 269
bot 269
ography 269
▁breast 269
▁metaphor 269
▁importar 269
▁reunión 269
▁olvida 269
▁reacción 269
▁familiares 269
▁click 268
▁fold 268
▁currently 268
▁studied 268
▁tea 268
▁british 268
ray 268
adura 268
▁entrada 268
▁habido 268
▁dimos 268
▁roca 268
▁tratamos 268
▁manejar 268
▁hormiga 268
▁soil 267
▁concern 267
▁volunteer 267
▁trained 267
▁verse 267
az 267
▁Washington 267
▁encuentro 267
▁arquitecto 267
▁demostrar 267
▁tratado 267
▁hacían 267
▁grown 266
▁discovery 266
where 266
▁ev 266
▁trillion 266
▁600 266
▁dress 266
▁failed 266
▁monkey 266
▁prize 266
uri 266
▁tanta 266
▁hablaba 266
▁llora 266
Está 266
▁cifra 266
▁dinner 265
▁crash 265
just 265
wood 265
hor 265
▁leaving 265
▁cálculo 265
▁ocurrir 265
▁registro 265
▁limited 264
▁neo 264
▁pose 264
▁reveal 264
▁stream 264
▁wearing 264
▁asocia 264
▁raza 264
▁cuáles 264
▁construyendo 264
▁maestros 264
▁matrimonio 264
▁profesional 264
ólogo 264
▁truck 263
▁folks 263
ik 263
▁watched 263
▁bird 263
▁ultra 263
▁anticipa 263
▁salva 263
▁madera 263
▁refiero 263
▁analizar 263
▁comment 262
▁restaurant 262
▁washington 262
▁judge 262
▁independent 262
▁pair 262
▁quo 262
▁escape 262
▁graph 262
▁odd 262
▁battle 262
▁resist 262
▁denomina 262
▁gato 262
▁detalles 262
▁químicos 262
▁equivocado 262
▁nace 262
▁alcanza 262
▁africanos 262
▁compañeros 262
▁ofrecer 262
▁fracaso 262
▁leader 261
▁childhood 261
▁received 261
izan 261
▁twitter 261
▁infantil 261
▁particularmente 261
▁reemplaza 261
▁sienta 261
▁percepción 261
▁profit 260
▁convince 260
▁degree 260
▁dozen 260
▁married 260
▁palm 260
▁flower 260
▁receptor 260
▁protest 260
▁marine 260
▁vest 260
▁nurse 260
▁registra 260
▁ataca 260
▁origen 260
▁Estado 260
▁Veamos 260
▁líder 260
▁dibujo 260
▁Aún 260
▁practica 260
▁autoridad 260
▁everyday 259
▁safety 259
▁dicta 259
▁electronic 259
ude 259
▁businesses 259
▁whale 259
▁clic 259
▁pelo 259
▁Todavía 259
▁esencial 259
▁Básicamente 259
▁apoya 259
▁específico 259
▁luces 259
▁sudden 258
▁row 258
▁managed 258
▁unless 258
▁crack 258
▁harder 258
▁status 258
▁pond 258
▁translate 258
▁relat 258
▁typical 258
▁quitar 258
▁carbón 258
▁lluvia 258
▁hambre 258
▁ponen 258
▁basada 258
▁sentimos 258
▁pelea 258
▁esencia 258
▁papá 258
▁encuesta 258
▁cárcel 258
▁airplane 257
▁fresh 257
▁mag 257
▁french 257
▁tribu 257
▁tomado 257
▁fuese 257
▁esperaba 257
▁conversaciones 257
▁Fe 257
▁llegué 257
▁imaginen 257
▁Unido 257
▁describir 257
▁considered 256
▁myth 256
▁gases 256
▁perception 256
▁comentario 256
▁vuelto 256
risas 256
▁museo 256
▁periódico 256
▁vecinos 256
▁fossil 255
▁necessary 255
▁bond 255
▁fairly 255
▁japan 255
▁succeed 255
▁rendimiento 255
▁inmediato 255
▁satélite 255
▁prisión 255
▁batalla 255
▁operate 254
onic 254
▁creatures 254
▁hidden 254
▁vaccine 254
▁curve 254
▁fellow 254
▁mathematics 254
▁espíritu 254
▁mejora 254
▁inicial 254
▁hiciera 254
▁fell 253
▁creation 253
list 253
▁asia 253
▁abuse 253
▁expression 253
▁transformation 253
▁comfortable 253
▁curious 253
▁channel 253
▁pod 253
▁corte 253
..... 253
▁Fu 253
grama 253
▁hablarles 253
▁computador 253
▁empezaron 253
60 252
▁worried 252
▁constantly 252
▁theater 252
▁valley 252
▁rap 252
▁bubble 252
▁assume 252
▁experienced 252
▁cena 252
▁convertirse 252
▁gate 251
town 251
▁talent 251
▁credit 251
▁caught 251
▁permanece 251
▁insectos 251
▁murió 251
▁empleados 251
▁Brasil 251
▁protesta 251
▁luchar 251
▁Twitter 251
ari 250
▁hopefully 250
▁confront 250
▁ride 250
▁reform 250
▁empiezan 250
▁dinámica 250
▁predecir 250
▁constantemente 250
▁Pensé 250
▁colectiva 250
▁writer 249
▁tim 249
▁agenda 249
▁analog 249
▁soul 249
▁surprised 249
▁release 249
▁slowly 249
▁tail 249
▁wake 249
▁egg 249
▁tomé 249
▁comenzamos 249
▁temor 249
▁generaciones 249
▁tiende 249
▁plano 249
▁aceptar 249
▁regla 249
▁conducir 249
▁Fa 249
hy 248
▁highest 248
▁resolv 248
▁conscious 248
▁guide 248
▁member 248
▁newspaper 248
▁ojo 248
▁Antes 248
▁innovador 248
vieron 248
▁contiene 248
▁características 248
▁hablado 248
▁almacena 248
▁regresa 248
▁dirá 248
▁escolar 248
▁califica 248
▁factores 248
▁pájaro 248
▁cargo 247
water 247
▁operating 247
▁capable 247
▁horse 247
▁65 247
dle 247
▁statistics 247
▁rig 247
▁promet 247
▁launch 247
▁restaurante 247
▁CO 247
▁rara 247
▁comercio 247
▁Japón 247
▁invertir 247
▁spirit 246
uring 246
▁mouse 246
▁insight 246
▁smile 246
win 246
▁grandmother 246
▁incorpora 246
▁piano 246
▁descend 246
▁creativa 246
▁teniendo 246
▁bolsa 246
▁Simplemente 246
▁algoritmos 246
▁encontró 246
▁spring 245
▁fascinating 245
▁lunch 245
ification 245
maker 245
▁1980 245
▁forced 245
▁dorm 245
roc 245
▁250 245
▁nación 245
▁privado 245
▁barato 245
▁responde 245
▁placer 245
▁recolect 245
▁frame 244
▁expected 244
▁related 244
▁stock 244
▁kick 244
▁declara 244
▁emociona 244
▁Paul 244
▁juguete 244
▁Probablemente 244
▁inmediatamente 244
▁recompensa 244
▁curiosidad 244
▁refleja 244
▁temprana 244
▁constante 244
▁cow 243
▁wash 243
▁snow 243
▁ignore 243
ective 243
▁manual 243
▁ring 243
▁calling 243
▁rub 243
▁transparent 243
30 243
▁culpa 243
▁dejó 243
▁trabajamos 243
▁adecuada 243
▁Australia 243
▁veamos 243
▁mirror 242
▁clinical 242
▁señor 242
▁guarda 242
▁tendremos 242
▁víctimas 242
Saben 242
▁Usa 242
▁The 242
▁argumento 242
▁mentioned 241
▁dollar 241
▁organic 241
▁bare 241
▁normally 241
▁described 241
▁hub 241
▁socio 241
▁cure 241
▁mito 241
▁marco 241
▁situaciones 241
▁Tan 241
▁Dije 241
▁necesariamente 241
▁topic 240
▁disaster 240
▁intellectual 240
▁contribute 240
▁exchange 240
▁illness 240
▁commun 240
▁2005 240
▁receive 240
▁symptom 240
▁flag 240
▁entero 240
▁diré 240
▁emisiones 240
ónico 240
▁Hub 240
▁esquina 240
▁vuelven 240
poniendo 240
▁cuerda 240
▁closed 239
▁logic 239
▁concerned 239
▁intelligent 239
▁brown 239
▁taste 239
▁insist 239
▁treated 239
▁conductor 239
▁daba 239
▁financiero 239
▁ninguno 239
▁Chi 239
▁ballena 239
▁diagnóstico 239
▁caused 238
▁seriously 238
▁plato 238
▁phenomenon 238
▁mentor 238
▁chocolate 238
▁flat 238
uit 238
▁congress 238
▁confirm 238
▁facial 238
▁sorpresa 238
▁Oh 238
gué 238
▁árabe 238
▁reunir 238
▁cuadrado 238
▁considerar 238
▁referencia 238
▁apasiona 238
▁interacción 238
▁budget 237
▁$ 237
▁weapons 237
▁followed 237
▁deeper 237
▁round 237
▁select 237
tábamos 237
▁maneja 237
▁impresionante 237
▁caer 237
▁quedan 237
▁variedad 237
▁llegue 237
arnos 237
▁héroe 237
▁pregunto 237
▁afirma 237
▁Ab 237
▁discussion 236
▁shut 236
▁finished 236
▁pounds 236
▁lifetime 236
▁fourth 236
▁advance 236
▁diez 236
▁crítico 236
▁Ver 236
▁presencia 236
▁tráfico 236
▁pasaba 236
ándonos 236
▁apoyar 236
born 235
▁hill 235
▁paying 235
hey 235
▁mode 235
▁golf 235
▁observe 235
▁milk 235
stream 235
▁lawyer 235
▁26 235
▁exhib 235
▁pila 235
▁Bill 235
▁Toma 235
▁vídeo 235
▁firma 235
▁Asia 235
▁distribución 235
▁destino 235
▁kilometers 234
▁sugar 234
▁compete 234
▁95 234
▁filled 234
▁electric 234
▁lung 234
▁liquid 234
▁official 234
power 234
▁survival 234
▁korea 234
▁decenas 234
▁Du 234
▁obvio 234
▁preguntó 234
▁significativa 234
▁talento 234
▁conocía 234
▁músculo 234
▁Nacional 234
▁correr 234
▁extract 233
▁prohib 233
▁button 233
▁regenera 233
▁bend 233
▁elect 233
▁increasingly 233
▁deporte 233
▁truco 233
▁suceder 233
▁alcance 233
▁significativo 233
▁podrán 233
▁creciendo 233
▁apaga 233
▁cuyo 233
▁inicio 233
▁biblioteca 233
▁perfecta 233
▁preguntamos 233
▁desplaza 233
▁metáfora 233
▁entrenamiento 233
▁oculta 233
▁dealing 232
▁brief 232
wo 232
▁32 232
▁invited 232
▁dry 232
▁witness 232
▁figura 232
▁2011 232
▁odio 232
▁caro 232
▁granja 232
▁prensa 232
▁asusta 232
▁desierto 232
▁cien 232
▁seguido 232
▁Oriente 232
▁núcleo 232
▁Recuerdo 232
▁stood 231
▁poem 231
▁tube 231
org 231
▁pale 231
▁50% 231
▁cambian 231
▁título 231
▁estará 231
▁pasamos 231
▁voces 231
▁cuidar 231
▁shoes 230
long 230
▁germany 230
▁ordinary 230
▁embrace 230
▁picked 230
▁bread 230
▁hong 230
▁racial 230
▁necesito 230
cito 230
▁recibí 230
▁término 230
▁oye 230
▁introduce 229
▁attach 229
▁rent 229
▁wheel 229
▁flexible 229
▁instant 229
▁pill 229
▁bang 229
▁2015 229
▁gang 229
▁sirve 229
▁aves 229
▁querido 229
▁chimpancé 229
▁bienestar 229
▁minister 228
▁cartoon 228
▁encounter 228
▁distant 228
▁associated 228
▁recur 228
▁chu 228
▁cognitive 228
▁robotic 228
▁pista 228
▁Espero 228
▁Volv 228
▁microbios 228
▁dijimos 228
▁podido 228
▁telescopio 228
▁perfectly 227
▁disrupt 227
▁lift 227
▁sensible 227
▁abre 227
▁abordar 227
▁SIDA 227
▁formación 227
▁molesta 227
Bien 227
▁aprendiendo 227
▁eliminar 227
▁pudimos 227
bió 227
▁contrata 227
▁profesionales 227
▁expectativa 227
ough 226
▁existence 226
▁collection 226
▁silence 226
▁nervous 226
▁install 226
▁diabetes 226
▁darwin 226
▁relative 226
▁horizon 226
mission 226
▁rica 226
▁proviene 226
▁botella 226
quién 226
▁favorita 226
▁Dijo 226
▁acumula 226
▁conocida 226
▁pasé 226
▁analiza 226
▁conexiones 226
▁matemática 226
▁pez 226
friend 225
▁planning 225
▁tomorrow 225
▁firm 225
▁chart 225
▁diet 225
▁george 225
▁tar 225
▁fiction 225
▁excepto 225
▁masiva 225
▁estimula 225
▁crece 225
tuvieron 225
▁Ru 225
▁sabían 225
▁decirle 225
▁Habla 225
▁Claro 225
▁símbolo 225
▁débil 225
▁protección 225
▁pasaría 225
▁rapid 224
▁killing 224
▁processes 224
▁classic 224
▁steve 224
▁agriculture 224
▁transition 224
▁plate 224
▁command 224
▁mama 224
▁trabajaba 224
▁Alemania 224
▁relacionado 224
ándome 224
▁dulce 224
▁empatía 224
▁collapse 223
▁ty 223
▁mathematical 223
▁army 223
▁designing 223
▁accurate 223
▁designer 223
▁consiste 223
▁grass 223
▁feminist 223
gged 223
▁2012 223
fish 223
▁macho 223
▁finales 223
▁adicional 223
▁cerrar 223
▁recorr 223
▁Queremos 223
▁mirada 223
▁aprecia 223
▁cuento 223
▁republican 222
▁setting 222
▁launched 222
▁epidemic 222
▁distribution 222
▁autism 222
▁impu 222
▁barra 222
activa 222
▁presupuesto 222
▁profundidad 222
Esta 222
▁comprensión 222
▁aquello 222
▁principalmente 222
▁apunta 222
▁llevado 222
▁Déjenme 222
▁hubiese 222
▁revisa 222
▁institute 221
▁analysis 221
▁courage 221
▁season 221
▁clara 221
▁yendo 221
▁crítica 221
▁esperamos 221
▁Steve 221
▁ponemos 221
▁emoción 221
▁igualdad 221
▁jugando 221
scale 220
▁advanced 220
▁microbes 220
▁wisdom 220
▁initial 220
▁1960 220
▁keeping 220
▁1990 220
▁guard 220
▁narrativa 220
▁ilustra 220
▁ingreso 220
▁queríamos 220
▁acá 220
▁alguno 220
▁brecha 220
▁flota 220
▁pertenece 220
▁aventura 220
posiciones 220
▁desigualdad 220
▁Occidente 220
▁beach 219
▁facing 219
▁specifically 219
▁100,000 219
▁extinct 219
▁discuss 219
▁conclusion 219
▁consistent 219
▁kitchen 219
▁peer 219
▁equation 219
▁reef 219
▁reforma 219
▁automóvil 219
▁cumplir 219
▁producen 219
▁juicio 219
▁prototipo 219
▁seguimos 219
▁construimos 219
▁invention 218
▁democratic 218
▁practical 218
▁pure 218
▁elephant 218
▁edit 218
▁proven 218
▁conforme 218
▁presentación 218
▁incluye 218
▁lento 218
▁necesaria 218
▁salvo 218
▁pedazo 218
▁obstáculo 218
▁burbuja 218
▁átomo 218
▁ethic 217
▁feedback 217
▁importance 217
▁speaker 217
▁hide 217
▁internal 217
▁display 217
▁fascina 217
▁examina 217
▁fiesta 217
▁ocurriendo 217
▁regalo 217
▁gustan 217
▁actitud 217
▁batería 217
▁epidemia 217
▁poema 217
▁equilibrio 217
▁financiera 217
▁actividades 217
▁involve 216
▁maintain 216
▁skill 216
▁ku 216
house 216
▁equivalent 216
▁wondering 216
▁loud 216
▁1970 216
▁2,000 216
▁establish 216
▁voluntario 216
▁colaboración 216
▁dimensiones 216
▁teatro 216
▁eléctrico 216
▁George 216
▁acostumbr 216
▁cima 216
▁alegría 216
▁pocket 215
▁participate 215
▁pray 215
▁1950 215
▁sweet 215
▁circuit 215
▁fake 215
greg 215
▁addict 215
▁sabíamos 215
▁logro 215
▁voluntad 215
gráfica 215
▁colocar 215
▁mueren 215
▁decirlo 215
▁logrado 215
▁soldados 215
▁aplicaciones 215
vision 214
▁nasa 214
▁marketing 214
▁rod 214
▁manufacturing 214
▁protection 214
gener 214
▁react 214
▁empathy 214
▁asiento 214
▁empuja 214
▁impulso 214
▁titula 214
▁autismo 214
▁fármaco 214
▁testing 213
▁heavy 213
▁hardware 213
▁essential 213
▁pleasure 213
▁persist 213
▁emotion 213
▁experimental 213
▁saved 213
▁tent 213
▁celebrate 213
▁exam 213
▁doubt 213
▁convencer 213
▁caballo 213
▁expresar 213
▁móviles 213
▁creó 213
▁recién 213
▁detalle 213
▁hospitales 213
▁warming 212
▁pilot 212
▁construction 212
▁circuito 212
▁journal 212
▁polar 212
▁flip 212
▁detector 212
▁cuestiones 212
Sabes 212
▁inspirado 212
▁genético 212
▁ratón 212
▁bajar 212
▁jardín 212
▁magia 212
▁rechaza 212
▁recicla 212
▁comenzaron 212
▁elabora 211
▁quarter 211
▁attract 211
▁convert 211
▁incident 211
▁gradual 211
▁20% 211
▁urbana 211
▁pusimos 211
▁biológica 211
▁esencialmente 211
▁levantar 211
▁merece 211
▁Finalmente 211
40 210
▁technological 210
▁combination 210
▁worldwide 210
▁reject 210
80 210
▁definitely 210
▁uniform 210
▁galaxy 210
▁advert 210
▁perfectamente 210
▁respeto 210
▁hogares 210
▁representan 210
▁diaria 210
▁espectro 210
▁personalidad 210
▁suministro 210
▁México 210
▁title 209
▁prediction 209
▁cup 209
▁acid 209
▁equipment 209
▁stupid 209
▁wing 209
▁dominant 209
▁electrical 209
▁academic 209
▁factory 209
▁released 209
▁temporal 209
▁nave 209
▁falla 209
▁globo 209
▁existía 209
▁podremos 209
▁Empecé 209
▁conservador 209
▁toneladas 209
▁cuadr 209
▁management 208
▁quantum 208
down 208
▁opening 208
▁hyper 208
▁teenager 208
▁deriva 208
▁property 208
▁increasing 208
▁consult 208
▁empty 208
▁mexico 208
uck 208
▁danger 208
▁propaga 208
▁tendrán 208
▁prácticamente 208
▁avanza 208
▁dormir 208
▁Har 208
▁oscuridad 208
▁historical 207
▁emissions 207
▁28 207
▁resource 207
▁inventor 207
▁broke 207
▁weather 207
▁increased 207
▁organized 207
▁jail 207
▁rico 207
▁trato 207
▁entusiasma 207
▁continúa 207
▁reloj 207
▁propiedades 207
▁espejo 207
▁negocia 207
▁salen 207
▁síntomas 207
▁recuerden 207
▁contract 206
▁publish 206
▁privilege 206
▁joke 206
▁36 206
▁alcohol 206
▁intimida 206
▁perceive 206
▁cantidades 206
▁resistencia 206
▁funcionó 206
▁conozco 206
▁quiénes 206
▁preparado 206
▁mosca 206
▁decidió 206
▁fase 206
▁sending 205
ami 205
▁surround 205
▁review 205
▁bow 205
▁chicken 205
▁healthcare 205
▁tranquil 205
▁2006 205
▁surgeon 205
▁1000 205
▁zapatos 205
▁anuncio 205
▁muchísimo 205
▁quita 205
▁alumnos 205
▁announce 204
▁appreciate 204
▁assumption 204
▁terror 204
▁suburb 204
▁height 204
▁shame 204
▁sight 204
▁conservative 204
▁harvard 204
graph 204
▁Nigeria 204
▁precisión 204
▁planifica 204
▁llegaron 204
▁categoría 204
▁psico 204
▁Canadá 204
▁porcentaje 204
▁guía 204
▁limb 203
▁usual 203
▁users 203
▁evil 203
▁library 203
▁desk 203
▁reinvent 203
▁underneath 203
▁diagnose 203
▁azúcar 203
▁té 203
▁escalera 203
▁tradicionales 203
▁rapidly 202
▁cutting 202
▁magnitud 202
▁arrived 202
▁pad 202
▁variety 202
▁southern 202
▁rocket 202
▁valuable 202
▁rational 202
▁inequality 202
▁adentro 202
▁lógica 202
▁Debemos 202
▁urbano 202
misión 202
▁Wo 202
▁agradable 202
▁paredes 202
▁trozo 202
▁daña 202
▁ilegal 202
▁Harvard 202
▁transformación 202
▁citizen 201
▁shake 201
▁handle 201
▁filter 201
hold 201
break 201
▁client 201
▁refrigera 201
▁export 201
▁# 201
▁solicit 201
▁bandera 201
▁huevo 201
▁privada 201
▁escuchando 201
▁vivienda 201
▁biológico 201
▁nervio 201
▁querer 201
▁nacimiento 201
ándola 201
▁fundamentally 200
▁brutal 200
▁roughly 200
▁bike 200
▁immune 200
▁toilet 200
▁shoulder 200
▁gdp 200
▁zoom 200
▁deserve 200
▁crecí 200
▁convencional 200
▁emprendedor 200
▁revolucion 200
▁lidiar 200
▁vergüenza 200
▁preguntaba 200
▁demostrado 200
▁reacciona 200
▁tip 199
▁distinct 199
▁tropical 199
▁covered 199
▁prime 199
▁route 199
rich 199
front 199
▁lanzar 199
▁motivo 199
▁dientes 199
▁permitió 199
▁Hola 199
▁moverse 199
▁suele 199
▁pensó 199
▁goberna 199
▁múltiple 199
▁brinda 199
▁meaningful 198
▁2004 198
▁relatively 198
▁added 198
▁possibilities 198
▁robust 198
▁scared 198
para 198
▁ego 198
▁medita 198
▁afro 198
Te 198
▁desgracia 198
▁consigue 198
▁potencia 198
▁quedó 198
▁lente 198
▁ajusta 198
▁venía 198
▁barrera 198
▁ficción 198
▁potente 198
▁yesterday 197
▁exception 197
▁typically 197
▁amazon 197
▁mention 197
▁tall 197
▁ladies 197
▁settle 197
▁pm 197
▁negativo 197
▁retira 197
▁mecánica 197
▁receta 197
▁juega 197
▁tradición 197
▁XX 197
ville 196
human 196
▁comfort 196
▁120 196
▁85 196
▁tape 196
▁selling 196
▁virgin 196
▁float 196
fully 196
▁pig 196
iana 196
▁miembro 196
Hay 196
Que 196
▁Universo 196
▁fruit 195
▁severe 195
▁engaged 195
▁clothes 195
▁polio 195
▁grid 195
▁jack 195
▁sheet 195
box 195
▁boom 195
▁retro 195
▁incentive 195
fold 195
▁awesome 195
▁permanente 195
▁reciben 195
▁coste 195
▁directo 195
▁documento 195
▁desespera 195
▁individuo 195
▁terminado 195
▁elefante 195
▁reconoci 195
▁salón 195
▁enfrentamos 195
▁olvidar 195
▁statement 194
▁funding 194
▁apartment 194
▁peak 194
▁plot 194
▁occasion 194
▁Asi 194
▁venga 194
▁gratis 194
▁espalda 194
▁sabiduría 194
▁valiente 194
▁entendemos 194
▁mortalidad 194
▁iglesia 194
ridge 193
▁effectively 193
▁chemistry 193
▁convinced 193
▁sl 193
print 193
▁astronaut 193
▁equip 193
▁dieta 193
▁conserva 193
▁80% 193
tuvimos 193
▁calentamiento 193
▁rompe 193
▁usarlo 193
▁tubo 193
▁terminó 193
▁supervivencia 193
▁archivo 193
▁crimen 193
▁Irak 193
▁cuadro 193
▁Kenia 193
▁sufrimiento 193
▁Fo 193
▁finance 192
▁inspiration 192
ifying 192
▁string 192
▁prince 192
▁vessel 192
▁pulled 192
▁kit 192
▁baile 192
▁pico 192
pusieron 192
▁corrupción 192
▁piloto 192
▁mueven 192
▁ciertamente 192
Podría 192
▁darse 192
▁atraves 192
▁terapia 192
▁religiosa 192
▁discapacidad 192
▁advice 191
▁awful 191
▁studio 191
▁england 191
ductor 191
▁plus 191
▁demonstrate 191
▁soft 191
▁reactor 191
▁privacy 191
▁veteran 191
▁intro 191
▁maestro 191
óxido 191
▁preocupado 191
▁pidió 191
▁estarán 191
▁Ok 191
▁volviendo 191
▁Times 191
▁consecuencia 191
▁civilización 191
▁gravedad 191
▁laboral 191
▁Francisco 191
▁sentirse 191
▁Congreso 191
▁naciones 191
▁arrecife 191
▁tribe 190
▁consumption 190
city 190
▁explanation 190
▁latin 190
▁illegal 190
▁swim 190
▁flash 190
▁relation 190
▁marina 190
▁coincide 190
▁improvisa 190
▁firme 190
▁salida 190
▁aprovechar 190
▁aviones 190
▁bailar 190
▁equivalente 190
▁diseñador 190
▁arreglar 190
▁sugiere 190
▁interactuar 190
▁haciéndo 190
▁alimento 190
▁confiar 190
▁Hici 190
▁encontraron 190
▁domestic 189
▁ruta 189
▁producing 189
▁employees 189
▁circumstance 189
▁toxic 189
▁generally 189
▁reached 189
▁carefully 189
▁primary 189
▁torre 189
▁90% 189
▁sombra 189
▁utilizando 189
▁gasto 189
▁MIT 189
▁visitar 189
▁Che 189
▁llevaba 189
▁cercana 189
▁incentivo 189
▁accomplish 188
▁infection 188
▁affected 188
▁corruption 188
▁britain 188
▁inspire 188
▁audit 188
▁officer 188
▁attitude 188
▁facilita 188
▁galaxies 188
▁diploma 188
▁dots 188
▁aterriza 188
▁presenta 188
▁NASA 188
▁rayos 188
▁existente 188
▁romper 188
▁nació 188
▁condena 188
▁terrestre 188
▁reconoce 188
▁pollution 187
▁recrea 187
▁invad 187
▁francisco 187
▁psycho 187
▁naturally 187
▁molecule 187
▁[" 187
▁extrema 187
▁suave 187
▁dejamos 187
safortunadamente 187
▁educativo 187
▁extranjero 187
▁impresión 187
▁caballero 187
▁enemigo 187
▁congela 187
▁northern 186
▁wrap 186
▁duplica 186
▁physically 186
▁prototype 186
▁storm 186
▁vagina 186
▁fósiles 186
▁Ustedes 186
Con 186
▁docena 186
▁veremos 186
Yo 186
▁caminando 186
▁hagamos 186
▁arriesga 186
▁Inglaterra 186
▁computación 186
▁Pasa 186
▁staff 185
▁personally 185
▁gravity 185
▁inherent 185
stimula 185
▁cruel 185
▁torn 185
▁intention 185
▁passionate 185
▁activities 185
▁combinación 185
▁terrorismo 185
▁específica 185
▁torno 185
▁frecuente 185
▁Tú 185
▁infancia 185
ecciones 185
▁relativamente 185
▁corteza 185
▁mammal 184
▁homo 184
▁properties 184
▁relate 184
▁decline 184
▁murder 184
▁german 184
▁potentially 184
▁tecnológica 184
▁observamos 184
▁ésto 184
▁bolsillo 184
▁recibe 184
▁vuelva 184
dónde 184
▁mencionar 184
▁agarr 184
▁moneda 184
▁exitoso 184
▁resolución 184
▁infecta 184
llowing 183
▁2003 183
▁defend 183
▁housing 183
▁applied 183
▁strip 183
▁section 183
▁neutral 183
▁christian 183
▁barrier 183
▁spectrum 183
▁appropriate 183
▁challenging 183
▁discusión 183
▁internacionales 183
▁pasada 183
▁ocurrido 183
▁contribuye 183
▁nervioso 183
▁salario 183
▁agricultores 183
▁required 182
▁statistic 182
▁defined 182
▁observation 182
▁hyp 182
▁physicist 182
▁guardia 182
▁younger 182
▁policies 182
▁racism 182
▁sano 182
▁escritura 182
▁orgullo 182
▁lectura 182
▁Ángeles 182
▁obsesion 182
▁llamaba 182
▁falsa 182
▁molécula 182
▁enfermera 182
▁privacidad 182
▁cirujano 182
▁dish 181
▁japanese 181
▁script 181
▁welcome 181
▁collaboration 181
▁angry 181
▁thin 181
▁einstein 181
▁melt 181
▁ants 181
▁10% 181
▁cuya 181
▁limitado 181
▁avanzar 181
▁organismo 181
▁mamífero 181
▁llevamos 181
▁borra 181
▁arrastr 181
▁agrega 181
▁reconocimiento 181
▁licencia 181
▁enferma 181
▁pelota 181
▁pedí 181
▁vistazo 181
▁length 180
▁prepared 180
▁italian 180
▁richard 180
▁commit 180
▁phrase 180
▁psychological 180
▁variable 180
▁rio 180
cultura 180
▁límite 180
jando 180
▁universitario 180
▁tomada 180
▁selva 180
▁sujeto 180
▁caída 180
▁tengamos 180
▁codifica 180
▁ayudó 180
▁sustain 179
▁mechanical 179
▁steel 179
▁manufacture 179
▁spider 179
▁chicago 179
▁breathe 179
▁file 179
▁youtube 179
▁conclusión 179
▁Casi 179
▁investigar 179
▁aprenden 179
gráfico 179
▁Amazon 179
▁milagro 179
▁gráfica 179
▁Einstein 179
▁asombrosa 179
▁lograrlo 179
▁civiles 179
▁quieran 179
▁intereses 179
▁desconocido 179
▁propose 178
▁winter 178
▁tower 178
▁repair 178
▁knee 178
▁antibiotic 178
▁optimism 178
▁emerging 178
▁configur 178
▁rescue 178
▁introduci 178
▁filtra 178
▁Éste 178
▁permiso 178
▁Habl 178
▁crecen 178
▁Wal 178
▁técnico 178
▁ponerlo 178
▁adecuado 178
▁Chicago 178
▁racional 178
▁servir 178
▁absolute 177
▁innovative 177
▁campus 177
▁equality 177
piece 177
▁balloon 177
▁introduced 177
▁pakistan 177
▁carro 177
▁physician 177
▁informal 177
▁microscope 177
▁cartel 177
▁reproduci 177
▁exig 177
▁Ésta 177
▁hembra 177
▁temprano 177
▁impuestos 177
▁ejecuta 177
▁transportation 176
▁productive 176
▁pump 176
▁frank 176
▁lens 176
▁pitch 176
▁capacit 176
▁unknown 176
▁contaminación 176
▁seleccion 176
▁efectivo 176
▁escultura 176
▁interna 176
▁radiación 176
▁realizado 176
▁famosa 176
▁leche 176
▁complicada 176
▁joined 175
▁presentation 175
▁radiation 175
▁habitat 175
▁shadow 175
▁identifi 175
▁objective 175
▁rebel 175
▁resume 175
▁fraud 175
▁columna 175
▁comparación 175
▁EEUU 175
▁jugadores 175
▁existir 175
▁miró 175
▁sanguíneo 175
▁crédito 175
▁típico 175
▁algoritmo 175
▁800 174
▁improvement 174
▁29 174
idio 174
▁parking 174
▁providing 174
▁centuries 174
▁titan 174
▁pregnant 174
▁fortuna 174
▁consulta 174
▁corporal 174
▁imprim 174
▁poca 174
▁primo 174
▁hable 174
▁droga 174
▁ayude 174
Á 174
▁supongo 174
▁organizar 174
▁hábitat 174
▁XXI 174
▁creciente 174
▁amplio 174
▁relevante 174
▁logramos 174
▁manzana 174
▁manager 173
▁framework 173
▁equally 173
▁leap 173
▁poetry 173
▁rush 173
▁combine 173
▁suppose 173
▁cueva 173
▁enfermo 173
▁interno 173
▁Richard 173
▁optimista 173
▁transmitir 173
▁vidrio 173
▁recuperación 173
▁distinto 173
▁Bar 173
▁polvo 173
▁precisamente 173
▁encaja 173
▁condición 173
▁Sudáfrica 173
▁hombro 173
▁PIB 173
▁conservation 172
half 172
▁chimpanzee 172
▁analyze 172
▁mystery 172
▁behave 172
▁disturb 172
▁disciplina 172
▁corriendo 172
clasifica 172
▁Permítan 172
▁encontr 172
▁fecha 172
▁poquito 172
▁orgulloso 172
▁lentamente 172
▁salvaje 172
▁cinta 172
▁microscopio 172
▁marido 172
making 171
▁terrorism 171
iness 171
▁horror 171
▁wal 171
▁2050 171
▁false 171
▁memories 171
clav 171
Podemos 171
▁separado 171
▁darnos 171
▁mostrado 171
▁compuesto 171
▁botón 171
▁esfera 171
grado 171
▁espiritual 171
▁daré 171
▁beneficio 171
Le 171
▁acompaña 171
▁persuad 170
▁exploration 170
▁paris 170
▁sculpture 170
▁trigger 170
▁medium 170
▁branch 170
stand 170
▁2014 170
▁computation 170
▁secure 170
▁syria 170
▁ayer 170
ltamente 170
▁falso 170
▁descarga 170
view 169
▁harvest 169
▁sophisticated 169
▁2001 169
▁confidence 169
▁govern 169
source 169
▁laboratory 169
▁fusion 169
▁relevant 169
▁dramatic 169
▁retire 169
▁Segundo 169
▁Bretaña 169
▁vivido 169
▁seguía 169
▁intentamos 169
▁extraer 169
▁explicación 169
▁músico 169
▁buscamos 169
▁esposo 169
▁académico 169
▁agencia 169
▁marino 169
▁emergencia 169
▁trampa 169
▁globe 168
,500 168
▁bush 168
▁evolutionary 168
▁transplant 168
▁shall 168
▁carrying 168
▁awareness 168
▁grandfather 168
▁therapy 168
▁struck 168
▁stretch 168
▁evolve 168
▁teeth 168
▁constant 168
▁painful 168
▁collected 168
▁impreso 168
▁recoger 168
▁gustaba 168
▁ciego 168
▁ingresa 168
▁Allí 168
▁democrat 167
▁flood 167
▁stronger 167
▁grain 167
▁neither 167
▁bound 167
▁clever 167
▁wound 167
▁singular 167
▁musician 167
▁mate 167
▁navigat 167
▁interrupt 167
foot 167
▁cortex 167
▁predator 167
▁audio 167
▁authority 167
▁disgust 167
▁viral 167
sexual 167
▁sustancia 167
▁reuniones 167
▁dueño 167
▁especializa 167
▁evidente 167
▁pasaje 167
▁muro 167
▁iPhone 167
▁antibiótico 167
▁700 166
▁rising 166
▁literature 166
▁invite 166
▁silk 166
▁atoms 166
▁printing 166
▁certifi 166
▁flores 166
▁Anderson 166
▁consumidores 166
▁intercambio 166
▁intención 166
▁exitosa 166
▁solucionar 166
▁Entre 166
▁nacido 166
▁Boston 166
▁estudiando 166
▁respeta 166
▁Debería 166
▁Francia 166
▁retroced 166
▁muchacho 166
▁tormenta 166
▁olor 166
▁5,000 165
▁reverse 165
▁nerve 165
▁unusual 165
▁brave 165
▁dust 165
script 165
▁humanitaria 165
▁gentlemen 165
▁battery 165
▁phase 165
▁bala 165
▁rol 165
▁efectivamente 165
▁elemento 165
▁determinar 165
▁sentada 165
▁déjenme 165
▁funcionamiento 165
▁masivo 165
▁dibujar 165
▁musulmanes 165
▁narrow 164
▁spiritual 164
▁scary 164
▁james 164
▁curiosity 164
▁dolphin 164
▁scholar 164
▁gripe 164
▁mostró 164
▁regreso 164
▁ponga 164
▁prevenir 164
▁dólar 164
▁inspiración 164
▁ordenador 164
▁dirige 164
▁privilegio 164
▁luchando 164
▁ética 164
▁acero 164
▁dobla 164
▁parezca 164
▁asigna 164
▁IA 164
▁economies 163
▁3,000 163
▁busy 163
▁monument 163
▁intense 163
▁bull 163
▁intervention 163
▁mineral 163
▁dropped 163
▁giga 163
▁swimming 163
nnie 163
▁origami 163
▁participación 163
▁pudieron 163
▁haré 163
▁menciona 163
▁Nada 163
▁propuesta 163
▁departamento 163
▁poesía 163
▁aporta 163
▁ciber 163
▁voto 163
▁clínico 163
▁iniciativa 163
▁YouTube 163
▁steal 162
▁permanent 162
▁placa 162
▁reference 162
▁molde 162
▁bg 162
▁Alguien 162
▁maravilla 162
▁Toda 162
▁Crea 162
▁dejado 162
▁fantástica 162
▁Debe 162
▁huella 162
▁suceda 162
▁británico 162
▁James 162
▁aterrador 162
▁entendimiento 162
▁Irán 162
▁$1 161
▁hydrogen 161
▁split 161
▁solving 161
▁numero 161
▁horizontal 161
▁frankly 161
▁exploit 161
▁neural 161
▁style 161
▁cyber 161
▁defense 161
▁33 161
▁inunda 161
▁fiscal 161
▁cobra 161
▁anual 161
▁podrá 161
▁Rusia 161
▁valioso 161
▁comporta 161
▁oeste 161
▁transición 161
▁fotografi 161
▁testigo 161
▁lecciones 161
▁cerdo 161
▁anderson 160
▁thick 160
▁hoping 160
▁boston 160
▁combined 160
▁biologist 160
▁surrounded 160
▁psychologist 160
▁assign 160
▁55 160
▁illusion 160
▁boring 160
▁lion 160
▁recta 160
▁hormona 160
▁bella 160
▁Gra 160
▁Hombre 160
▁elegido 160
▁abandonar 160
▁Israel 160
▁expresa 160
▁Frank 160
▁descubrió 160
▁invierno 160
▁distinta 160
▁tiburones 160
▁BG 160
▁promote 159
pending 159
▁clock 159
▁pipe 159
▁percentage 159
▁infinite 159
▁desperate 159
70 159
▁afternoon 159
▁sphere 159
▁rama 159
▁admira 159
▁longitud 159
▁eficiencia 159
▁Instituto 159
▁disfrutar 159
▁apartamento 159
▁publicado 159
▁fabricación 159
▁hiper 159
▁campamento 159
▁100% 159
▁posee 159
▁calculate 158
▁complain 158
▁bicycle 158
▁destruction 158
▁scenario 158
▁romantic 158
▁divorc 158
▁attend 158
▁variation 158
pel 158
▁conduce 158
▁candidate 158
▁suspend 158
▁polariz 158
▁defender 158
▁cliente 158
▁descri 158
▁tecnológico 158
▁préstamo 158
▁Cualquier 158
▁exploración 158
ísima 158
▁demuestra 158
▁investigaciones 158
▁Tuvimos 158
▁videojuego 158
▁escritorio 158
▁risa 158
▁locura 158
▁vincula 158
▁exposición 158
▁fútbol 158
▁pescado 158
▁resistance 157
▁pool 157
▁ultimate 157
▁concrete 157
▁ingenio 157
▁silent 157
▁tonight 157
▁confident 157
▁graphic 157
▁roto 157
▁sabor 157
▁despert 157
▁máximo 157
▁llevaron 157
▁salto 157
▁tí 157
▁resistente 157
▁típica 157
▁Corea 157
▁interfaz 157
▁ONU 157
▁corporation 156
▁instruction 156
▁pour 156
▁charles 156
▁mortality 156
▁pastor 156
▁psychology 156
▁gris 156
▁colega 156
▁arregl 156
▁Digo 156
▁escribe 156
▁involucrado 156
▁cristal 156
▁peligrosa 156
▁Dice 156
▁pide 156
▁smoke 155
▁capitalism 155
▁commitment 155
▁pace 155
▁emergency 155
▁dense 155
uff 155
▁overall 155
▁constrain 155
▁greenhouse 155
▁chapter 155
▁tonto 155
▁lying 155
▁Trata 155
▁ahorrar 155
▁índice 155
▁sucedido 155
▁sorprendió 155
▁adoptar 155
ómetro 155
▁escapar 155
▁actúa 155
▁fibra 155
▁tabla 155
duje 155
▁espectacular 155
▁avanzada 155
▁vigilancia 155
▁abuso 155
▁scream 154
ographic 154
▁explosion 154
▁michael 154
▁lecture 154
▁martin 154
▁rosa 154
▁photographer 154
control 154
▁egypt 154
▁amarillo 154
▁OK 154
▁agregar 154
▁fracasa 154
Tiene 154
▁permita 154
▁arroja 154
▁precisa 154
▁negativa 154
▁functional 153
▁recommend 153
▁engaging 153
▁committed 153
▁debt 153
▁celebr 153
▁reserve 153
▁absurd 153
▁coach 153
▁medication 153
▁surveillance 153
▁refuse 153
▁penguin 153
▁llegando 153
▁araña 153
▁instante 153
▁literatura 153
▁pecho 153
scrito 153
▁representación 153
▁anuncia 153
▁centavos 153
▁Egipto 153
▁motivation 152
▁taller 152
▁flies 152
▁alzheimer 152
▁somewhat 152
free 152
▁retina 152
▁victoria 152
▁pica 152
▁obama 152
▁observando 152
▁diseñada 152
vertimos 152
▁densidad 152
▁líquido 152
▁enseñó 152
▁excelente 152
▁diverse 151
▁presence 151
▁license 151
▁infant 151
▁articul 151
▁fiber 151
▁eastern 151
▁comic 151
▁colleague 151
▁gusto 151
▁religioso 151
▁patio 151
▁2013 151
▁multiplica 151
▁multitud 151
▁nieve 151
▁fruta 151
▁capitalismo 151
▁señora 151
▁preciso 151
▁danza 151
▁Observ 151
▁renunci 151
▁discut 151
▁Obama 151
▁efficiency 150
▁dioxide 150
ggle 150
▁september 150
▁scratch 150
▁occurred 150
▁external 150
▁weigh 150
▁overcome 150
▁trivial 150
▁computing 150
flex 150
▁unexpected 150
▁valid 150
▁birthday 150
▁corri 150
level 150
▁smartphone 150
▁establecer 150
Va 150
▁compartido 150
▁Llev 150
▁siguiendo 150
▁acceder 150
▁difundi 150
▁inject 149
▁extent 149
▁genius 149
▁underwater 149
▁silicon 149
▁degrada 149
▁penal 149
▁cerrado 149
▁equivoca 149
▁reducción 149
ificado 149
▁específicamente 149
▁definir 149
▁Centro 149
▁alcalde 149
▁contigo 149
▁muere 149
▁asociado 149
▁Inter 149
▁informática 149
▁Darwin 149
▁invernadero 149
▁destaca 149
▁cash 148
▁pacific 148
▁angeles 148
▁dramatically 148
▁agency 148
▁acabo 148
saben 148
▁histórico 148
▁conservación 148
▁cosecha 148
▁mínimo 148
▁intercambi 148
▁recogi 148
▁abruma 148
▁biólogo 148
▁candidato 148
▁procedimiento 148
▁mentira 148
▁promesa 148
▁éramos 148
▁operación 148
▁robótica 148
▁participantes 148
▁ought 147
▁judgment 147
▁sunlight 147
▁knock 147
▁causing 147
▁raw 147
▁conventional 147
▁organize 147
▁chest 147
▁escribiendo 147
▁Necesita 147
▁vínculo 147
▁dependien 147
▁presiona 147
▁alarma 147
dministración 147
▁Hice 147
▁electrónica 147
▁trabajé 147
▁hipótesis 147
▁productividad 147
▁comprob 147
▁lujo 147
▁cotidiana 147
▁tío 147
▁haiti 146
▁regulation 146
▁telephone 146
▁productivity 146
▁drill 146
▁carried 146
▁asteroid 146
▁cosmo 146
▁import 146
▁peculiar 146
▁posterior 146
▁Vemos 146
▁dignidad 146
▁nariz 146
▁prioridad 146
▁disminuye 146
▁médula 146
▁ansiedad 146
▁ruin 145
▁penetra 145
▁procedure 145
direct 145
▁euro 145
▁murieron 145
▁expansión 145
▁broma 145
▁habló 145
▁aparentemente 145
▁despertar 145
▁transparencia 145
▁pingüino 145
▁psicólogo 145
▁paradigm 144
▁continuous 144
▁ebola 144
▁blame 144
▁recognition 144
▁sensitive 144
▁hormone 144
destruct 144
▁rwanda 144
▁festival 144
▁hábito 144
▁ámbito 144
▁paradigma 144
▁Comenz 144
▁dejé 144
▁reconstruir 144
▁Obviamente 144
▁pidieron 144
▁ayudarnos 144
▁paquete 144
▁filosofía 144
▁equivocada 144
▁Michael 144
▁concreto 144
▁acusa 144
▁embarazada 144
▁regime 143
▁parallel 143
▁wow 143
▁nest 143
▁philosophy 143
▁tight 143
conscious 143
▁household 143
▁bello 143
▁apareció 143
▁enamora 143
▁continuación 143
▁atractivo 143
▁añadir 143
▁ingeniero 143
▁ahorro 143
▁instancia 143
▁Intent 143
▁extinción 143
▁capítulo 143
▁agrícola 143
▁pierna 143
▁grateful 142
▁implications 142
▁instinct 142
▁corporate 142
book 142
▁mortal 142
▁native 142
▁magnifi 142
▁angle 142
▁transparency 142
▁protocol 142
▁christmas 142
▁drama 142
▁42 142
▁tweet 142
▁París 142
▁selección 142
▁decidieron 142
▁vasos 142
▁permítanme 142
▁deshacer 142
▁experimentado 142
▁rasgo 142
▁inusual 142
▁tragedia 142
▁láser 142
▁Pensamos 142
▁cuestionar 142
▁sonrisa 142
▁rice 141
▁insert 141
▁geographic 141
▁drove 141
play 141
▁dignity 141
▁orange 141
worth 141
▁insurance 141
▁survivor 141
sahara 141
▁password 141
▁efectiva 141
▁hablé 141
▁Escuch 141
▁Wh 141
▁cuello 141
▁mostrando 141
▁súper 141
▁refiere 141
▁disfruta 141
▁razonable 141
▁direcciones 141
▁psicología 141
▁prejuicio 141
▁revenue 140
▁database 140
▁magnetic 140
▁gentle 140
▁sweat 140
▁2030 140
osphere 140
▁2016 140
▁activism 140
▁70% 140
Necesit 140
▁diagrama 140
▁Escrib 140
▁cubierta 140
▁septiembre 140
▁Web 140
▁operaciones 140
▁universities 139
▁ticket 139
called 139
▁inclusive 139
▁exploring 139
▁download 139
▁guarantee 139
▁2002 139
▁depth 139
▁obstacle 139
▁adam 139
▁anxiety 139
▁altitud 139
▁tunnel 139
▁izquierdo 139
▁Tres 139
▁compañero 139
▁avanzado 139
▁compartimos 139
▁primaria 139
▁apariencia 139
▁lidera 139
▁Charles 139
▁asegura 139
▁cubrir 139
▁40% 139
▁examen 139
▁compensa 138
▁engagement 138
▁dancing 138
▁careful 138
▁transit 138
▁sustainability 138
▁discipline 138
▁exhibition 138
▁wikipedia 138
▁philosopher 138
▁interpret 138
public 138
▁comedia 138
▁cabello 138
▁30% 138
▁Apple 138
▁diálogo 138
▁eficaz 138
▁colección 138
▁rodilla 138
▁pedimos 138
▁defensa 138
▁recurso 138
▁colegio 138
▁asumir 138
▁empresarial 138
▁column 137
▁wireless 137
▁strike 137
▁greek 137
▁cluster 137
▁authentic 137
▁controlled 137
▁senior 137
▁reconstruct 137
▁mathematician 137
▁tsunami 137
▁football 137
▁48 137
▁introvert 137
▁regret 137
▁rehabilita 137
▁futura 137
▁proyecta 137
▁renovable 137
▁entrenar 137
▁raíces 137
▁discutir 137
▁Empezamos 137
▁elegante 137
▁recibido 137
Dios 137
▁fotógrafo 137
▁automático 137
▁aguja 137
▁apertura 137
▁airport 136
▁ensure 136
▁alarm 136
▁conclude 136
▁lifestyle 136
▁suicide 136
▁identical 136
▁miracle 136
▁obsessed 136
▁struggling 136
▁appeal 136
person 136
▁initiative 136
▁expectations 136
▁rango 136
▁accesible 136
▁encuentre 136
▁hidrógeno 136
▁perdiendo 136
▁Vean 136
▁conectada 136
▁cuida 136
▁aceite 136
▁Martin 136
▁aburrido 136
▁Street 136
▁asteroide 136
▁precisely 135
phy 135
▁blank 135
▁herself 135
▁twin 135
▁apparently 135
▁wage 135
▁homeless 135
▁íbamos 135
▁actualidad 135
▁órbita 135
▁dibuja 135
▁Banco 135
▁contribuir 135
▁ecuación 135
▁inventar 135
▁histórica 135
▁vinieron 135
▁Wikipedia 135
▁GPS 135
▁detección 135
▁illustrate 134
▁flew 134
▁selection 134
▁hook 134
▁automatically 134
▁plaza 134
▁shelter 134
▁commission 134
▁diagram 134
▁distributed 134
▁cheat 134
▁pink 134
▁rhythm 134
▁surf 134
▁deposit 134
▁magnet 134
▁evita 134
▁granjero 134
▁tarda 134
▁permitido 134
▁demasiada 134
▁destruir 134
▁portátil 134
▁genio 134
▁encontraba 134
▁jugador 134
▁envejece 134
▁cambie 134
▁compound 133
related 133
▁resolution 133
▁amongst 133
▁contempla 133
▁nerd 133
▁exhaust 133
field 133
▁isolated 133
▁ascenso 133
▁Estudi 133
▁gesto 133
▁convertí 133
▁celda 133
▁encarga 133
▁incendio 133
▁inmigrante 133
▁simetría 133
▁strategies 132
▁depressed 132
▁underground 132
▁council 132
▁portrait 132
▁district 132
▁dominio 132
▁altruist 132
▁1% 132
sociación 132
▁iniciar 132
▁admitir 132
▁empezado 132
▁pareció 132
▁diccionario 132
▁comparten 132
▁estrecha 132
X 132
▁engaña 132
▁cuarta 132
▁Verán 132
▁cuántica 132
▁colectivo 132
▁Espera 132
▁leído 132
▁embarazo 132
▁restrict 131
▁legacy 131
▁jim 131
▁raising 131
▁controversia 131
▁highway 131
▁complica 131
▁division 131
word 131
▁vigil 131
▁rank 131
▁suicida 131
▁junio 131
▁intact 131
▁inclina 131
▁excepción 131
▁XIX 131
▁escuché 131
▁asegurarnos 131
▁convenc 131
▁garantiza 131
▁elige 131
▁francés 131
▁recibió 131
▁ocasiones 131
▁Significa 131
▁tridimensional 131
▁Mujer 131
▁entienda 131
▁arrive 130
▁kingdom 130
▁creature 130
▁hunger 130
grand 130
▁honey 130
▁twenty 130
▁librar 130
▁gps 130
▁pizza 130
▁adventure 130
▁barata 130
iéndolo 130
▁Sabía 130
▁comenzando 130
▁convencido 130
puede 130
▁exponencial 130
▁curioso 130
▁medicamento 130
▁judío 130
▁cohete 130
▁poorest 129
▁borrow 129
▁thomas 129
▁tension 129
▁shopping 129
▁phenomena 129
▁champion 129
▁exposed 129
▁optimistic 129
▁ridiculous 129
▁properly 129
▁fabric 129
▁autonomous 129
▁disagree 129
▁aeropuerto 129
▁ministro 129
▁filtro 129
▁espectáculo 129
▁secundario 129
▁ratones 129
▁remota 129
▁mágico 129
▁ONG 129
▁institución 129
▁plena 129
▁renewable 128
▁thumb 128
▁capita 128
▁reproduce 128
▁recruit 128
▁casual 128
▁conceptual 128
▁participants 128
changing 128
▁marginal 128
▁contradict 128
▁surgió 128
▁querría 128
ensambla 128
▁apropiada 128
▁orgánico 128
▁refugio 128
▁ancestro 128
▁habitantes 128
▁definitivamente 128
▁cubierto 128
▁cómic 128
▁Segunda 128
▁interacciones 128
▁Debido 128
▁filósofo 128
▁permission 127
▁promot 127
▁chief 127
▁fortunately 127
▁corrupt 127
▁spark 127
▁adjust 127
▁dirty 127
▁proportion 127
▁breed 127
▁heaven 127
▁perfora 127
▁reducido 127
▁erradic 127
▁obstante 127
▁ciega 127
▁Jim 127
▁división 127
▁retrato 127
▁ilusión 127
▁cognitiva 127
▁PM 127
▁ugly 126
▁tired 126
▁snap 126
▁190 126
▁bathroom 126
▁fortune 126
▁plug 126
▁segment 126
▁distract 126
▁slip 126
normal 126
▁plenty 126
active 126
▁slavery 126
▁vocal 126
▁tuberculosis 126
“ 126
▁limpio 126
▁Thomas 126
▁construí 126
▁calent 126
▁dificultades 126
▁ángulo 126
▁procesamiento 126
▁recorrido 126
▁transmisión 126
▁reacciones 126
▁alucina 126
▁convenient 125
▁excuse 125
▁2020 125
▁ultraviolet 125
▁dialogue 125
▁elsewhere 125
▁fascinated 125
▁jazz 125
▁complement 125
▁reduction 125
▁cousin 125
▁tragedy 125
▁proof 125
▁natal 125
▁protege 125
▁postura 125
ócrata 125
▁perdió 125
▁Pacífico 125
▁respondió 125
▁autopista 125
ferencia 125
▁limitaciones 125
▁relacionadas 125
▁perfil 125
▁accessible 124
▁robert 124
▁bullet 124
▁fulfill 124
century 124
▁hungry 124
▁embedded 124
▁subtle 124
▁miserable 124
▁stake 124
▁decrease 124
▁darkness 124
▁ventila 124
▁vacaciones 124
▁saliendo 124
▁indígena 124
▁desechos 124
▁Naturaleza 124
▁supiera 124
▁territorio 124
▁obtenemos 124
▁recaud 124
▁Creemos 124
▁entró 124
▁almuerzo 124
▁synthetic 123
▁backwards 123
▁sharp 123
▁uncomfortable 123
▁olympic 123
▁agita 123
▁mindset 123
▁gulf 123
▁orchestra 123
▁tragic 123
▁profile 123
▁gestión 123
▁Unión 123
▁prefiere 123
▁explosión 123
▁temporada 123
▁práctico 123
▁Bang 123
▁fluye 123
correcto 123
▁residuos 123
▁Ruanda 123
▁acknowledge 122
▁abundant 122
▁rebuild 122
▁sacred 122
▁1998 122
▁footprint 122
▁fifth 122
yeah 122
▁neuroscience 122
▁anonymous 122
▁stroke 122
▁intuition 122
▁excava 122
▁cromosoma 122
▁procede 122
▁leyendo 122
▁rastrea 122
▁incómodo 122
▁lleve 122
▁carácter 122
▁Cuanto 122
▁aproxima 122
▁remoto 122
▁sufren 122
▁vestido 122
▁razon 122
▁investigador 122
▁dificulta 122
▁predicciones 122
▁desempeño 122
▁january 121
▁immediate 121
▁partnership 121
▁chromosome 121
▁1999 121
▁forgotten 121
▁interroga 121
▁enemy 121
▁experiencing 121
▁routine 121
▁exponential 121
▁modest 121
▁ethnic 121
▁expone 121
▁Recuerden 121
▁Mucha 121
▁tremenda 121
▁acercó 121
▁Alzheimer 121
▁instrucciones 121
▁Museo 121
▁Comenc 121
▁casualidad 121
▁envió 121
▁cumpleaños 121
cuánto 121
▁Pakistán 121
▁producido 121
▁túnel 121
▁informático 121
▁regard 120
▁poison 120
▁session 120
▁slum 120
▁pyramid 120
▁extremist 120
▁achievement 120
▁chronic 120
▁passenger 120
▁obvia 120
▁Robert 120
▁Estuv 120
▁francamente 120
▁gracioso 120
▁escuche 120
▁crecido 120
▁intensa 120
▁curiosa 120
▁cooperación 120
▁fusión 120
▁murciélago 120
▁brilla 120
▁trayectoria 120
▁maestra 120
▁tangible 119
▁afterwards 119
▁manhattan 119
▁consequence 119
▁density 119
▁confused 119
▁rainforest 119
▁cooperation 119
▁pursue 119
when 119
▁arrange 119
▁governance 119
▁spell 119
▁arbitra 119
▁earthquake 119
▁ethiopia 119
▁weapon 119
▁bombarde 119
epto 119
▁fantasma 119
▁innovaciones 119
▁diversas 119
▁pausa 119
▁Manhattan 119
Tengo 119
▁muestro 119
▁supermercado 119
▁cerveza 119
▁telefónica 119
▁terminé 119
▁ahorra 119
▁esclavitud 119
▁upset 118
▁vietnam 118
▁package 118
▁opposed 118
▁skull 118
▁recipe 118
▁affair 118
▁arctic 118
▁funeral 118
▁organiz 118
▁substance 118
material 118
▁imaging 118
▁Haití 118
parecieron 118
▁Microsoft 118
▁corazones 118
▁pregunte 118
▁Salud 118
▁asegur 118
▁aislado 118
▁entertainment 117
▁vegetable 117
▁measuring 117
▁stanford 117
▁idiot 117
▁enhance 117
▁rough 117
▁uganda 117
▁texas 117
▁boundaries 117
▁tribal 117
▁ceiling 117
▁ratio 117
▁request 117
▁hollywood 117
▁flee 117
▁recomend 117
▁sostener 117
▁alinea 117
▁aprovecha 117
▁poblaciones 117
▁neurociencia 117
▁Stanford 117
▁especialista 117
▁ligeramente 117
▁conseguí 117
▁vecindario 117
▁Número 117
▁sneak 116
▁mood 116
▁figuring 116
▁worm 116
▁particle 116
▁concert 116
▁trump 116
▁eterna 116
▁dispersa 116
▁gubernamental 116
▁culpable 116
▁bonito 116
▁llamé 116
▁preparar 116
▁reputación 116
▁comenzado 116
▁muerta 116
Alguien 116
▁terremoto 116
▁incertidumbre 116
▁contribution 115
▁pigment 115
▁microsoft 115
dollar 115
▁resilience 115
▁calendar 115
▁colony 115
▁excita 115
▁medic 115
▁homosexual 115
▁Llega 115
▁vecino 115
▁devolver 115
▁America 115
▁autobús 115
▁obesidad 115
▁reparar 115
Audiencia 115
▁definitiva 115
▁enseñanza 115
▁Leona 115
▁General 115
▁claridad 115
▁rutina 115
iésemos 115
▁ignorancia 115
▁asistente 115
▁textbook 114
▁pathway 114
▁panorama 114
▁industries 114
▁clothing 114
▁athlete 114
▁mutation 114
▁spectacular 114
▁ignorance 114
+ 114
▁mutila 114
▁sensorial 114
▁camiones 114
▁arroz 114
▁sofisticado 114
ducimos 114
▁pedido 114
▁ocurra 114
▁resonancia 114
▁instinto 114
▁apropiado 114
▁sucesivamente 114
▁libras 114
▁ghana 113
▁garage 113
▁attractive 113
▁intuitive 113
▁extension 113
▁juvenil 113
▁smooth 113
▁domain 113
▁yield 113
▁sheep 113
▁rabbi 113
▁underlying 113
▁neuronal 113
▁desperdicio 113
▁asesor 113
▁invención 113
▁Llam 113
▁construida 113
▁ponía 113
▁Texas 113
▁desagradable 113
▁desorden 113
▁hierba 113
▁Hollywood 113
▁tiburón 113
▁freak 112
▁overwhelming 112
▁obesity 112
▁gesture 112
▁demographic 112
▁reputation 112
▁slice 112
▁william 112
▁pause 112
▁tackle 112
▁recycle 112
▁advocate 112
▁programming 112
▁extrovert 112
▁encender 112
▁preocupe 112
Soy 112
▁Fundación 112
▁ganó 112
▁World 112
▁Tendr 112
▁resuelto 112
▁externa 112
▁aferr 112
▁lucro 112
▁encarcela 112
Cuánta 112
▁químico 112
▁gratuita 112
▁defensor 112
▁sagrado 112
▁rescate 112
▁frog 111
▁discoveries 111
▁garbage 111
▁interactive 111
▁baseball 111
▁explode 111
▁description 111
▁perpetua 111
▁germ 111
▁diagnosis 111
▁ascend 111
▁impedi 111
▁sólido 111
▁régimen 111
▁llave 111
¿ 111
▁remonta 111
▁tumba 111
▁comunitario 111
▁inmune 111
▁seguimiento 111
Cuándo 111
second 110
▁nutrition 110
▁injury 110
resistant 110
▁profession 110
▁fought 110
▁contagio 110
▁recupera 110
▁Vivimos 110
▁lámpara 110
▁compartida 110
▁micrófono 110
▁creció 110
▁profesión 110
▁proporción 110
▁depredador 110
▁orquesta 110
▁annual 109
▁coloniz 109
▁empire 109
▁zip 109
▁sandwich 109
▁fluorescent 109
▁sync 109
▁tribunal 109
▁bonita 109
cuán 109
▁raíz 109
▁frágil 109
▁necesite 109
Verdad 109
▁fabricante 109
▁inconsciente 109
▁logró 109
▁característica 109
▁muriendo 109
▁esqueleto 109
▁William 109
▁incremento 109
▁voluntaria 109
▁consigo 109
▁exagera 109
▁indio 109
▁Junto 109
▁Navidad 109
▁clásico 109
▁reducing 108
▁comparison 108
▁charity 108
▁civic 108
▁compose 108
▁pioneer 108
▁association 108
▁frozen 108
▁margin 108
▁facility 108
▁twist 108
▁immigrant 108
▁plasma 108
▁primavera 108
▁eventualmente 108
▁conozca 108
azón 108
▁nutrientes 108
▁sugerir 108
▁distrito 108
Cierto 108
▁vulnerabilidad 108
Guau 108
▁cardíaco 108
▁víctima 108
▁convirtieron 108
▁atlantic 107
sufficient 107
▁evapora 107
▁sweden 107
specific 107
▁mount 107
▁sacrifice 107
▁demonstration 107
▁fraction 107
▁naranja 107
▁femenino 107
▁divertida 107
▁entretenimiento 107
▁Departamento 107
Alguna 107
▁Imagin 107
▁estacionamiento 107
▁mutuamente 107
▁nietos 107
▁pasillo 107
▁engaño 107
▁Uganda 107
▁Suecia 107
▁inesperado 107
▁intervención 107
▁lanzamiento 107
▁Actualmente 107
scope 106
▁egyptian 106
▁paradox 106
▁sketch 106
▁glacier 106
▁buried 106
▁accus 106
▁shout 106
▁furniture 106
▁forgive 106
▁naked 106
▁august 106
▁agencies 106
▁temple 106
▁kidney 106
▁uncertainty 106
▁scott 106
▁cliff 106
▁habitual 106
▁vegetal 106
▁estresa 106
▁lejano 106
Aplauso 106
▁Podía 106
▁trabaje 106
▁intuición 106
▁delfines 106
▁episodio 106
▁acquire 105
▁aesthetic 105
▁competitive 105
▁130 105
▁expertise 105
hrew 105
▁spray 105
▁advertising 105
▁accelerate 105
▁parliament 105
▁hydro 105
▁leverage 105
▁thrive 105
▁taliban 105
▁sensation 105
▁perturba 105
▁1994 105
▁primarily 105
▁cricket 105
▁redefini 105
▁inmensa 105
▁contaba 105
Para 105
▁envejecimiento 105
▁afortunada 105
▁comprometido 105
▁recluta 105
▁psicológica 105
▁ánimo 105
▁femenina 105
▁viviente 105
▁infección 105
estadounidense 105
▁antepasados 105
▁afortunado 105
▁amistad 105
▁particip 104
▁intersection 104
▁breakthrough 104
▁immense 104
▁genital 104
▁simplicity 104
▁interconnect 104
▁crystal 104
▁banana 104
▁turkey 104
▁higgs 104
▁electoral 104
▁carril 104
▁choca 104
▁Ghana 104
▁empodera 104
▁atrev 104
▁cuantas 104
▁espectador 104
▁Florida 104
▁estómago 104
▁Internacional 104
▁imagino 104
▁nací 104
▁pongo 104
▁energética 104
▁injusticia 104
▁exámenes 104
▁glamur 104
▁happier 103
▁october 103
▁regardless 103
▁equilibr 103
▁disconnect 103
▁skeleton 103
▁damn 103
▁jewish 103
▁probability 103
▁petrol 103
▁terrifying 103
▁racist 103
▁choosing 103
▁graduado 103
▁maíz 103
▁aborda 103
▁billete 103
▁magnético 103
▁destruye 103
▁tradiciones 103
▁ridículo 103
▁esquema 103
▁demostración 103
▁inocente 103
▁cardíaca 103
▁cráneo 103
▁Higgs 103
▁silver 102
▁theories 102
▁conspira 102
▁insulin 102
▁mushroom 102
▁excellent 102
▁visceral 102
▁prepare 102
▁diciéndo 102
▁inversiones 102
▁diseñamos 102
▁griego 102
▁español 102
▁desecha 102
▁derrame 102
▁magnética 102
▁conseguimos 102
▁glaciar 102
▁fórmula 102
▁fragile 101
▁compromise 101
▁passive 101
▁carpet 101
▁shrink 101
▁relax 101
▁detroit 101
▁threatened 101
▁intimate 101
▁sediment 101
▁ejecutivo 101
▁perdí 101
▁tóxico 101
▁Valley 101
▁descubre 101
▁revés 101
▁servidor 101
árselo 101
▁dispuesta 101
Cree 101
▁screw 100
▁inhibi 100
▁stomach 100
▁collaborative 100
▁mysterious 100
▁beetle 100
▁attribute 100
ison 100
▁shore 100
▁migrant 100
▁broadcast 100
▁extremism 100
▁estupendo 100
▁choque 100
ámoslo 100
▁Ciudad 100
▁helicóptero 100
▁infinita 100
▁ácido 100
▁certeza 100
▁autónomo 100
▁mágica 100
▁1995 99
▁array 99
▁dumb 99
▁astonishing 99
▁thrill 99
▁indigenous 99
▁grandchildren 99
assembly 99
▁nonprofit 99
▁translation 99
▁augment 99
▁storytelling 99
▁enterprise 99
▁criterio 99
▁simplifica 99
▁Quisiera 99
▁derrota 99
▁externo 99
Entonces 99
▁traducir 99
▁vendedor 99
▁Golfo 99
▁fortaleza 99
▁sobreviviente 99
▁purchase 98
▁helicopter 98
▁algae 98
▁impression 98
▁torture 98
▁transistor 98
▁migration 98
▁segrega 98
▁optimiza 98
▁dimensión 98
▁inyecta 98
▁soportar 98
▁escáner 98
▁grandioso 98
▁juventud 98
▁recibimos 98
▁umbral 98
▁caricatura 98
▁Supongo 98
▁desconect 98
▁sospecho 98
▁genocidio 98
▁automobile 97
▁inherit 97
▁1.5 97
▁expansion 97
▁soviet 97
placing 97
▁bureau 97
▁dictionary 97
▁wheelchair 97
▁unbelievable 97
▁frequency 97
▁structural 97
▁genocide 97
▁matrix 97
▁mechanics 97
▁symmetry 97
▁restaura 97
▁descubrieron 97
▁constituye 97
▁democrática 97
▁Italia 97
▁decepcion 97
▁concluir 97
▁incluir 97
▁impresiona 97
▁instantánea 97
▁sustentable 97
▁interconec 97
▁abrió 97
ástico 97
▁avergonz 97
▁disparo 97
▁reflejo 97
▁justifica 97
▁pirámide 97
▁Revolución 97
school 96
▁sauce 96
▁contemporary 96
▁aggressive 96
▁transcend 96
▁signature 96
▁converge 96
▁innocent 96
▁simultaneously 96
▁register 96
▁orgánica 96
▁continuo 96
▁perdón 96
▁soporte 96
▁discusiones 96
▁extensión 96
É 96
▁infinito 96
▁relaja 96
▁Quieren 96
▁camión 96
▁proveedor 96
▁templo 96
▁crímenes 96
▁watt 95
spire 95
▁drift 95
fusion 95
▁metabolism 95
okay 95
▁lesbian 95
▁diablo 95
▁Atlántico 95
▁consumidor 95
▁exceso 95
▁Oxford 95
▁institucional 95
ísimo 95
▁dilema 95
▁descifrar 95
▁Detroit 95
▁intestino 95
▁subyacente 95
▁sequía 95
▁ideología 95
▁statue 94
▁leaf 94
▁vacuum 94
▁smoking 94
▁favela 94
▁supernova 94
▁fabulous 94
▁materna 94
▁drought 94
▁transaction 94
▁Africa 94
▁invertido 94
▁competir 94
▁democrático 94
▁inútil 94
▁arruina 94
▁clásica 94
▁errónea 94
▁movilidad 94
▁harness 93
▁venture 93
▁qualities 93
▁expedition 93
▁capabilities 93
▁altruism 93
▁ecological 93
▁astronomer 93
▁collaborator 93
▁genuine 93
▁chamber 93
▁whistle 93
▁abilities 93
▁jihad 93
▁awkward 93
▁heritage 93
▁ceremonia 93
▁judicial 93
▁Smith 93
▁cápita 93
▁parásito 93
▁hígado 93
▁cayó 93
▁siguió 93
▁romántico 93
▁oculto 93
▁adentr 93
▁teclado 93
▁mecánico 93
▁tuviéramos 93
▁monstruo 93
▁gestiona 93
▁Proyecto 93
▁extiende 93
▁biodiversidad 93
▁hemisferio 93
▁smith 92
▁microbial 92
▁pharmaceutical 92
▁luckily 92
▁precise 92
▁inhabit 92
▁irrita 92
▁investors 92
▁shrimp 92
▁biodiversity 92
▁Presidente 92
▁escrita 92
▁necesitábamos 92
▁abundancia 92
Puedo 92
▁llevo 92
▁octubre 92
▁hectárea 92
▁impone 92
▁És 92
▁Imagínense 92
▁suponía 92
▁cristiano 92
▁cognitivo 92
▁percibe 92
ógrafo 92
▁excusa 92
▁variación 92
grafía 92
▁Etiopía 92
▁computacional 92
▁sistemática 92
▁escasez 92
▁reúne 92
▁nosotras 92
▁estatua 92
▁Escuela 92
▁oxford 91
▁avatar 91
▁unprecedented 91
▁category 91
▁excitement 91
▁nutrients 91
▁jesus 91
▁categories 91
▁bonobo 91
▁vulnerability 91
▁improbable 91
▁bizarre 91
▁propaganda 91
_ 91
▁récord 91
▁Donde 91
▁desarrolló 91
▁masculino 91
▁hidro 91
▁gustó 91
Correcto 91
▁centímetro 91
▁produciendo 91
▁Afortunadamente 91
▁escarabajo 91
▁valiosa 91
▁catástrofe 91
▁prisionero 91
▁milenio 91
▁sanitario 91
▁Trump 91
world 90
▁renov 90
▁radar 90
▁reliable 90
▁drew 90
▁dilemma 90
▁superficial 90
significa 90
▁architectural 90
▁pencil 90
▁distinguish 90
▁injustice 90
▁1.2 90
▁stigma 90
▁snake 90
▁exposure 90
▁episode 90
▁prescrib 90
▁absoluta 90
▁lápiz 90
prendió 90
▁despierta 90
▁Tercer 90
▁Muchísim 90
▁gerente 90
▁Organiza 90
▁Turquía 90
▁descripción 90
▁estigma 90
▁Biblia 90
▁calorías 90
▁Ártico 90
▁outrage 89
▁cardiac 89
▁spanish 89
▁threshold 89
▁catalog 89
▁aficionado 89
▁congrega 89
▁primordial 89
▁seemingly 89
▁strategic 89
▁executive 89
▁bangladesh 89
▁submit 89
▁compelling 89
▁currency 89
▁muestre 89
▁dividir 89
▁Río 89
cribimos 89
▁inmenso 89
▁perdida 89
▁puñado 89
Hola 89
▁cobertura 89
▁philip 88
▁deteriora 88
▁whatsoever 88
▁supermarket 88
audience 88
▁minimum 88
▁breakfast 88
▁beneath 88
▁veterinar 88
▁viaj 88
▁pudiese 88
Gracias 88
▁astrónomo 88
▁Sobre 88
▁asesino 88
▁distinguir 88
▁Central 88
▁submarino 88
▁corregir 88
▁perseguir 88
▁facultad 88
▁fantasía 88
▁1997 87
▁collaborate 87
▁facilities 87
▁primitive 87
▁imperfect 87
▁curriculum 87
▁hypothesis 87
▁absence 87
▁pixel 87
▁stunt 87
▁recipient 87
wandering 87
▁residual 87
▁convierta 87
estabiliza 87
▁egipcio 87
génesis 87
▁simplicidad 87
▁pluma 87
▁Encontramos 87
▁escanea 87
▁restricciones 87
▁ocasiona 87
▁Occidental 87
▁pánico 87
▁adicto 87
▁inodoro 87
▁december 86
▁vivid 86
▁brick 86
patriot 86
▁striking 86
efficient 86
▁nowadays 86
▁extingu 86
▁convention 86
▁syndrome 86
▁resilient 86
▁terrified 86
▁puerto 86
▁familiarizados 86
▁pulmón 86
▁surgir 86
▁volvemos 86
▁asequible 86
▁transcurso 86
▁estúpido 86
▁inalámbrica 86
▁Eric 86
▁escoger 86
▁diámetro 86
▁Aprendí 86
▁1996 85
▁barrel 85
▁bulb 85
▁mutual 85
▁soccer 85
▁february 85
▁counsel 85
▁cereal 85
▁1984 85
▁prosthetic 85
▁amputa 85
▁jubila 85
▁equivale 85
▁climática 85
▁diciembre 85
▁Ébola 85
▁empeora 85
▁devastador 85
iéndonos 85
prendieron 85
▁magnífico 85
▁concurso 85
▁pensemos 85
▁parecida 85
▁cuidadosamente 85
▁tránsito 85
▁Bangladesh 85
▁zumbido 85
▁destreza 85
▁solitario 85
▁sobrevive 85
▁desconocida 85
▁propenso 85
▁ignor 84
▁resort 84
▁cosmic 84
▁archive 84
▁enforcement 84
▁amplifica 84
▁sapiens 84
▁progressive 84
▁tattoo 84
▁variant 84
▁desaparecido 84
▁Consider 84
▁finanzas 84
▁camisa 84
▁recopil 84
▁viernes 84
▁Ciencia 84
▁Ambos 84
▁evolutiva 84
▁gusano 84
▁mentir 84
▁Tampoco 84
▁convirtiendo 84
▁Antártida 84
▁intriga 84
▁dramática 84
▁Brown 84
▁hallazgo 84
▁impressive 83
▁recall 83
▁'90 83
▁accuracy 83
write 83
▁meanwhile 83
▁encouraging 83
▁impose 83
▁dutch 83
▁occupy 83
▁vitamin 83
known 83
▁leopard 83
▁sombrero 83
▁fractura 83
▁ocasión 83
▁honra 83
▁Normalmente 83
▁aparea 83
troalimentación 83
riedad 83
▁intensidad 83
▁exclusiva 83
▁diminuta 83
▁pantalones 83
▁atraviesa 83
▁protegida 83
▁instruct 82
▁assistance 82
▁spontaneous 82
▁steer 82
▁crawl 82
carbon 82
▁thread 82
▁blend 82
▁clarity 82
▁receiving 82
▁scrap 82
▁malign 82
▁backyard 82
▁generous 82
▁warrior 82
▁default 82
▁hemisphere 82
▁indigna 82
▁ambitious 82
▁prefrontal 82
▁pronuncia 82
▁encrypt 82
▁conquista 82
▁castiga 82
▁colapso 82
▁moviliza 82
▁ocurría 82
▁sintetiza 82
▁especula 82
▁energético 82
▁silvestre 82
▁España 82
▁Cinco 82
▁percibir 82
▁cafetería 82
▁tremendo 82
▁ecuaciones 82
▁bienvenida 82
▁béisbol 82
▁nombrar 82
▁mencioné 82
▁impide 82
tendrá 82
▁pionero 82
▁estereotipo 82
▁prótesis 82
▁protegido 82
▁cadáver 82
▁poliniza 82
▁yihad 82
▁diamond 81
▁marvel 81
▁pathogen 81
▁intended 81
▁devastating 81
▁pedestrian 81
▁pandemic 81
▁saturn 81
natural 81
▁supreme 81
▁relief 81
▁describing 81
▁theoretical 81
▁gratitud 81
▁jordan 81
▁indonesia 81
▁virtue 81
▁grandparents 81
▁disabilities 81
▁falsifi 81
Todo 81
▁infecciones 81
▁Público 81
▁deprimido 81
▁encantó 81
▁sofisticada 81
▁enojado 81
▁otorga 81
▁académica 81
▁conseguido 81
▁Sistema 81
podemos 81
▁residentes 81
▁farmacéutica 81
▁sólida 81
iéndome 81
▁aislamiento 81
▁serpiente 81
▁Carolina 81
▁fortalec 81
▁1945 80
▁flourish 80
▁congestion 80
▁reinforce 80
▁cardiovascular 80
▁deforestation 80
▁accumulate 80
▁historic 80
▁preparing 80
▁literal 80
▁cigarette 80
engineer 80
▁believing 80
▁precipita 80
▁teenage 80
▁emphasize 80
▁deliberate 80
▁carolina 80
▁dentist 80
▁egoísta 80
▁Vietnam 80
▁Noruega 80
▁seguí 80
▁explicó 80
Debería 80
▁Pensaba 80
▁extraterrestre 80
▁aburrida 80
▁recibiendo 80
▁paciencia 80
▁suicidio 80
▁pulmones 80
▁idéntico 80
▁smallpox 79
▁despair 79
▁overnight 79
▁trajectory 79
▁mexican 79
▁independence 79
▁pursuit 79
▁hallucinat 79
▁identities 79
▁medusa 79
▁Justo 79
▁cariño 79
▁viruela 79
▁mínima 79
▁regresó 79
▁doméstica 79
▁escucho 79
▁óptica 79
▁National 79
▁pistola 79
▁aplaud 79
▁sospecha 79
▁sujeta 79
▁inesperada 79
▁empecemos 79
▁síndrome 79
▁musulmana 79
▁rethink 78
▁methane 78
▁paralyzed 78
▁harbor 78
▁possess 78
▁oxytocin 78
▁cambridge 78
▁fractal 78
▁jewel 78
▁bribe 78
▁inaugura 78
▁luxury 78
▁anatomy 78
▁millennia 78
▁perpetra 78
keeper 78
▁academy 78
▁gamma 78
▁pidiendo 78
▁arranca 78
▁Sentí 78
▁Cambridge 78
▁agrupa 78
Quiero 78
▁respalda 78
sesperadamente 78
▁actuación 78
▁propietario 78
▁muebles 78
▁Premio 78
▁lágrimas 78
▁alberga 78
▁anatomía 78
▁ceguera 78
▁costumbre 78
▁FBI 78
▁soledad 78
▁NSA 78
▁royal 77
▁amazed 77
▁temporary 77
▁serotonin 77
▁medieval 77
▁straightforward 77
▁colonies 77
prehensi 77
▁benign 77
▁sponsor 77
▁susceptible 77
interest 77
▁flavor 77
▁coherent 77
▁immigration 77
▁acabó 77
▁evolucion 77
▁perdieron 77
▁dinámico 77
▁tronco 77
▁volcán 77
▁Crecí 77
▁esclavos 77
▁Recientemente 77
▁Empecemos 77
▁mezquita 77
▁descarta 77
▁continuing 76
▁sculpt 76
▁proposal 76
▁elegant 76
▁steam 76
▁1991 76
▁prescription 76
▁collision 76
▁terribly 76
▁admire 76
▁drain 76
▁irrelevant 76
▁stereotype 76
people 76
▁pregnancy 76
▁glue 76
▁therapist 76
▁centenar 76
▁japonés 76
▁adelanta 76
▁muñeca 76
▁oxitocina 76
▁desperdicia 76
▁Piensa 76
▁Derechos 76
▁eficaces 76
tiempo 76
▁vendrá 76
▁sacrifica 76
▁resalta 76
▁alemán 76
▁Cuatro 76
▁acontecimiento 76
▁inversores 76
▁sostenibilidad 76
▁flecha 76
▁consensus 75
▁legitimate 75
▁lucrativ 75
▁territory 75
▁introduction 75
▁recognizing 75
▁acoustic 75
▁supplies 75
▁alexander 75
disciplina 75
▁yourselves 75
▁Blanca 75
▁máxima 75
▁Investiga 75
▁Saturno 75
▁febrero 75
▁jardines 75
bólica 75
▁Scott 75
▁censura 75
▁asombro 75
▁trasplante 75
▁autonomía 75
Í 74
Z 74
▁disfrut 72
scribí 66
° 65
= 64
ã 61
▁proporcion 61
ç 58
ń 57
ö 56
¡ 49
Ú 48
è 46
à 39
— 38
@ 38
̈ 38
* 33
‘ 32
[ 30
^ 30
ì 28
─ 22
ï 20
́ 20
Ó 19
# 18
ä 17
ë 17
ø 16
ā 15
ù 14
® 14
प 13
⁄ 13
 12
ê 11
ō 11
ા 10
ô 8
 8
อ 8
â 7
ò 7
€ 7
ન 7
( 6
£ 6
$ 6
ī 6
ʾ 6
ا 6
ل 6
 6
ो 6
ी 6
ढ 6
♪ 5
े 5
म 5
ي 5
ك 5
़ 5
ा 5
ો 5
ર 5
♫ 4
你 4
ร 4
่ 4
ย 4
æ 4
• 4
र 4
ن 4
ت 4
ر 4
т 4
ય 4
ી 4
ć 3
̊ 3
ð 3
् 3
š 3
© 3
а 3
ň 3
~ 3
È 3
有 3
个 3
我 3
α 3
о 3
н 3
आ 3
ं 3
ड 3
ि 3
त 3
य 3
क 3
ई 3
જ 3
ુ 3
ે 3
ક 3
્ 3
ં 3
送 2
葱 2
ě 2
ọ 2
ẹ 2
Ñ 2
面 2
不 2
来 2
了 2
游 2
历 2
。 2
啊 2
洋 2
妈 2
م 2
أ 2
د 2
ه 2
س 2
و 2
ع 2
ب 2
υ 2
χ 2
τ 2
κ 2
― 2
и 2
е 2
з 2
б 2
ы 2
Ç 2
थ 2
ज 2
ग 2
ु 2
भ 2
न 2
। 2
સ 2
ગ 2
દ 2
લ 2
ડ 2
ચ 2
વ 2
ષ 2
પ 2
ધ 2
û 1
¢ 1
 1
ă 1
ť 1
č 1
å 1
ū 1
̀ 1
{ 1
Т 1
¥ 1
} 1
ŕ 1
­ 1
≈ 1
» 1
” 1
外 1
世 1
界 1
心 1
中 1
声 1
音 1
妨 1
等 1
太 1
阳 1
出 1
喜 1
王 1
大 1
姐 1
可 1
以 1
给 1
唱 1
一 1
下 1
教 1
的 1
歌 1
曲 1
с 1
ط 1
ؤ 1
خ 1
Ε 1
ρ 1
ι 1
σ 1
ω 1
ε 1
λ 1
η 1
ν 1
Μ 1
ح 1
Č 1
Å 1
結 1
果 1
並 1
完 1
美 1
在 1
這 1
方 1
很 1
多 1
工 1
作 1
要 1
做 1
Н 1
к 1
ч 1
î 1
Ö 1
ख 1
स 1
ह 1
બ 1
ખ 1
િ 1
આ 1
થ 1
એ 1
મ 1
હ 1
ણ 1
શ 1
/ 1
