, 1
. 1
s 1
▁the 1
▁and 1
▁in 1
▁to 1
' 1
▁of 1
▁a 1
▁die 1
en 1
▁und 1
▁that 1
t 1
▁i 1
e 1
▁it 1
n 1
▁der 1
▁we 1
▁you 1
▁is 1
▁ist 1
▁zu 1
▁so 1
▁das 1
▁ich 1
▁wir 1
▁this 1
▁was 1
- 1
▁es 1
er 1
▁" 1
▁an 1
▁ein 1
▁Sie 1
? 1
▁sie 1
: 1
m 1
▁— 1
▁nicht 1
d 1
▁von 1
▁dass 1
▁be 1
▁eine 1
▁they 1
ing 1
▁for 1
▁ 1
re 1
▁den 1
r 1
▁mit 1
▁auf 1
ed 1
▁are 1
▁Und 1
) 1
▁have 1
▁but 1
▁( 1
▁on 1
▁what 1
▁with 1
▁Ich 1
▁can 1
▁wie 1
▁sich 1
▁sind 1
▁all 1
▁für 1
▁as 1
▁about 1
▁man 1
▁war 1
▁haben 1
▁there 1
▁at 1
▁not 1
▁do 1
▁um 1
▁my 1
▁als 1
▁one 1
▁Das 1
y 1
▁people 1
▁er 1
es 1
▁im 1
▁aus 1
▁Es 1
▁like 1
▁he 1
▁dem 1
▁if 1
▁Wir 1
▁diese 1
▁from 1
▁uns 1
▁our 1
▁or 1
▁me 1
ly 1
▁über 1
▁also 1
▁wenn 1
▁now 1
▁just 1
▁these 1
▁einen 1
st 1
▁when 1
ve 1
g 1
▁können 1
▁oder 1
▁because 1
▁out 1
▁werden 1
al 1
▁des 1
▁hat 1
▁by 1
▁up 1
▁very 1
▁them 1
▁know 1
▁aber 1
." 1
▁how 1
▁auch 1
c 1
▁einer 1
▁going 1
▁more 1
▁had 1
▁kann 1
▁Die 1
▁Aber 1
▁who 1
▁nur 1
▁see 1
▁einem 1
ä 1
te 1
▁think 1
▁your 1
k 1
▁Menschen 1
ll 1
▁their 1
in 1
▁wird 1
▁were 1
▁mich 1
▁will 1
ung 1
▁which 1
▁sehr 1
▁here 1
▁would 1
▁us 1
▁ver 1
▁really 1
▁hier 1
b 1
▁get 1
h 1
▁vor 1
▁gibt 1
▁world 1
▁then 1
f 1
▁nach 1
▁time 1
▁ge 1
▁some 1
▁sein 1
i 1
▁has 1
▁dann 1
▁etwas 1
ten 1
▁don 1
▁– 1
laughter 1
z 1
▁noch 1
" 1
▁mir 1
▁into 1
w 1
▁Welt 1
▁Er 1
▁re 1
▁actually 1
▁go 1
▁where 1
▁way 1
▁sehen 1
▁habe 1
▁bei 1
▁no 1
▁dieser 1
▁want 1
▁things 1
▁years 1
▁mehr 1
▁am 1
▁other 1
ü 1
▁could 1
an 1
▁Wenn 1
▁durch 1
; 1
▁she 1
▁been 1
▁s 1
▁In 1
▁make 1
▁right 1
▁alle 1
le 1
il 1
ur 1
it 1
ig 1
l 1
▁well 1
▁wurde 1
or 1
u 1
be 1
sch 1
▁over 1
▁first 1
▁said 1
ge 1
▁two 1
ter 1
▁something 1
▁those 1
▁Ihnen 1
▁zum 1
▁than 1
▁da 1
▁meine 1
▁immer 1
▁wo 1
▁Zeit 1
▁machen 1
▁much 1
de 1
▁wirklich 1
▁new 1
p 1
ic 1
▁her 1
▁weil 1
▁tun 1
▁back 1
ation 1
ieren 1
▁unsere 1
▁look 1
▁viel 1
▁even 1
▁little 1
▁got 1
▁thing 1
▁hatte 1
▁most 1
▁life 1
▁work 1
▁his 1
▁Be 1
▁keine 1
o 1
▁only 1
▁say 1
a 1
▁un 1
ro 1
ar 1
▁many 1
▁ihre 1
▁need 1
li 1
▁Also 1
▁dieses 1
ul 1
▁S 1
▁zwei 1
den 1
▁B 1
▁take 1
▁viele 1
et 1
▁A 1
▁müssen 1
▁Leute 1
ch 1
▁Ein 1
▁bin 1
▁Leben 1
ö 1
▁du 1
▁einfach 1
▁ab 1
▁waren 1
▁wissen 1
▁kind 1
th 1
▁did 1
▁good 1
▁lot 1
▁Dinge 1
▁Was 1
▁diesem 1
▁sagte 1
▁E 1
▁andere 1
▁Jahren 1
▁every 1
▁sagen 1
us 1
▁around 1
▁diesen 1
ri 1
▁let 1
is 1
▁different 1
▁K 1
▁- 1
▁eines 1
der 1
▁down 1
▁why 1
Lachen 1
▁T 1
▁Ver 1
▁anderen 1
ver 1
▁Art 1
▁würde 1
▁ihr 1
el 1
ern 1
?" 1
▁through 1
S 1
▁jetzt 1
mp 1
▁selbst 1
▁zur 1
ist 1
ive 1
▁come 1
▁use 1
ion 1
▁same 1
ra 1
la 1
ers 1
▁alles 1
ne 1
▁Der 1
▁An 1
▁being 1
Gelächter 1
gen 1
sten 1
▁bis 1
▁day 1
▁de 1
▁damit 1
applause 1
ut 1
▁put 1
im 1
ie 1
▁three 1
▁10 1
▁wieder 1
▁geht 1
▁muss 1
▁Diese 1
▁Jahre 1
iert 1
on 1
▁Wie 1
▁doing 1
▁So 1
▁ob 1
▁Man 1
▁seine 1
▁mein 1
ia 1
! 1
▁fact 1
▁unter 1
at 1
to 1
▁♫ 1
▁gut 1
▁co 1
ol 1
▁e 1
lich 1
▁any 1
▁zurück 1
▁k 1
▁human 1
▁20 1
ma 1
zu 1
ste 1
▁pro 1
▁denn 1
ity 1
ce 1
Applaus 1
▁after 1
▁schon 1
▁called 1
▁Kinder 1
ate 1
▁Sch 1
," 1
▁percent 1
▁today 1
▁Vor 1
▁made 1
ha 1
igen 1
ment 1
▁find 1
▁own 1
▁ihnen 1
▁möchte 1
▁tell 1
▁should 1
▁c 1
▁great 1
▁vielleicht 1
ta 1
▁talk 1
able 1
me 1
▁sch 1
▁Da 1
▁part 1
▁drei 1
▁weiter 1
▁year 1
▁didn 1
▁zusammen 1
▁end 1
▁change 1
the 1
▁einige 1
▁hatten 1
▁Re 1
▁last 1
▁thought 1
▁real 1
▁thank 1
▁davon 1
▁genau 1
▁idea 1
ant 1
ische 1
▁heute 1
A 1
as 1
▁ganz 1
▁another 1
▁started 1
▁big 1
▁Geschichte 1
▁before 1
ungen 1
▁never 1
▁meiner 1
id 1
▁ihn 1
▁Problem 1
▁Jahr 1
▁start 1
▁still 1
un 1
▁' 1
um 1
▁könnte 1
▁Hier 1
x 1
▁might 1
▁Ge 1
▁give 1
▁better 1
em 1
and 1
▁Ihre 1
▁went 1
▁weiß 1
ischen 1
▁wollen 1
▁dort 1
▁off 1
▁sondern 1
▁Als 1
▁con 1
▁wurden 1
▁bit 1
▁problem 1
min 1
▁Nun 1
ft 1
▁important 1
▁able 1
pf 1
▁Le 1
ster 1
we 1
▁darüber 1
▁long 1
▁unserer 1
▁gehen 1
▁course 1
ein 1
▁together 1
ab 1
▁paar 1
lt 1
chen 1
▁each 1
▁story 1
▁nun 1
▁hin 1
nen 1
▁Arbeit 1
ir 1
▁came 1
▁P 1
▁again 1
▁few 1
ad 1
▁werde 1
▁next 1
▁C 1
her 1
▁place 1
ler 1
▁water 1
▁19 1
▁him 1
▁ja 1
▁system 1
▁does 1
und 1
▁love 1
ber 1
▁brain 1
▁gab 1
▁st 1
▁show 1
▁Aus 1
▁ent 1
▁wäre 1
▁Beispiel 1
▁Teil 1
▁ago 1
▁tatsächlich 1
▁call 1
2 1
▁neue 1
v 1
tra 1
men 1
ian 1
▁Ab 1
▁found 1
B 1
▁too 1
▁mal 1
▁car 1
▁women 1
if 1
▁feel 1
▁Wasser 1
▁sogar 1
▁help 1
▁vom 1
po 1
▁denken 1
▁finden 1
go 1
di 1
est 1
ci 1
zen 1
▁dazu 1
▁St 1
▁point 1
lo 1
▁kommen 1
fe 1
▁Frauen 1
▁live 1
▁used 1
he 1
▁kein 1
kt 1
▁Tag 1
▁erste 1
isch 1
mo 1
mal 1
▁denen 1
▁between 1
▁question 1
dem 1
▁nie 1
▁Auf 1
ien 1
▁maybe 1
ke 1
▁home 1
▁denke 1
▁technology 1
▁30 1
▁mean 1
▁Mal 1
▁Land 1
▁ohne 1
▁Frage 1
▁zwischen 1
▁gerade 1
▁einmal 1
ff 1
son 1
▁macht 1
ag 1
▁heraus 1
▁unser 1
▁50 1
ck 1
▁Im 1
ze 1
▁may 1
▁data 1
▁understand 1
ige 1
▁example 1
▁f 1
▁looking 1
▁konnte 1
▁geben 1
ru 1
▁ihren 1
▁school 1
▁nichts 1
▁space 1
iv 1
▁W 1
lu 1
▁gemacht 1
▁M 1
ik 1
no 1
D 1
▁würden 1
▁ca 1
är 1
man 1
▁Z 1
▁jeder 1
ness 1
▁light 1
▁doesn 1
▁per 1
▁done 1
▁wanted 1
ies 1
▁design 1
▁kommt 1
▁Gehirn 1
▁b 1
▁ersten 1
co 1
▁ever 1
▁zeigen 1
▁leben 1
▁believe 1
▁besser 1
▁glaube 1
ner 1
▁O 1
▁children 1
age 1
T 1
▁Daten 1
bar 1
land 1
▁dafür 1
ho 1
▁daran 1
▁four 1
hr 1
▁create 1
▁Dies 1
heit 1
▁play 1
▁person 1
ry 1
▁verstehen 1
bi 1
am 1
▁je 1
ren 1
▁passiert 1
▁meisten 1
▁Lebens 1
▁whole 1
▁Grund 1
▁always 1
▁100 1
per 1
▁Eine 1
ben 1
▁working 1
ton 1
▁z 1
▁fast 1
▁second 1
▁sieht 1
▁sort 1
▁high 1
M 1
▁le 1
▁während 1
▁ganze 1
▁trying 1
▁country 1
P 1
▁away 1
ier 1
▁Geld 1
▁Weg 1
▁million 1
na 1
▁etwa 1
ert 1
ip 1
▁Ha 1
▁moment 1
▁wichtig 1
▁Millionen 1
▁power 1
▁sollte 1
▁meinen 1
▁meinem 1
▁best 1
▁Bild 1
▁form 1
▁cr 1
▁sollten 1
pi 1
▁everything 1
so 1
▁try 1
op 1
▁warum 1
ex 1
liche 1
▁five 1
up 1
▁Prozent 1
▁wollte 1
▁natürlich 1
zeit 1
▁Ma 1
▁könnten 1
tion 1
os 1
▁lassen 1
▁Idee 1
iz 1
▁15 1
▁große 1
▁number 1
▁old 1
▁using 1
hi 1
bo 1
▁ihrer 1
K 1
▁kids 1
▁letzten 1
sp 1
ling 1
▁ex 1
pe 1
▁information 1
▁ging 1
▁3 1
tic 1
▁Raum 1
▁means 1
ub 1
1 1
ger 1
▁small 1
▁welche 1
▁mo 1
▁times 1
▁thinking 1
va 1
8 1
ating 1
▁t 1
▁sicher 1
▁u 1
ance 1
] 1
▁hard 1
▁kam 1
▁social 1
▁dis 1
▁money 1
▁Um 1
▁sense 1
▁took 1
▁sprechen 1
▁Ende 1
▁arbeiten 1
▁r 1
▁dabei 1
▁m 1
los 1
▁under 1
▁sp 1
5 1
▁bo 1
▁half 1
▁bedeutet 1
end 1
". 1
▁future 1
▁left 1
▁such 1
ken 1
▁br 1
▁ziemlich 1
▁Un 1
▁Ja 1
ator 1
▁Sp 1
3 1
▁Ka 1
do 1
▁Körper 1
▁unseren 1
▁become 1
▁hand 1
▁bring 1
▁di 1
▁gr 1
zi 1
vi 1
▁F 1
ine 1
▁Mit 1
▁ra 1
▁ask 1
F 1
▁ma 1
4 1
▁sagt 1
▁men 1
▁enough 1
form 1
▁weniger 1
▁getting 1
▁bekommen 1
7 1
▁food 1
▁darauf 1
▁vier 1
C 1
au 1
ty 1
äh 1
▁dr 1
aus 1
▁wenig 1
▁head 1
gel 1
▁less 1
▁pre 1
mit 1
▁Pro 1
▁Zu 1
▁global 1
▁probably 1
▁dachte 1
▁interesting 1
▁Computer 1
ard 1
▁Mann 1
E 1
▁doch 1
ated 1
▁quite 1
▁eigentlich 1
▁comes 1
▁side 1
pro 1
▁Dann 1
▁without 1
ng 1
▁lives 1
ör 1
▁Dank 1
▁imagine 1
▁Mo 1
lei 1
▁I 1
▁Ko 1
▁[ 1
▁nehmen 1
▁energy 1
▁city 1
▁planet 1
▁brauchen 1
ting 1
▁simple 1
▁richtig 1
▁science 1
G 1
% 1
cht 1
▁talking 1
▁kleinen 1
▁move 1
▁body 1
▁happened 1
6 1
▁health 1
ot 1
ür 1
▁making 1
lichen 1
▁young 1
▁room 1
▁Fall 1
▁N 1
Ich 1
▁told 1
hen 1
▁face 1
ko 1
▁Energie 1
art 1
▁He 1
ekt 1
▁pretty 1
▁Technologie 1
▁Dollar 1
▁process 1
", 1
▁jeden 1
less 1
gehen 1
▁earth 1
▁open 1
▁gegen 1
▁se 1
▁matter 1
stand 1
▁bringen 1
▁build 1
I 1
▁stuff 1
▁else 1
▁anything 1
ium 1
▁Sache 1
▁art 1
▁bad 1
▁jemand 1
▁Ihr 1
▁ihm 1
▁Moment 1
▁across 1
▁keep 1
▁care 1
W 1
▁remember 1
▁building 1
ial 1
ted 1
▁kleine 1
▁schnell 1
▁Zukunft 1
tri 1
▁40 1
▁set 1
R 1
▁far 1
ary 1
all 1
▁Stadt 1
▁hätte 1
▁Person 1
▁while 1
ick 1
ca 1
▁coming 1
ah 1
▁großen 1
▁ba 1
ous 1
▁Bei 1
ap 1
▁funktioniert 1
▁gesehen 1
▁family 1
▁Wo 1
▁project 1
ach 1
▁Kind 1
▁once 1
▁reason 1
▁Frau 1
.000 1
▁Denn 1
0 1
▁möglich 1
ure 1
du 1
▁vi 1
▁p 1
▁Menge 1
hal 1
H 1
▁2 1
▁having 1
▁Weise 1
pp 1
▁asked 1
▁18 1
▁Erde 1
▁Al 1
▁experience 1
▁later 1
▁mind 1
▁la 1
ence 1
ring 1
▁land 1
▁später 1
▁billion 1
▁makes 1
▁living 1
▁countries 1
pl 1
▁Über 1
▁keinen 1
tu 1
▁hope 1
▁ways 1
▁learn 1
▁ganzen 1
▁L 1
▁happen 1
▁dollars 1
▁Licht 1
▁d 1
ende 1
que 1
▁seit 1
▁Sa 1
▁Ort 1
▁yet 1
▁saw 1
▁beim 1
▁ko 1
sh 1
▁lang 1
▁Seite 1
00 1
▁both 1
▁g 1
▁R 1
fi 1
▁w 1
▁4 1
▁test 1
▁stand 1
▁seen 1
▁six 1
▁glauben 1
▁days 1
▁Danke 1
ize 1
▁po 1
▁inside 1
rs 1
▁says 1
▁almost 1
▁gesagt 1
▁na 1
▁sure 1
ord 1
▁konnten 1
kommen 1
▁single 1
▁hoch 1
▁eigenen 1
▁fünf 1
▁Hand 1
9 1
▁System 1
▁Di 1
▁Warum 1
▁public 1
▁age 1
▁weit 1
▁Auto 1
▁La 1
▁answer 1
▁vielen 1
▁goes 1
ism 1
▁Mutter 1
▁africa 1
ka 1
▁happens 1
▁often 1
che 1
da 1
▁lernen 1
▁picture 1
wa 1
▁nothing 1
▁sei 1
▁read 1
od 1
iger 1
▁ti 1
ak 1
▁De 1
▁Li 1
▁schwer 1
▁case 1
▁versuchen 1
▁cancer 1
▁nutzen 1
auf 1
acht 1
▁zeigt 1
cken 1
▁Vielen 1
L 1
▁stellen 1
▁helfen 1
ß 1
old 1
▁whether 1
N 1
ized 1
ität 1
▁someone 1
vo 1
▁5 1
▁Du 1
▁name 1
rück 1
▁okay 1
▁Co 1
▁Natur 1
▁computer 1
▁„ 1
eln 1
▁problems 1
▁Se 1
ative 1
tor 1
sche 1
▁Probleme 1
▁business 1
▁run 1
pa 1
▁sah 1
▁schaffen 1
▁control 1
▁Pa 1
▁fest 1
▁Am 1
▁jedes 1
▁saying 1
les 1
▁gar 1
▁Nach 1
ors 1
sa 1
nd 1
con 1
▁top 1
▁already 1
▁research 1
▁myself 1
▁basically 1
▁states 1
▁gute 1
▁wrong 1
▁book 1
▁video 1
▁anders 1
▁12 1
uch 1
▁market 1
▁stop 1
▁language 1
▁Ho 1
cu 1
▁community 1
▁lange 1
▁ok 1
recht 1
▁within 1
▁heißt 1
ell 1
▁self 1
▁allen 1
▁wahrscheinlich 1
▁cells 1
▁amazing 1
igkeit 1
▁instead 1
dy 1
ron 1
▁seiner 1
▁possible 1
cy 1
ful 1
▁unserem 1
▁Ro 1
▁heart 1
▁looked 1
▁history 1
ud 1
▁klar 1
▁G 1
ug 1
▁arm 1
▁o 1
▁1 1
▁child 1
▁USA 1
▁D 1
▁Jetzt 1
▁ro 1
,000 1
▁sometimes 1
▁mother 1
▁begann 1
▁Buch 1
▁genug 1
▁neuen 1
▁Wissen 1
gt 1
elle 1
▁beautiful 1
sam 1
▁nächsten 1
▁Internet 1
▁ideas 1
▁words 1
▁em 1
▁li 1
▁erst 1
▁kennen 1
lang 1
keit 1
▁order 1
▁Me 1
▁music 1
▁Form 1
▁guy 1
▁true 1
schaft 1
▁night 1
wand 1
vers 1
▁erzählen 1
O 1
▁everybody 1
▁Kon 1
tz 1
▁Projekt 1
▁dich 1
▁since 1
red 1
mon 1
▁weg 1
ue 1
▁house 1
▁sub 1
▁ho 1
▁looks 1
fen 1
▁couple 1
tern 1
▁until 1
mi 1
oc 1
ich 1
▁job 1
▁ange 1
ib 1
▁ausge 1
▁ha 1
▁bevor 1
▁large 1
▁qu 1
bu 1
ucht 1
▁al 1
▁Mädchen 1
ja 1
▁jede 1
▁gleich 1
des 1
▁months 1
▁heard 1
ierung 1
▁Nicht 1
▁entwickelt 1
ierte 1
▁Musik 1
▁stories 1
io 1
▁herum 1
com 1
▁Für 1
▁New 1
lä 1
▁wasn 1
▁alt 1
▁group 1
▁el 1
▁free 1
▁liegt 1
▁woman 1
▁ted 1
well 1
bel 1
▁species 1
▁education 1
app 1
▁Geschichten 1
ba 1
len 1
▁line 1
▁bauen 1
▁nature 1
▁wahr 1
▁Planeten 1
▁verändern 1
▁government 1
▁isn 1
▁Augen 1
▁united 1
▁learned 1
line 1
▁close 1
▁gehört 1
▁Punkt 1
▁fish 1
▁braucht 1
▁personal 1
▁turn 1
▁Meine 1
ging 1
▁step 1
hin 1
▁musste 1
▁Informationen 1
▁seinen 1
▁Schule 1
▁ocean 1
▁middle 1
▁air 1
▁built 1
▁past 1
▁Kunst 1
way 1
ang 1
ish 1
port 1
▁must 1
▁Angst 1
▁Selbst 1
▁Ideen 1
▁front 1
▁normal 1
legen 1
▁Fragen 1
▁tra 1
▁60 1
▁environment 1
▁Familie 1
▁Fa 1
▁knew 1
▁Leuten 1
▁places 1
ations 1
▁works 1
net 1
▁friends 1
▁Ta 1
▁ungefähr 1
log 1
▁study 1
▁lo 1
▁Afrika 1
▁Männer 1
▁letzte 1
▁god 1
▁Kopf 1
▁Ent 1
▁stehen 1
▁Unternehmen 1
▁though 1
▁decided 1
▁verschiedene 1
▁menschliche 1
▁sta 1
▁25 1
▁Fr 1
▁share 1
▁verändert 1
nder 1
▁word 1
▁exactly 1
▁sagten 1
▁V 1
▁everyone 1
▁♪ 1
oh 1
▁Mein 1
▁Antwort 1
▁Haus 1
▁internet 1
▁view 1
▁schwierig 1
▁Arten 1
▁ourselves 1
▁black 1
halten 1
▁piece 1
▁überall 1
▁ihrem 1
▁cool 1
▁Krieg 1
▁J 1
▁model 1
▁universe 1
chte 1
▁fragen 1
▁somebody 1
▁Fl 1
▁company 1
tes 1
ran 1
▁si 1
ga 1
▁kurz 1
ally 1
▁america 1
▁ga 1
▁Weil 1
▁Video 1
▁nennen 1
▁erkennen 1
▁darum 1
▁11 1
nde 1
geben 1
▁completely 1
ett 1
▁state 1
▁society 1
▁became 1
▁Eltern 1
▁culture 1
▁animals 1
▁fl 1
▁hear 1
▁sound 1
org 1
▁wer 1
▁Design 1
ide 1
▁leave 1
▁bereits 1
▁turns 1
▁economic 1
▁taking 1
▁Gesellschaft 1
ual 1
▁huge 1
▁Milliarden 1
▁against 1
om 1
schen 1
▁schön 1
▁act 1
▁Unter 1
▁figure 1
▁questions 1
lin 1
hol 1
▁Wissenschaft 1
▁80 1
ku 1
▁bisschen 1
ere 1
▁neu 1
▁Ra 1
▁einzige 1
▁team 1
▁Bo 1
▁Dieses 1
▁ju 1
ite 1
fall 1
▁anderes 1
▁Gefühl 1
▁hours 1
▁rather 1
▁national 1
▁besonders 1
▁Vielleicht 1
wer 1
▁send 1
ac 1
▁gets 1
▁fa 1
▁reden 1
▁Doch 1
ious 1
▁halten 1
▁risk 1
▁sc 1
lan 1
ical 1
▁news 1
▁walk 1
▁machte 1
▁Regierung 1
▁others 1
▁themselves 1
▁third 1
rie 1
▁aller 1
▁digital 1
▁ta 1
▁sea 1
▁6 1
▁soll 1
▁phone 1
▁itself 1
▁along 1
▁yes 1
▁kinds 1
▁behavior 1
▁Sta 1
▁rest 1
lf 1
▁happening 1
▁dir 1
▁erreichen 1
▁Lo 1
▁Minuten 1
igung 1
▁bar 1
▁disease 1
▁weitere 1
▁minutes 1
▁hätten 1
▁cell 1
met 1
▁unglaublich 1
▁Spiel 1
▁Krebs 1
▁couldn 1
▁learning 1
fa 1
ities 1
▁Bu 1
▁students 1
▁7 1
▁Gebäude 1
▁namens 1
ain 1
▁met 1
teil 1
▁exist 1
▁created 1
▁Ba 1
▁difficult 1
▁Gruppe 1
act 1
▁hören 1
▁mag 1
during 1
▁super 1
bt 1
▁’ 1
ort 1
▁los 1
▁steht 1
tell 1
▁map 1
bei 1
ise 1
▁worked 1
▁recht 1
▁Film 1
▁nächste 1
ral 1
▁ne 1
▁perhaps 1
▁seven 1
▁Oder 1
▁level 1
▁ones 1
▁color 1
▁200 1
▁Macht 1
▁jedem 1
▁hinter 1
▁thousands 1
▁euch 1
▁darin 1
▁Na 1
▁U 1
ismus 1
▁comp 1
▁india 1
▁outside 1
▁TED 1
▁red 1
▁early 1
▁Vater 1
▁Entwicklung 1
▁ändern 1
▁international 1
▁spielen 1
bra 1
▁Gott 1
xi 1
rei 1
▁Patienten 1
▁machine 1
▁game 1
bild 1
▁Hause 1
▁sechs 1
▁population 1
▁image 1
▁Bilder 1
nehmen 1
▁least 1
▁Kultur 1
bl 1
weg 1
▁Ziel 1
ile 1
▁experiment 1
ale 1
isten 1
lichkeit 1
▁inter 1
▁versch 1
▁Universum 1
▁Herz 1
▁gerne 1
“ 1
▁Verhalten 1
▁pay 1
▁won 1
▁Glück 1
▁short 1
kon 1
▁behind 1
▁Stunden 1
▁structure 1
▁entire 1
▁manchmal 1
▁buy 1
▁poor 1
▁sun 1
▁Stück 1
spiel 1
ep 1
▁app 1
▁mu 1
▁benutzen 1
▁full 1
▁death 1
▁frei 1
▁Luft 1
▁field 1
pri 1
▁fear 1
▁cost 1
▁finally 1
▁bekannt 1
▁voice 1
tzt 1
▁gesamte 1
▁Wort 1
▁york 1
▁90 1
▁common 1
hl 1
▁center 1
▁Indien 1
▁gave 1
▁oben 1
▁spend 1
▁natural 1
▁wohl 1
▁cl 1
▁vorstellen 1
▁local 1
▁deine 1
▁friend 1
▁non 1
tik 1
▁grow 1
ble 1
▁kon 1
▁plan 1
▁Bewegung 1
▁8 1
▁particular 1
war 1
▁amount 1
side 1
▁pl 1
▁entwickeln 1
▁support 1
▁happy 1
▁yeah 1
bau 1
▁wollten 1
▁lots 1
▁begin 1
▁erhalten 1
▁Liebe 1
ric 1
▁besten 1
▁china 1
king 1
elt 1
▁paper 1
▁changed 1
ose 1
sel 1
▁York 1
ack 1
▁beiden 1
▁einigen 1
reich 1
▁führen 1
▁feeling 1
▁falsch 1
use 1
▁american 1
▁systems 1
tel 1
▁anzu 1
▁record 1
▁bereit 1
▁deal 1
▁given 1
tag 1
▁14 1
par 1
▁Roboter 1
▁Ga 1
yn 1
▁Dr 1
▁began 1
▁fe 1
▁program 1
ding 1
▁fand 1
▁verschiedenen 1
▁Recht 1
▁China 1
▁guys 1
▁online 1
▁Möglichkeit 1
▁film 1
ward 1
▁interessant 1
▁week 1
▁scale 1
ok 1
top 1
▁Kindern 1
▁media 1
▁taken 1
▁easy 1
▁eight 1
▁felt 1
▁wall 1
▁needs 1
▁Sprache 1
▁yourself 1
▁groß 1
werk 1
lic 1
▁16 1
▁Gr 1
qui 1
sicht 1
▁irgendwie 1
▁niemand 1
nis 1
▁direkt 1
▁takes 1
▁parents 1
▁green 1
▁post 1
▁oh 1
nden 1
▁wegen 1
gang 1
▁sage 1
▁bewegen 1
▁Rück 1
▁9 1
by 1
▁hands 1
V 1
▁shape 1
enden 1
▁Do 1
for 1
▁Wer 1
tlich 1
▁op 1
enz 1
mmer 1
what 1
▁Ne 1
▁realized 1
▁reality 1
leg 1
▁Bereich 1
▁Prozess 1
▁difference 1
rat 1
▁political 1
▁companies 1
▁rate 1
sehen 1
▁cities 1
▁modern 1
▁lu 1
nte 1
U 1
▁vorher 1
▁key 1
▁seeing 1
▁getan 1
▁eyes 1
▁powerful 1
icht 1
▁Lass 1
▁cut 1
hu 1
j 1
vor 1
dig 1
cher 1
treten 1
▁wusste 1
▁certain 1
rate 1
▁abge 1
▁führt 1
▁area 1
▁century 1
▁th 1
▁blue 1
▁beginning 1
▁reach 1
schau 1
▁Herausforderung 1
▁stay 1
▁needed 1
▁fühlen 1
▁kid 1
ons 1
▁che 1
▁Wahl 1
▁Anfang 1
▁glücklich 1
▁Ar 1
▁drive 1
▁weltweit 1
einander 1
▁su 1
▁photograph 1
▁turned 1
year 1
kl 1
▁Je 1
▁eher 1
▁Mensch 1
▁Lehrer 1
▁nämlich 1
▁Erfahrung 1
ny 1
rin 1
▁mar 1
▁moving 1
▁explain 1
▁unterschiedlich 1
▁oil 1
▁simply 1
ow 1
▁white 1
▁size 1
▁Stellen 1
▁ten 1
▁san 1
ions 1
▁audience 1
ker 1
▁Freunde 1
▁beginnen 1
▁treffen 1
▁Schritt 1
▁low 1
▁eigene 1
▁sign 1
rus 1
dr 1
ob 1
▁wonderful 1
you 1
▁father 1
▁Sinn 1
▁H 1
▁solche 1
▁fo 1
▁überhaupt 1
▁whatever 1
▁menschlichen 1
▁longer 1
▁l 1
▁h 1
▁Arbeits 1
ana 1
▁Mittel 1
▁meines 1
▁cannot 1
▁special 1
ef 1
▁hit 1
▁schauen 1
▁jene 1
ration 1
▁70 1
bb 1
ock 1
▁y 1
qua 1
▁win 1
▁17 1
lk 1
▁tut 1
▁Tiere 1
▁Gemeinschaft 1
ris 1
▁kamen 1
▁Lage 1
zahl 1
▁/ 1
▁south 1
▁allem 1
▁positive 1
▁blood 1
▁zwar 1
▁Wochen 1
▁gleichen 1
▁represent 1
mittel 1
▁Wissenschaftler 1
▁fi 1
plan 1
▁challenge 1
ept 1
ete 1
unk 1
▁verwenden 1
wert 1
▁solve 1
▁deep 1
▁parts 1
▁offen 1
▁Sachen 1
▁Technik 1
▁measure 1
▁break 1
▁eat 1
▁pe 1
▁bl 1
ei 1
▁stark 1
▁Umwelt 1
▁Tages 1
ization 1
▁generation 1
▁tief 1
lock 1
hm 1
▁Zum 1
▁terms 1
▁humans 1
ziehen 1
nom 1
chten 1
▁Nacht 1
▁versucht 1
▁innerhalb 1
ierten 1
▁speak 1
▁völlig 1
▁bio 1
▁ground 1
▁mi 1
ellen 1
▁Team 1
▁bekam 1
▁Erfolg 1
▁Hilfe 1
▁sw 1
leb 1
wi 1
▁fragte 1
▁value 1
ther 1
▁dark 1
▁nu 1
stein 1
▁Vi 1
▁te 1
ped 1
▁revolution 1
▁fun 1
▁movement 1
▁mussten 1
▁present 1
uck 1
▁fr 1
▁surface 1
▁Bildung 1
▁jedoch 1
▁girl 1
▁Länder 1
▁Alter 1
▁interested 1
▁class 1
▁Viele 1
▁schlecht 1
▁Tage 1
▁tried 1
aff 1
▁Po 1
▁Ca 1
▁office 1
▁ka 1
▁park 1
▁protect 1
sse 1
▁Gedanken 1
▁Schw 1
▁gone 1
▁vo 1
cent 1
▁stage 1
▁Essen 1
stellen 1
▁Haupt 1
▁soziale 1
▁travel 1
▁patients 1
▁quickly 1
▁Arm 1
▁Denken 1
ists 1
▁Blut 1
▁ability 1
▁13 1
atur 1
▁All 1
▁Möglichkeiten 1
▁climate 1
▁lost 1
▁either 1
ular 1
haft 1
▁kleiner 1
trieb 1
▁known 1
▁gu 1
▁Sicherheit 1
Ge 1
▁spent 1
▁Okay 1
▁benutzt 1
▁lead 1
ay 1
▁complex 1
▁Vorstellung 1
▁star 1
▁Ä 1
ov 1
ek 1
▁rein 1
rank 1
▁Job 1
▁Eis 1
▁write 1
▁va 1
▁zweite 1
▁allow 1
▁genauso 1
ible 1
▁essen 1
▁Versuch 1
▁To 1
stoff 1
▁damals 1
▁Dingen 1
▁Familien 1
▁schrieb 1
▁Grunde 1
▁weeks 1
oren 1
fang 1
▁Thema 1
fin 1
▁result 1
upp 1
ome 1
▁Bi 1
▁leicht 1
▁hol 1
▁box 1
▁pi 1
▁Boden 1
▁fire 1
▁strong 1
▁hu 1
▁sl 1
▁lösen 1
▁message 1
▁born 1
▁bleiben 1
▁Unterschied 1
▁shows 1
▁dna 1
▁north 1
kraft 1
Das 1
▁situation 1
eck 1
pol 1
▁21 1
▁ve 1
▁bed 1
▁sitting 1
▁wären 1
▁El 1
▁approach 1
▁Wert 1
one 1
voll 1
▁Pe 1
▁Gen 1
▁obwohl 1
▁opportunity 1
▁pick 1
▁access 1
▁hold 1
▁individual 1
▁ice 1
▁Bio 1
▁based 1
▁wouldn 1
▁worden 1
▁Generation 1
▁morning 1
tische 1
▁Namen 1
▁clear 1
ni 1
▁zer 1
▁suchen 1
▁Zellen 1
▁produce 1
▁character 1
ping 1
▁Lösung 1
▁Unsere 1
!" 1
▁rich 1
▁focus 1
▁mass 1
▁law 1
ika 1
▁anderer 1
▁ni 1
▁increase 1
▁scientists 1
punkt 1
▁growth 1
▁main 1
▁größte 1
▁bringt 1
▁schreiben 1
▁realize 1
▁Reise 1
▁sollen 1
▁gleiche 1
ability 1
▁Woche 1
▁Situation 1
isiert 1
▁lab 1
ments 1
▁books 1
▁sal 1
▁gl 1
▁Ozean 1
▁j 1
▁spa 1
ischer 1
▁Meinung 1
▁pa 1
bare 1
▁unseres 1
▁connect 1
▁bitte 1
▁hi 1
▁gemeinsam 1
▁continue 1
ition 1
▁las 1
sie 1
▁Gesicht 1
▁Richtung 1
▁watch 1
▁Monate 1
▁incredible 1
cr 1
fo 1
▁growing 1
▁Jahrhundert 1
▁ph 1
▁street 1
▁nice 1
▁provide 1
▁emotional 1
▁Bau 1
▁path 1
führen 1
gestellt 1
▁n 1
▁Publikum 1
erung 1
▁impact 1
▁attention 1
oo 1
greifen 1
▁entfernt 1
▁anyone 1
▁Nein 1
▁Wirtschaft 1
▁Amerika 1
▁Wahrheit 1
▁Tier 1
▁average 1
▁sex 1
rang 1
▁Gra 1
▁changes 1
▁literally 1
▁miss 1
▁seem 1
tung 1
▁fall 1
pass 1
▁Gesundheit 1
raum 1
▁visual 1
▁sing 1
▁Zwei 1
vis 1
▁Rolle 1
▁Alle 1
▁action 1
▁chance 1
ries 1
▁junge 1
▁größten 1
▁teilen 1
▁komplett 1
▁Foto 1
▁economy 1
van 1
lö 1
▁betrachten 1
▁lässt 1
▁wi 1
▁cha 1
wo 1
▁numbers 1
▁unten 1
▁Information 1
▁bewusst 1
▁girls 1
▁region 1
▁bottom 1
grün 1
ühl 1
▁nahm 1
▁CA 1
▁Ri 1
▁feet 1
ged 1
sta 1
▁statt 1
▁funktionieren 1
▁train 1
day 1
▁Ex 1
▁Markt 1
▁auszu 1
▁Programm 1
time 1
▁gene 1
▁alone 1
ins 1
▁animal 1
▁besteht 1
▁Ihren 1
nie 1
▁Autos 1
▁Labor 1
▁dessen 1
▁Gebiet 1
ey 1
▁areas 1
▁giving 1
▁hundreds 1
setzen 1
änge 1
▁Ku 1
▁liebe 1
sum 1
▁soon 1
▁brought 1
▁development 1
▁physical 1
▁wrote 1
▁road 1
af 1
izing 1
▁Heute 1
▁Ist 1
▁late 1
▁truth 1
meter 1
row 1
▁hospital 1
kan 1
▁Jo 1
▁cars 1
▁knowledge 1
▁sprach 1
nung 1
▁seems 1
▁similar 1
gi 1
sprech 1
Was 1
▁gelernt 1
ship 1
▁artist 1
▁camera 1
▁forest 1
▁pass 1
▁Hu 1
▁erinnern 1
▁safe 1
ade 1
mut 1
▁dead 1
▁langsam 1
▁entdeckt 1
▁telling 1
▁forward 1
▁understanding 1
usch 1
▁Fähigkeit 1
▁sterben 1
▁expect 1
▁starting 1
druck 1
▁Freund 1
▁Größe 1
▁function 1
▁trust 1
ograph 1
put 1
▁unbe 1
griff 1
ktion 1
arbeit 1
▁Modell 1
▁beide 1
▁voll 1
▁zuvor 1
▁images 1
▁sit 1
▁Muster 1
▁scheint 1
istic 1
val 1
pen 1
▁innovation 1
▁potential 1
▁jo 1
▁smart 1
▁aufge 1
▁Durch 1
▁material 1
▁conversation 1
fu 1
rich 1
tisch 1
Und 1
▁verbunden 1
▁type 1
▁goal 1
▁block 1
ruf 1
satz 1
▁Staaten 1
▁micro 1
led 1
▁mine 1
▁dream 1
isieren 1
▁einfache 1
▁Neu 1
▁Realität 1
▁erschaffen 1
tten 1
setzt 1
▁Fisch 1
▁network 1
genommen 1
▁Netzwerk 1
▁movie 1
▁absolutely 1
▁fanden 1
▁Ländern 1
▁Tat 1
▁Öl 1
off 1
▁wa 1
▁einge 1
▁erreicht 1
zug 1
Sch 1
▁report 1
▁force 1
del 1
fahren 1
▁verwendet 1
▁Zahl 1
hand 1
spect 1
▁invest 1
▁issue 1
▁millions 1
▁medical 1
eten 1
▁Krankheit 1
▁tools 1
▁recently 1
▁Qu 1
▁gefunden 1
▁lesen 1
▁tend 1
▁24 1
▁stellt 1
▁Tatsache 1
▁genannt 1
▁running 1
▁wild 1
▁developed 1
▁bank 1
car 1
▁"( 1
▁Einige 1
▁worth 1
▁Sehen 1
▁multi 1
▁schließlich 1
▁Umgebung 1
▁sleep 1
lte 1
▁rot 1
▁bessere 1
▁draußen 1
▁relationship 1
eh 1
▁spread 1
▁Kraft 1
ctor 1
▁save 1
▁trans 1
ank 1
▁Reihe 1
▁Jeder 1
▁Groß 1
▁großartig 1
wal 1
▁cat 1
richten 1
tät 1
▁meet 1
rop 1
▁creating 1
▁discovered 1
▁evolution 1
▁fundamental 1
▁spielt 1
▁teach 1
▁choice 1
▁guess 1
▁transform 1
▁eye 1
lage 1
▁plötzlich 1
Die 1
▁Bevölkerung 1
▁teil 1
▁bi 1
▁extra 1
▁among 1
▁dec 1
licht 1
▁kaufen 1
▁hervor 1
▁gewesen 1
▁Medien 1
▁tr 1
ew 1
▁african 1
cke 1
▁cal 1
▁Verbindung 1
▁Gewalt 1
▁Süd 1
▁theory 1
▁länger 1
▁sehe 1
▁miles 1
▁especially 1
▁source 1
gab 1
▁hast 1
▁tat 1
▁Bedeutung 1
▁Natürlich 1
▁baby 1
out 1
▁Test 1
▁recognize 1
ase 1
▁reich 1
fach 1
weisen 1
▁fly 1
chan 1
& 1
▁str 1
gesetzt 1
▁passieren 1
▁Preis 1
▁erklären 1
▁solar 1
▁europe 1
üge 1
zellen 1
▁miteinander 1
▁allein 1
▁listen 1
lon 1
kel 1
▁Konzept 1
▁perfect 1
are 1
▁bat 1
▁blind 1
▁Chris 1
▁aufzu 1
:" 1
▁Tod 1
▁treat 1
▁moral 1
gleich 1
leben 1
ären 1
▁Kl 1
▁kill 1
press 1
essen 1
light 1
ehr 1
▁aussehen 1
▁Mar 1
▁door 1
ice 1
▁asking 1
▁Deshalb 1
▁Fe 1
laden 1
▁fort 1
blick 1
▁Not 1
▁suggest 1
▁anti 1
find 1
▁mache 1
▁gegenüber 1
▁technologies 1
▁page 1
▁gas 1
▁Aufgabe 1
▁Hoffnung 1
▁likely 1
▁touch 1
▁wind 1
▁follow 1
▁hinaus 1
▁sieben 1
▁Bücher 1
▁private 1
▁nobody 1
▁plant 1
ki 1
rig 1
▁web 1
ham 1
viel 1
▁jemals 1
▁Fehler 1
▁sat 1
▁progress 1
▁concept 1
▁site 1
▁500 1
▁hinein 1
▁add 1
▁gives 1
▁total 1
▁mental 1
▁nine 1
ake 1
▁pen 1
lass 1
▁gesch 1
▁Während 1
▁000 1
erweise 1
▁ran 1
▁Genau 1
▁beginnt 1
▁stimmt 1
▁Y 1
▁verloren 1
▁erfolgreich 1
▁carbon 1
test 1
▁require 1
▁showed 1
▁table 1
za 1
▁Stimme 1
▁gebaut 1
▁Ihrer 1
▁Studie 1
▁sounds 1
roll 1
▁raus 1
▁welches 1
▁Alles 1
▁interessiert 1
▁nor 1
▁industry 1
▁clean 1
▁general 1
uit 1
ney 1
lassen 1
▁Meter 1
▁ähnlich 1
▁wonder 1
▁ki 1
▁patient 1
über 1
▁gewisse 1
eckt 1
▁incredibly 1
▁push 1
wir 1
▁sofort 1
▁genetic 1
▁toll 1
▁klein 1
▁hart 1
▁gezeigt 1
▁Platz 1
Wir 1
▁period 1
▁search 1
▁changing 1
bot 1
fallen 1
▁Straßen 1
▁Kan 1
▁major 1
▁tiny 1
▁sha 1
▁designed 1
▁mark 1
▁daraus 1
▁Tatsächlich 1
▁möchten 1
▁haven 1
lose 1
▁zehn 1
▁Anzahl 1
▁Kr 1
▁solution 1
▁english 1
▁deshalb 1
▁nachdem 1
▁Innovation 1
▁War 1
▁success 1
▁issues 1
▁card 1
raten 1
▁acht 1
▁resources 1
▁event 1
▁pack 1
▁traf 1
ziel 1
▁neben 1
▁offer 1
▁Entscheidungen 1
▁Forschung 1
▁stellte 1
▁Hi 1
▁join 1
▁Hälfte 1
▁Städte 1
▁vision 1
▁flu 1
▁consider 1
▁evidence 1
In 1
▁bewegt 1
▁university 1
▁egal 1
▁geworden 1
Beifall 1
weit 1
▁beyond 1
lung 1
▁Fi 1
▁beste 1
▁kleines 1
▁Oberfläche 1
▁village 1
▁sell 1
▁nahe 1
▁Meer 1
▁reasons 1
▁basic 1
▁fix 1
▁secret 1
bringen 1
▁höher 1
▁glaubt 1
▁falls 1
▁extrem 1
▁nimmt 1
right 1
▁interest 1
▁attack 1
▁track 1
▁treatment 1
▁playing 1
system 1
fassen 1
▁danach 1
ind 1
chi 1
than 1
▁auto 1
▁Studenten 1
▁anfangen 1
Z 1
▁tu 1
▁Beziehung 1
stück 1
▁Schul 1
let 1
schlag 1
schrei 1
▁wait 1
▁subject 1
▁collect 1
je 1
▁Technologien 1
▁riesige 1
▁Berg 1
▁slow 1
▁Tu 1
band 1
▁several 1
▁jemanden 1
ned 1
▁fund 1
▁bekommt 1
▁ständig 1
▁available 1
ley 1
▁300 1
▁groups 1
nk 1
▁Wörter 1
▁anybody 1
▁becomes 1
▁role 1
▁list 1
▁screen 1
▁bist 1
arten 1
▁Wei 1
▁Chance 1
▁größer 1
▁lag 1
▁developing 1
ight 1
▁practice 1
▁interact 1
nten 1
▁Universität 1
▁Europa 1
▁Wa 1
▁college 1
▁text 1
▁cap 1
▁Experiment 1
▁Kamera 1
▁writing 1
▁fit 1
▁neuro 1
mark 1
▁Künstler 1
▁Wind 1
▁favorite 1
▁led 1
▁product 1
▁mis 1
▁Ur 1
platz 1
qual 1
▁dog 1
heim 1
▁aktiv 1
mission 1
▁peace 1
▁develop 1
▁aren 1
▁laufen 1
▁Nachrichten 1
▁Interesse 1
▁wichtige 1
▁geboren 1
▁computers 1
▁scientific 1
▁chinese 1
ffer 1
▁nachdenken 1
ssystem 1
▁niemals 1
▁count 1
▁absolut 1
▁guten 1
sagen 1
▁findet 1
▁schneller 1
▁Rest 1
▁einzu 1
▁Nahrung 1
▁towards 1
▁appear 1
machen 1
geht 1
wasser 1
▁sh 1
▁compassion 1
▁verrückt 1
▁Teile 1
▁sent 1
ica 1
▁gingen 1
▁effect 1
asse 1
▁hundred 1
▁mars 1
▁Mars 1
▁lived 1
▁robot 1
mat 1
▁erzählt 1
▁Material 1
▁einzelne 1
▁lieben 1
▁Hund 1
▁fing 1
▁Atom 1
▁cu 1
alen 1
akt 1
▁fahren 1
▁daher 1
▁Vortrag 1
▁komplexe 1
▁farm 1
▁check 1
▁talked 1
▁obviously 1
vin 1
▁putting 1
▁pictures 1
▁object 1
▁boy 1
selben 1
▁agree 1
▁google 1
ology 1
▁please 1
▁para 1
▁wider 1
▁fliegen 1
▁machten 1
▁Produkt 1
▁DNA 1
▁Veränderung 1
▁drug 1
▁rules 1
▁pal 1
▁Gene 1
Ma 1
▁involved 1
low 1
▁store 1
stelle 1
teilen 1
gebracht 1
▁meaning 1
▁wish 1
kal 1
▁Or 1
▁brachte 1
▁Ki 1
▁feed 1
▁near 1
▁stick 1
▁intelligent 1
▁west 1
▁medicine 1
▁massive 1
▁hoffe 1
▁Ru 1
iti 1
▁bigger 1
arm 1
mus 1
▁Mitte 1
▁Oh 1
▁Behandlung 1
lig 1
▁pr 1
ford 1
▁Demokratie 1
denken 1
▁poverty 1
▁fight 1
▁sonst 1
ably 1
▁flow 1
▁predict 1
▁walking 1
▁journey 1
▁alten 1
▁Rat 1
▁speed 1
▁v 1
▁connection 1
▁Park 1
▁fu 1
▁Firma 1
▁Super 1
rain 1
▁standard 1
▁drugs 1
iff 1
▁tri 1
▁schools 1
ball 1
▁Straße 1
▁perspective 1
▁har 1
▁creative 1
▁deliver 1
▁Medizin 1
▁security 1
▁pull 1
▁response 1
kehr 1
▁mögen 1
▁Fo 1
▁Min 1
▁Maschine 1
ulation 1
▁account 1
▁violence 1
med 1
▁wichtiger 1
▁visit 1
berg 1
ssen 1
acy 1
▁ziehen 1
▁month 1
▁notice 1
▁x 1
▁sold 1
haus 1
▁neues 1
▁Jahrzehnt 1
stehen 1
▁Struktur 1
▁Zahlen 1
▁eventually 1
▁indeed 1
▁Armut 1
▁Nur 1
▁finding 1
▁verb 1
erin 1
isierung 1
▁Zusammen 1
▁offensichtlich 1
ationen 1
▁chris 1
▁pan 1
ina 1
▁suddenly 1
▁schw 1
▁Papier 1
▁Strom 1
▁erlaubt 1
▁Fortschritt 1
▁Wachstum 1
▁particularly 1
▁certainly 1
▁hell 1
▁lose 1
▁moved 1
▁früher 1
▁Ju 1
▁sozialen 1
▁Blick 1
but 1
▁achieve 1
eb 1
▁setzt 1
▁US 1
▁mehrere 1
▁Gruppen 1
part 1
▁urban 1
q 1
▁Von 1
innen 1
▁hot 1
▁position 1
▁code 1
▁links 1
▁further 1
▁mountain 1
▁zeige 1
J 1
mate 1
▁benefit 1
of 1
▁successful 1
▁price 1
▁draw 1
▁sa 1
▁manche 1
▁gegeben 1
▁east 1
ory 1
▁ball 1
▁hielt 1
wende 1
folge 1
▁print 1
▁ready 1
▁rock 1
las 1
▁Auch 1
▁Daher 1
typ 1
▁nuclear 1
üsse 1
uß 1
▁throw 1
▁student 1
lly 1
kam 1
Be 1
▁Entscheidung 1
▁näher 1
how 1
▁device 1
▁mom 1
▁organization 1
▁skin 1
räum 1
ände 1
▁Sonne 1
▁biggest 1
▁depend 1
▁hole 1
▁Kosten 1
▁Orte 1
▁Schauen 1
▁abzu 1
▁lernte 1
▁roll 1
ju 1
dimensional 1
▁Studien 1
▁Mathematik 1
▁breath 1
▁detail 1
▁genommen 1
▁dachten 1
▁Bar 1
▁herauszufinden 1
▁liegen 1
seite 1
▁nennt 1
▁Theorie 1
▁threat 1
ession 1
▁magic 1
▁gold 1
▁For 1
fälle 1
▁Schüler 1
hören 1
stände 1
▁Pi 1
▁Ergebnis 1
▁cross 1
▁ch 1
▁interessante 1
▁Sy 1
▁Revolution 1
▁democracy 1
▁minds 1
▁wave 1
▁Staat 1
▁setzen 1
▁discover 1
arch 1
▁blau 1
▁Worte 1
▁Zugang 1
▁software 1
bit 1
▁memory 1
▁Plan 1
▁tragen 1
▁Sex 1
▁Karte 1
▁showing 1
▁bur 1
die 1
▁anstatt 1
zeichnet 1
▁Wand 1
▁link 1
▁accept 1
▁rede 1
▁Fähigkeiten 1
▁sky 1
▁jobs 1
▁1. 1
bert 1
▁brains 1
▁cover 1
▁hundert 1
▁Druck 1
▁verbessern 1
▁sahen 1
▁supposed 1
bin 1
▁choose 1
▁everywhere 1
ified 1
▁außer 1
▁Menschheit 1
brechen 1
▁Uhr 1
▁Gi 1
▁Reaktion 1
get 1
▁square 1
▁gross 1
▁bald 1
▁Geschäfts 1
▁älter 1
▁doctor 1
▁alte 1
▁Google 1
▁gleichzeitig 1
▁enter 1
bor 1
▁higher 1
ari 1
▁police 1
▁inner 1
bald 1
▁Ph 1
▁begannen 1
▁Herr 1
▁totally 1
▁communities 1
▁anyway 1
▁song 1
▁onto 1
▁largest 1
▁Bürger 1
▁waste 1
▁examples 1
rot 1
ray 1
▁Flugzeug 1
stellt 1
alität 1
▁Mitgefühl 1
▁Ärzte 1
▁crazy 1
▁dance 1
flu 1
nach 1
▁kreativ 1
▁exciting 1
▁quality 1
▁context 1
▁results 1
mmel 1
▁remain 1
▁meeting 1
last 1
sinn 1
▁Ebene 1
▁vergessen 1
ever 1
▁scan 1
my 1
▁schwarze 1
▁vorbei 1
▁Gut 1
▁Führung 1
ban 1
▁religion 1
▁named 1
▁starts 1
▁organ 1
▁schlechte 1
wohn 1
▁Telefon 1
▁gesund 1
▁chemical 1
▁bacteria 1
Ja 1
▁Tür 1
▁Religion 1
laufen 1
▁leaders 1
▁hum 1
▁hour 1
hy 1
rb 1
bahn 1
▁folgende 1
▁sitzen 1
▁Vereinigte 1
▁projects 1
ically 1
board 1
▁male 1
▁zuerst 1
▁Monaten 1
▁Büro 1
▁connected 1
ami 1
▁dar 1
▁grew 1
▁finde 1
▁Zeug 1
▁großer 1
▁baut 1
▁Traum 1
▁families 1
▁games 1
rum 1
▁geschieht 1
▁sodass 1
▁Objekt 1
▁trees 1
▁pet 1
▁watching 1
▁conflict 1
▁Mikro 1
▁ermöglicht 1
▁Aufmerksamkeit 1
▁Seiten 1
zugehen 1
▁Evolution 1
▁Netz 1
▁Jede 1
▁hört 1
our 1
▁amp 1
▁worse 1
▁interview 1
▁individuals 1
▁argument 1
▁president 1
▁fuel 1
▁bomb 1
▁cold 1
▁tro 1
ologie 1
▁Politik 1
▁bestimmt 1
sicher 1
▁Bewusstsein 1
▁Partner 1
▁bestimmte 1
schließen 1
▁prop 1
▁detect 1
▁signal 1
ram 1
▁Pflanzen 1
▁Ding 1
▁wussten 1
▁Kern 1
▁Schulen 1
▁cause 1
▁river 1
▁materials 1
▁essentially 1
▁drop 1
▁Gespräch 1
▁richtige 1
▁Ergebnisse 1
▁extremely 1
▁affect 1
hop 1
0,000 1
▁ship 1
▁pattern 1
▁plastic 1
é 1
▁fertig 1
Wie 1
organism 1
music 1
▁direction 1
welt 1
▁Schl 1
▁verlassen 1
▁passierte 1
▁voller 1
▁zweiten 1
▁return 1
▁including 1
pre 1
▁bra 1
▁Ton 1
▁versuchte 1
▁Sicht 1
▁pain 1
work 1
mann 1
▁base 1
▁nein 1
▁ihres 1
▁brother 1
▁Krankheiten 1
▁sad 1
▁meant 1
yo 1
▁usually 1
▁persönlich 1
▁Grenzen 1
▁Medikamente 1
▁früh 1
▁rep 1
pan 1
cho 1
▁freedom 1
▁shift 1
lau 1
▁Klima 1
▁Amerikaner 1
▁erstaunlich 1
▁version 1
▁improve 1
wort 1
▁Gesundheits 1
▁Gerät 1
artige 1
▁island 1
▁decision 1
▁task 1
ash 1
▁shot 1
▁arbeitete 1
▁geschrieben 1
▁Para 1
▁letter 1
▁somewhere 1
▁fine 1
bro 1
▁45 1
▁shown 1
▁carry 1
▁bodies 1
wirtschaft 1
▁Nord 1
▁medizinische 1
Musik 1
▁traditional 1
▁term 1
ette 1
▁window 1
▁Monat 1
▁Nummer 1
▁betrachtet 1
schnitt 1
▁kaum 1
▁Meeres 1
▁bill 1
▁board 1
▁fan 1
yp 1
zieren 1
▁bleibt 1
▁ändert 1
▁explore 1
gas 1
▁somehow 1
▁unge 1
▁Her 1
▁Wieder 1
zo 1
▁plants 1
▁conditions 1
▁allowed 1
▁loved 1
▁Personen 1
▁beobachten 1
grund 1
▁address 1
▁char 1
▁hiv 1
▁camp 1
▁teachers 1
▁prison 1
▁Eines 1
▁wirtschaftliche 1
tritt 1
▁großes 1
▁bemerkt 1
▁critical 1
▁survive 1
▁net 1
▁tool 1
tum 1
gegeben 1
▁Handy 1
▁häufig 1
▁models 1
▁taught 1
▁career 1
▁gesprochen 1
netz 1
▁prevent 1
▁killed 1
stitution 1
▁older 1
▁doctors 1
▁tells 1
stellung 1
▁schafft 1
▁Kontrolle 1
▁Region 1
▁john 1
▁spring 1
▁burn 1
▁original 1
lla 1
▁happiness 1
lop 1
▁fat 1
schrift 1
▁Vergangenheit 1
▁lit 1
geschlossen 1
▁fühlt 1
teilung 1
▁truly 1
▁trade 1
▁extraordinary 1
▁eng 1
buch 1
▁Tagen 1
ständig 1
▁Geist 1
▁faster 1
rad 1
▁town 1
▁Go 1
▁zumindest 1
▁ansehen 1
▁bilden 1
▁Tra 1
▁negative 1
▁tree 1
phone 1
▁math 1
feld 1
kle 1
▁Funktion 1
▁Himmel 1
▁Wi 1
▁range 1
▁however 1
▁stress 1
▁central 1
rennen 1
▁fantastisch 1
▁komme 1
▁Fahr 1
▁entscheiden 1
▁bestimmten 1
▁thousand 1
ogen 1
▁gi 1
▁leg 1
▁above 1
▁Kollegen 1
▁Können 1
▁großartige 1
▁Typ 1
▁Freiheit 1
Er 1
▁Sohn 1
▁bunch 1
▁buildings 1
▁excited 1
▁disc 1
oid 1
▁daughter 1
cker 1
▁kl 1
▁Gründe 1
▁gearbeitet 1
zeichnen 1
▁standing 1
▁strange 1
▁Firmen 1
▁verlieren 1
▁lower 1
▁zero 1
▁objects 1
▁humanity 1
▁starb 1
▁muslim 1
▁Regeln 1
▁Haut 1
▁Erinnerung 1
▁kompliziert 1
▁Gesetz 1
▁perform 1
▁morgen 1
▁Einfluss 1
▁Beispiele 1
ßt 1
▁folgen 1
▁handelt 1
▁täglich 1
▁manage 1
▁legal 1
▁rise 1
tat 1
▁wachsen 1
▁Stelle 1
▁Präsident 1
▁Wal 1
▁cook 1
▁pop 1
▁pieces 1
▁principle 1
▁trial 1
wie 1
▁rund 1
▁Kor 1
lauf 1
▁Klasse 1
▁remind 1
▁shi 1
lit 1
▁floor 1
▁foot 1
lies 1
▁wann 1
kommt 1
▁Erd 1
▁Konflikt 1
kreis 1
▁etc 1
▁none 1
▁reading 1
▁2000 1
▁expert 1
▁ended 1
▁teacher 1
hab 1
▁Mu 1
füll 1
▁Pf 1
▁Hände 1
▁except 1
▁training 1
▁rat 1
▁gern 1
▁Spezies 1
gruppe 1
▁echte 1
▁Morgen 1
▁Kampf 1
▁slide 1
▁profit 1
▁architecture 1
▁fair 1
▁studies 1
▁sum 1
frei 1
zeug 1
jährige 1
▁Trans 1
▁hohe 1
▁female 1
▁poll 1
hung 1
hor 1
▁John 1
▁Risiko 1
tischen 1
zustellen 1
▁Kommunikation 1
▁nachzudenken 1
Re 1
▁Orten 1
▁Geb 1
▁Pla 1
▁Physik 1
▁crisis 1
▁radio 1
▁photo 1
▁lines 1
▁respond 1
▁Beginn 1
▁Baum 1
▁Dorf 1
▁Leistung 1
▁speziell 1
path 1
▁minute 1
▁race 1
▁alive 1
▁limit 1
▁impossible 1
▁afford 1
▁Jahres 1
▁Sinne 1
can 1
▁clearly 1
▁service 1
▁finger 1
▁unique 1
▁paint 1
▁erfahren 1
▁National 1
▁complete 1
cle 1
▁policy 1
star 1
▁beings 1
▁points 1
unter 1
uten 1
▁trotzdem 1
▁Arzt 1
▁gefährlich 1
▁San 1
▁wife 1
▁products 1
▁activity 1
▁website 1
mic 1
bed 1
▁schrecklich 1
▁Gefängnis 1
▁Wirklichkeit 1
▁retten 1
▁current 1
▁press 1
▁port 1
▁jump 1
like 1
▁serious 1
▁hero 1
lam 1
▁Geschäft 1
▁Ob 1
uel 1
▁allows 1
▁communication 1
▁kept 1
▁biology 1
▁glass 1
▁dad 1
▁ehrlich 1
▁Spaß 1
▁dritte 1
▁winzig 1
licher 1
▁Nachricht 1
▁anschauen 1
▁reduce 1
▁400 1
▁complicated 1
▁bla 1
▁famous 1
▁content 1
▁Wald 1
▁erzeugen 1
▁möglichen 1
▁OK 1
▁Software 1
▁seltsam 1
▁Früh 1
▁politische 1
▁Sam 1
▁keiner 1
▁Industrie 1
▁Wesen 1
rry 1
▁rain 1
▁forms 1
▁respect 1
▁email 1
now 1
▁intelligence 1
▁sand 1
▁upon 1
▁cur 1
▁denkt 1
fähig 1
▁nenne 1
▁unmöglich 1
▁» 1
▁larger 1
▁bear 1
▁healthy 1
gan 1
▁Bakterien 1
▁einzelnen 1
▁führte 1
▁Neuro 1
Ver 1
grat 1
▁genes 1
▁lie 1
zunehmen 1
▁serve 1
▁pat 1
▁danke 1
▁Car 1
▁Beziehungen 1
sprach 1
▁« 1
▁electricity 1
▁sorts 1
▁painting 1
lief 1
▁patterns 1
▁pur 1
▁laut 1
▁zeigte 1
▁existiert 1
▁Ni 1
▁Hoch 1
▁fühlte 1
▁gewinnen 1
▁perfekt 1
▁Akt 1
▁aussieht 1
▁partner 1
burg 1
▁cases 1
rauch 1
ätze 1
▁nannte 1
▁nutzt 1
▁enjoy 1
▁symbol 1
▁Bis 1
▁Mark 1
▁jungen 1
▁solchen 1
▁Komm 1
▁Per 1
▁Schlaf 1
▁performance 1
▁rule 1
▁mobile 1
ama 1
▁anymore 1
▁erklärt 1
▁Finger 1
▁Schmerz 1
▁throughout 1
gie 1
▁sau 1
phe 1
▁saß 1
▁müsste 1
▁verbinden 1
▁Fotos 1
▁Landes 1
▁effort 1
▁grand 1
▁tea 1
▁harm 1
▁arch 1
▁schaut 1
▁My 1
▁Damit 1
▁written 1
▁environmental 1
▁specific 1
▁machines 1
▁earlier 1
▁raise 1
logen 1
▁eben 1
▁Spa 1
▁hörte 1
▁Mi 1
komm 1
▁Str 1
han 1
▁150 1
▁cheap 1
▁thanks 1
▁stu 1
▁although 1
▁coral 1
gezogen 1
▁arbeite 1
▁Cha 1
karte 1
▁lebt 1
▁gebracht 1
▁irgendeine 1
arbeiten 1
wechsel 1
▁solutions 1
▁spin 1
▁mini 1
nisse 1
sitz 1
▁entdecken 1
▁wert 1
tragen 1
▁neun 1
ät 1
▁Su 1
ille 1
▁purpose 1
▁final 1
▁islam 1
▁“ 1
▁CO 1
▁Ressourcen 1
▁arbeitet 1
▁befinden 1
▁military 1
▁lesson 1
▁dangerous 1
▁listening 1
▁Beste 1
▁target 1
▁capital 1
▁financial 1
▁seat 1
▁reflect 1
▁anywhere 1
▁heutzutage 1
tausend 1
▁Finanz 1
tausch 1
Es 1
▁kannst 1
▁gefragt 1
▁Sterne 1
▁gering 1
▁alternative 1
▁weren 1
▁forget 1
▁virtual 1
▁pu 1
wesen 1
▁veröffentlicht 1
▁Baby 1
▁Glauben 1
▁Elektro 1
▁Stein 1
▁series 1
▁therefore 1
▁document 1
▁decide 1
▁aufgrund 1
▁gekommen 1
▁Wahrscheinlich 1
▁Gegen 1
▁decisions 1
orp 1
don 1
▁becoming 1
▁HIV 1
üb 1
▁Text 1
▁Gu 1
▁leisten 1
▁decades 1
▁35 1
▁greatest 1
programm 1
▁Bäume 1
▁produzieren 1
baren 1
▁scar 1
▁separate 1
pla 1
▁stars 1
▁western 1
▁Bühne 1
▁erzählte 1
▁hilft 1
▁wunderbar 1
ky 1
▁wide 1
▁americans 1
▁ideal 1
bal 1
▁Hy 1
▁verbreitet 1
kü 1
▁Organisation 1
▁globalen 1
▁dreht 1
▁irgendwo 1
seits 1
▁significant 1
▁niedrig 1
▁öffentlichen 1
▁dadurch 1
▁Frieden 1
▁dauert 1
geschichte 1
▁spot 1
▁drink 1
▁babies 1
▁Prinzip 1
▁Vergleich 1
▁Andere 1
▁läuft 1
▁versuche 1
hält 1
▁Ball 1
▁fossil 1
aging 1
▁unfortunately 1
gram 1
▁eure 1
▁Verb 1
▁echt 1
▁Beruf 1
▁prove 1
lick 1
video 1
▁Gelegenheit 1
▁gestellt 1
▁Botschaft 1
▁Artikel 1
▁trip 1
▁fra 1
▁erinnert 1
▁einander 1
▁Manchmal 1
▁verkauft 1
▁schützen 1
▁effective 1
▁robots 1
▁define 1
▁charge 1
▁geo 1
▁Sekunden 1
▁unterstützen 1
▁untersuchen 1
▁Bank 1
▁museum 1
▁fantastic 1
▁smaller 1
▁dig 1
▁gift 1
handel 1
▁Drei 1
▁Architektur 1
▁schöne 1
▁hält 1
▁Pu 1
▁Einer 1
▁worry 1
▁waiting 1
▁trick 1
▁mistake 1
not 1
▁himself 1
▁75 1
ache 1
▁globale 1
▁Aspekt 1
▁Regierungen 1
▁Flug 1
Sie 1
▁Geh 1
▁besondere 1
ix 1
▁enormous 1
▁station 1
ya 1
▁actual 1
▁familiar 1
▁challenges 1
▁warten 1
▁Schlüssel 1
▁Che 1
▁erwartet 1
fisch 1
▁pra 1
▁cultural 1
▁demand 1
▁institutions 1
▁physics 1
Ö 1
▁benötigt 1
schicht 1
Ko 1
▁Hirn 1
▁Gehirns 1
▁motor 1
▁brand 1
▁willing 1
avi 1
▁Gas 1
▁unglaubliche 1
▁Fuß 1
▁außerhalb 1
▁Fluss 1
▁temperature 1
▁tv 1
▁skills 1
ani 1
▁Auswirkungen 1
▁Suche 1
▁Wege 1
▁Spitze 1
▁Krankenhaus 1
▁services 1
▁expensive 1
▁neurons 1
▁Tisch 1
▁Aktivität 1
endung 1
▁weight 1
▁immediately 1
▁industrial 1
problem 1
vier 1
▁Abend 1
▁Ingenieur 1
▁sowohl 1
▁Zeitpunkt 1
▁Erstens 1
▁rechts 1
richtung 1
▁See 1
▁Klimawandel 1
▁civil 1
▁honest 1
▁protein 1
▁Lösungen 1
▁Vorteil 1
▁Liste 1
▁Maschinen 1
▁Vertrauen 1
▁Forscher 1
▁Erfahrungen 1
▁verstanden 1
▁sister 1
▁contain 1
▁adapt 1
bling 1
urf 1
▁entschieden 1
▁höchst 1
▁Lu 1
▁Feuer 1
▁Feld 1
maschine 1
▁transport 1
▁corner 1
▁circle 1
▁japan 1
▁instance 1
▁pressure 1
▁fail 1
▁Wunder 1
staat 1
▁Gefahr 1
▁Schwester 1
▁beach 1
▁expand 1
▁genome 1
▁bone 1
▁match 1
▁sexual 1
▁mix 1
▁greater 1
nah 1
▁wenige 1
▁Designer 1
▁bestehen 1
▁bisher 1
▁income 1
▁statistic 1
▁hair 1
▁mid 1
▁öffentliche 1
▁Herzen 1
▁Lernen 1
▁einzigen 1
▁shared 1
▁moon 1
▁fallen 1
▁illegal 1
▁values 1
▁messen 1
▁Formen 1
hilfe 1
▁Mond 1
▁erleben 1
modell 1
▁normalerweise 1
▁Gleich 1
träge 1
▁runter 1
▁Polizei 1
▁Englisch 1
▁heat 1
jo 1
child 1
gro 1
spann 1
▁Linie 1
▁sammeln 1
▁herausfinden 1
▁laugh 1
▁levels 1
▁summer 1
▁beauty 1
▁vote 1
▁mess 1
▁laws 1
▁cloud 1
▁sensor 1
energie 1
▁Uni 1
▁Entwicklungs 1
▁schlimm 1
tür 1
▁zufällig 1
▁taten 1
▁Tief 1
▁Manche 1
▁geschehen 1
▁hab 1
▁lokale 1
▁diejenigen 1
▁Unser 1
▁Verständnis 1
▁politics 1
▁indian 1
pu 1
▁accident 1
▁kenne 1
kor 1
▁Sand 1
▁Freude 1
▁Systeme 1
▁driving 1
▁seconds 1
▁Rede 1
▁verursacht 1
bereit 1
schaftliche 1
▁Mut 1
▁Farbe 1
gewalt 1
lager 1
▁Autor 1
▁atmosphere 1
▁relationships 1
▁walked 1
▁electro 1
▁teaching 1
schutz 1
▁tolle 1
gebiet 1
▁größere 1
▁Regel 1
▁Ok 1
▁erinnere 1
▁Fische 1
neu 1
▁production 1
▁ahead 1
▁biological 1
▁costs 1
▁helped 1
▁collective 1
▁Bezug 1
▁bloß 1
▁Will 1
wissenschaft 1
▁include 1
▁ernst 1
stadt 1
kind 1
▁gehe 1
▁Hin 1
▁Auge 1
▁speech 1
▁governments 1
▁catch 1
▁mission 1
▁vehicle 1
▁types 1
▁cop 1
gabe 1
▁Million 1
▁selten 1
barkeit 1
▁erwarten 1
▁erlebt 1
▁Geräusch 1
▁geschah 1
▁whose 1
arian 1
▁arab 1
▁landscape 1
prüf 1
kauf 1
▁Projekte 1
führung 1
▁Ordnung 1
▁Lauf 1
▁Methode 1
▁Westen 1
▁Stunde 1
▁ließ 1
▁nation 1
▁trouble 1
▁iron 1
▁legs 1
▁alter 1
pel 1
▁erzeugt 1
▁wählen 1
▁wood 1
▁broken 1
▁speaking 1
▁neighborhood 1
▁gla 1
person 1
▁Handel 1
▁Schluss 1
steuer 1
daten 1
▁option 1
▁choices 1
▁edge 1
▁diseases 1
▁extreme 1
pack 1
setzung 1
▁Ganz 1
zubringen 1
▁Entdeckung 1
prozess 1
Video 1
ough 1
▁mill 1
▁method 1
▁mostly 1
mine 1
▁forth 1
▁professional 1
fried 1
▁km 1
▁hinzu 1
▁Klein 1
▁praktisch 1
▁behaupte 1
▁beeinflusst 1
▁Werte 1
▁active 1
▁spoke 1
▁terrible 1
▁legen 1
▁failure 1
▁22 1
▁Grad 1
▁unver 1
▁Veränderungen 1
▁Verantwortung 1
rüber 1
▁geschaffen 1
▁Name 1
▁Werk 1
rand 1
▁engineering 1
▁decade 1
▁double 1
▁apply 1
▁lies 1
cal 1
▁birds 1
uk 1
▁tag 1
▁Sommer 1
gelegt 1
▁dasselbe 1
▁beschäftigt 1
▁heutigen 1
▁fällt 1
▁Geburt 1
▁foundation 1
▁bus 1
▁Kurz 1
▁gedacht 1
gerät 1
▁herunter 1
▁Punkte 1
▁Tochter 1
▁Gold 1
▁quick 1
▁influence 1
▁entrepreneur 1
▁random 1
▁chi 1
▁popular 1
▁birth 1
ji 1
▁ebenso 1
▁sowie 1
▁Antworten 1
▁König 1
▁Jungen 1
▁flying 1
▁hall 1
▁passion 1
▁entweder 1
▁Junge 1
▁Sport 1
▁Detail 1
▁apart 1
▁experiences 1
ugh 1
▁communicate 1
▁boys 1
▁professor 1
▁distance 1
▁straight 1
dor 1
wärts 1
▁halb 1
▁selben 1
▁Organ 1
▁Signal 1
▁wealth 1
▁generate 1
▁express 1
▁organizations 1
▁colleagues 1
▁afraid 1
phy 1
▁recent 1
▁Lieblings 1
▁behandelt 1
▁Ehe 1
▁befindet 1
suche 1
▁useful 1
▁shoot 1
▁author 1
▁emerge 1
▁patent 1
▁interaction 1
▁Lehr 1
▁voraus 1
▁Betracht 1
Ein 1
▁lief 1
▁climb 1
▁loss 1
▁obvious 1
▁boat 1
▁algorithm 1
▁london 1
▁citizens 1
▁amerikanischen 1
▁produziert 1
▁Drogen 1
zieh 1
▁Kilometer 1
▁dunkle 1
schein 1
▁Sozial 1
mäßig 1
▁television 1
place 1
▁beat 1
▁various 1
▁rid 1
▁unit 1
wan 1
▁Jahrhunderts 1
▁Cent 1
▁übrigens 1
erei 1
▁Jedes 1
▁Überleben 1
▁Ad 1
▁Nähe 1
▁mächtig 1
losen 1
▁Schutz 1
▁master 1
▁possibly 1
▁answers 1
bank 1
weise 1
▁getroffen 1
▁Noch 1
▁Quelle 1
▁genutzt 1
ziert 1
strahl 1
▁Opfer 1
▁behandeln 1
▁London 1
▁grundlegende 1
▁conference 1
cut 1
▁neighbor 1
▁creativity 1
▁insect 1
struktur 1
▁überleben 1
▁Genom 1
▁biologische 1
▁Leidenschaft 1
▁vollständig 1
▁schicken 1
▁Nehmen 1
▁capture 1
▁select 1
▁describe 1
ification 1
tanz 1
▁noise 1
▁despite 1
▁shark 1
▁einfacher 1
▁verbringen 1
▁Kreis 1
▁copy 1
▁saving 1
▁install 1
öl 1
▁konzentrieren 1
▁effektiv 1
nahme 1
▁Charakter 1
leitet 1
▁sick 1
▁invented 1
design 1
▁custom 1
▁ban 1
omb 1
▁understood 1
▁giant 1
krieg 1
▁spricht 1
▁Nerven 1
Wo 1
▁disappear 1
▁brilliant 1
▁effects 1
▁stopped 1
▁following 1
▁nahmen 1
▁Gl 1
▁welcher 1
▁Männern 1
▁worst 1
▁closer 1
▁eu 1
▁labor 1
▁knowing 1
▁consequence 1
▁societies 1
▁layer 1
▁astro 1
▁gain 1
▁Werkzeug 1
▁Version 1
▁Teilen 1
▁Zelle 1
▁gutes 1
▁Höhe 1
▁Frei 1
▁außergewöhnlich 1
▁Gemeinde 1
markt 1
pping 1
▁surround 1
▁hack 1
▁bridge 1
▁seemed 1
▁struggle 1
▁guter 1
zeichen 1
▁verkaufen 1
▁Japan 1
▁Seit 1
▁jemandem 1
▁Schiff 1
▁Freunden 1
▁App 1
▁Gefühle 1
▁Beine 1
▁Plastik 1
▁below 1
mobil 1
▁lack 1
▁whi 1
▁party 1
▁sequence 1
▁shop 1
why 1
▁nett 1
sweise 1
▁Haben 1
▁herstellen 1
▁endlich 1
▁Atmosphäre 1
▁Schönheit 1
▁Biologie 1
▁zog 1
▁Fenster 1
▁No 1
▁Identität 1
▁remarkable 1
position 1
▁tumor 1
▁driver 1
▁2010 1
▁Städten 1
▁Gewinn 1
▁Dem 1
▁aufregend 1
forschung 1
Oh 1
gegen 1
▁Worten 1
▁Bro 1
▁erkannte 1
jahr 1
▁infrastructure 1
▁vast 1
▁held 1
▁allgemein 1
reichen 1
▁Har 1
▁Etwa 1
▁Inhalt 1
▁Bienen 1
▁directly 1
▁belief 1
▁pig 1
▁sorry 1
gramm 1
▁deutlich 1
▁untersucht 1
zusetzen 1
▁The 1
▁Maß 1
▁Gang 1
▁sample 1
▁coast 1
cla 1
▁nearly 1
▁Solar 1
▁Eigenschaften 1
▁imagination 1
▁condition 1
▁traffic 1
▁engine 1
▁gap 1
itor 1
▁Einkommen 1
eute 1
▁wichtigsten 1
▁Perspektive 1
ließ 1
▁Tri 1
▁Kontakt 1
▁erhielt 1
dauer 1
▁Geschlecht 1
einhalb 1
bon 1
▁rare 1
▁emotions 1
tech 1
▁react 1
▁Mir 1
▁Volk 1
▁steckt 1
▁Bett 1
wachsen 1
▁besucht 1
▁23 1
▁paid 1
▁campaign 1
▁switch 1
▁virus 1
▁ancient 1
▁supply 1
▁causes 1
▁depression 1
minister 1
heben 1
▁Regen 1
▁beobachtet 1
▁politischen 1
▁spät 1
▁folgt 1
bauen 1
volle 1
bruch 1
▁Va 1
▁Web 1
▁core 1
▁gather 1
▁profound 1
▁rational 1
▁2008 1
▁Mach 1
▁existieren 1
▁Karriere 1
▁scientist 1
▁tech 1
▁capacity 1
▁lock 1
▁noticed 1
▁destroy 1
och 1
▁slightly 1
▁99 1
▁programs 1
▁erfunden 1
▁natürliche 1
▁wesentlich 1
▁Post 1
▁traditionelle 1
▁kämpfen 1
▁eigenes 1
nahmen 1
verständlich 1
▁nigeria 1
▁argue 1
▁aid 1
▁published 1
▁satellite 1
wood 1
source 1
▁Ahnung 1
▁Sin 1
▁Schwarz 1
▁kostet 1
▁instrument 1
▁highly 1
grad 1
▁Tieren 1
▁lautet 1
werte 1
▁replace 1
▁california 1
▁funny 1
park 1
▁combine 1
▁blog 1
▁technique 1
▁Begriff 1
▁amerikanische 1
▁Kreativität 1
Wenn 1
möglich 1
▁joy 1
▁damage 1
▁surprising 1
▁tax 1
▁dein 1
▁feature 1
▁tissue 1
▁geh 1
▁identity 1
▁fuhr 1
Mail 1
issen 1
▁leiden 1
▁Welche 1
▁oxygen 1
gar 1
▁dying 1
▁aware 1
▁differently 1
▁differences 1
▁interpret 1
▁geb 1
▁langen 1
hängen 1
liebe 1
▁frühen 1
gelassen 1
Nein 1
▁Motor 1
▁Gesetze 1
▁Gute 1
▁legt 1
▁Knochen 1
▁graduate 1
▁desire 1
▁grab 1
▁husband 1
▁refugee 1
decke 1
fahrt 1
▁billig 1
▁ebenfalls 1
▁Glas 1
isierte 1
▁spreche 1
▁easier 1
kin 1
▁helping 1
▁magazine 1
▁Produkte 1
▁gebe 1
▁fehl 1
▁nötig 1
▁Anti 1
hafte 1
▁trotz 1
▁shock 1
▁occur 1
▁photos 1
▁chair 1
▁Kohle 1
▁verw 1
▁brauchte 1
▁Tumor 1
▁seien 1
▁Dort 1
▁Zustand 1
sätze 1
▁equal 1
▁dynamic 1
▁commercial 1
▁$ 1
▁medi 1
▁promise 1
▁surgery 1
▁border 1
▁ear 1
▁sentence 1
▁Tausende 1
▁trifft 1
▁unabhängig 1
▁Stil 1
▁Geheimnis 1
▁einzigartig 1
▁Position 1
▁Osten 1
▁forces 1
▁farmers 1
▁gotten 1
▁ski 1
▁court 1
ological 1
▁sharing 1
awa 1
alter 1
schauen 1
industrie 1
▁Wirtschafts 1
▁entstehen 1
▁stellten 1
Warum 1
▁Instrument 1
▁Strategie 1
▁Schlag 1
▁Titel 1
▁bag 1
▁justice 1
▁sustainable 1
▁brazil 1
▁played 1
▁mach 1
▁gilt 1
▁Einsatz 1
▁Intelligenz 1
▁öffnen 1
term 1
▁addition 1
▁responsibility 1
▁fill 1
uff 1
▁king 1
▁balance 1
▁Wandel 1
▁Todes 1
▁ermöglichen 1
▁High 1
ziehung 1
▁Unterschiede 1
▁attract 1
▁weird 1
▁experiments 1
▁0 1
▁weiterhin 1
▁ursprünglich 1
▁Steuer 1
▁sogenannte 1
▁Wohn 1
nimmt 1
▁avoid 1
▁continent 1
▁tremendous 1
▁religious 1
▁determine 1
▁Sauerstoff 1
▁überrascht 1
liebt 1
▁Ecke 1
▁Träume 1
▁Schreib 1
▁Lied 1
▁afghanistan 1
▁recover 1
▁diversity 1
▁members 1
▁hang 1
▁streets 1
▁metaphor 1
▁darf 1
▁Lang 1
▁riesigen 1
▁Gegend 1
▁Geschwindigkeit 1
▁Ansicht 1
▁Müll 1
▁fühle 1
▁Protein 1
▁twice 1
▁desert 1
▁remove 1
▁dreams 1
▁iran 1
▁Farben 1
▁Bildschirm 1
Q 1
▁Miss 1
▁consumer 1
▁engage 1
▁component 1
▁era 1
dding 1
▁tradition 1
av 1
▁networks 1
▁classroom 1
anthrop 1
raub 1
▁Insel 1
▁Anwendung 1
▁fangen 1
▁Hä 1
maß 1
▁Standard 1
▁West 1
bildung 1
▁kontrollieren 1
▁überzeugen 1
▁bought 1
▁ultimately 1
▁evolved 1
▁whale 1
▁entirely 1
statt 1
▁Afghanistan 1
▁Pri 1
▁gegangen 1
▁vermutlich 1
▁moralische 1
▁Aufnahme 1
▁Kein 1
▁easily 1
▁fully 1
▁hearing 1
▁invent 1
▁ke 1
look 1
▁produced 1
▁asia 1
▁studying 1
station 1
▁divide 1
▁relevant 1
spiegel 1
▁Gewicht 1
istische 1
▁gaben 1
▁faszinierend 1
▁Zeichen 1
fassung 1
▁Forschungs 1
zogen 1
körper 1
▁afrikanische 1
▁basis 1
▁root 1
▁missing 1
▁sector 1
▁host 1
▁definition 1
▁engineer 1
▁opposite 1
▁stone 1
bat 1
win 1
▁facebook 1
▁entscheidend 1
▁Kunden 1
▁Waffen 1
▁reagieren 1
▁Vogel 1
▁normale 1
▁enable 1
▁russia 1
tage 1
▁tausend 1
führ 1
▁heiß 1
▁wunderbare 1
▁beeinflussen 1
kräfte 1
▁Ausdruck 1
▁Großbritannien 1
▁Facebook 1
▁scene 1
▁flight 1
hil 1
▁muscle 1
▁gender 1
▁yellow 1
▁enorm 1
dan 1
▁begeistert 1
▁Infrastruktur 1
länder 1
würdig 1
▁Ansatz 1
▁überzeugt 1
▁Vielfalt 1
▁Ausbildung 1
▁quote 1
▁civilization 1
▁article 1
▁Verkehr 1
▁Temperatur 1
▁schien 1
▁Lebensmittel 1
▁Häuser 1
▁Sha 1
▁Materialien 1
▁investment 1
▁bottle 1
cop 1
▁strength 1
▁focused 1
▁band 1
▁prior 1
▁monkey 1
material 1
▁Landschaft 1
▁Zweitens 1
▁Richtig 1
▁betrifft 1
▁blieb 1
▁Operation 1
▁Phänomen 1
▁roof 1
▁designers 1
▁notion 1
▁suit 1
▁correct 1
▁10,000 1
▁application 1
technologie 1
miss 1
tiere 1
▁Durchschnitt 1
▁herzustellen 1
▁Werkzeuge 1
▁heran 1
▁aufgenommen 1
▁begonnen 1
▁kalt 1
▁angefangen 1
The 1
▁Port 1
▁Si 1
▁fragten 1
▁Mütter 1
▁cycle 1
ontin 1
▁workers 1
▁encourage 1
▁nations 1
▁molecules 1
▁grade 1
▁crime 1
▁Brief 1
▁Verfügung 1
▁notwendig 1
gericht 1
▁Gedicht 1
▁Depression 1
▁Mehr 1
▁Verbindungen 1
▁Einzel 1
▁blow 1
▁plane 1
▁inspired 1
▁tough 1
▁broad 1
▁election 1
▁australia 1
zimmer 1
▁Holz 1
▁Den 1
▁Erzähl 1
▁Unterstützung 1
▁Nie 1
▁lustig 1
▁entlang 1
▁Haar 1
ografie 1
▁verdienen 1
▁Babys 1
▁tap 1
▁drawing 1
▁crowd 1
▁claim 1
▁suffering 1
matic 1
run 1
▁erwähnt 1
▁Statistik 1
unternehmen 1
▁dagegen 1
▁alleine 1
▁Gesellschaften 1
▁Würde 1
▁degrees 1
▁27 1
▁background 1
▁van 1
▁universal 1
▁gun 1
life 1
▁outcome 1
▁iraq 1
▁psycho 1
▁date 1
▁eating 1
far 1
abel 1
▁bitten 1
▁nützlich 1
▁handeln 1
▁erstellen 1
▁davor 1
▁erstellt 1
▁verbracht 1
▁Schuld 1
▁Boot 1
▁kulturelle 1
▁importantly 1
▁foreign 1
▁apple 1
that 1
▁regular 1
weil 1
▁smell 1
▁fiel 1
▁sorgen 1
▁benötigen 1
▁Massen 1
▁buchstäblich 1
▁Produktion 1
▁Rand 1
▁passen 1
förder 1
▁Psycho 1
▁steigen 1
fällig 1
▁Filme 1
▁Mess 1
▁chain 1
▁efficient 1
▁victim 1
▁israel 1
ugg 1
▁leadership 1
▁chose 1
▁tue 1
▁reaction 1
▁consciousness 1
▁meist 1
▁größeren 1
▁entwickelten 1
▁Wohl 1
▁dritten 1
▁Effekt 1
▁forever 1
▁devices 1
▁passed 1
▁immun 1
▁hurt 1
▁Folgen 1
▁technische 1
breite 1
geführt 1
Pa 1
▁Link 1
▁dorthin 1
▁Pol 1
▁entschied 1
▁klingt 1
An 1
▁Hai 1
▁spending 1
this 1
▁opportunities 1
tete 1
mpel 1
▁Zusammenhang 1
▁Fernseh 1
▁Unternehmer 1
▁Rot 1
länge 1
▁Sonnen 1
▁beschreiben 1
▁Neuronen 1
▁stabil 1
▁spirit 1
▁stem 1
▁garden 1
oxi 1
▁direct 1
these 1
ngu 1
amp 1
▁Hinter 1
▁starke 1
▁durchgeführt 1
▁Band 1
wunder 1
bewegung 1
teile 1
▁Drittel 1
▁typisch 1
▁chinesische 1
▁lucky 1
▁radical 1
▁remote 1
▁nehme 1
▁wohin 1
▁Organisationen 1
dienst 1
▁Wahrnehmung 1
▁Pflege 1
▁european 1
▁operation 1
▁estimate 1
itz 1
▁rap 1
stab 1
schluss 1
▁Basis 1
▁Großteil 1
▁Rad 1
▁entsteht 1
▁elektrische 1
handlung 1
Du 1
▁coffee 1
▁zone 1
▁adopt 1
▁irre 1
▁prize 1
▁twitter 1
▁Zusammenarbeit 1
▁Politiker 1
▁Diskussion 1
▁Reg 1
▁Militär 1
▁erforschen 1
▁basiert 1
▁stolz 1
▁Zeitung 1
▁Kann 1
▁complexity 1
▁mode 1
▁david 1
▁mr 1
▁score 1
▁reward 1
▁flat 1
▁bird 1
zel 1
▁investieren 1
▁gestalten 1
▁Untersuchung 1
▁Zentrum 1
liegen 1
▁Qualität 1
▁neuer 1
▁Virus 1
▁unbedingt 1
▁Verlust 1
▁Loch 1
ulate 1
▁fashion 1
▁bright 1
▁ring 1
▁parent 1
▁600 1
hood 1
▁passt 1
▁Bauern 1
▁voran 1
▁Bedingungen 1
Co 1
▁Satz 1
▁Niemand 1
fluss 1
▁ähnliche 1
▁deeply 1
▁contact 1
▁faith 1
▁unlike 1
▁hunt 1
▁breast 1
▁employ 1
zelle 1
▁Weiß 1
holen 1
hrung 1
▁Vision 1
istisch 1
▁nochmal 1
▁inspiriert 1
▁stecken 1
▁leer 1
▁Ganze 1
stimme 1
▁Objekte 1
ologen 1
▁wuchs 1
wirken 1
▁honor 1
▁figured 1
▁possibility 1
▁aids 1
▁surprise 1
▁architect 1
▁65 1
point 1
▁turning 1
▁electronic 1
▁identify 1
ütze 1
Der 1
schlüsse 1
La 1
▁Faktor 1
▁kommunizieren 1
▁otherwise 1
▁competition 1
▁fold 1
▁teenage 1
▁talent 1
▁suffer 1
▁coal 1
▁wander 1
fern 1
▁David 1
▁kurze 1
▁Museum 1
▁Fach 1
▁Aufgaben 1
Pro 1
▁umgehen 1
bereich 1
▁Typen 1
▁Folge 1
▁absolute 1
▁innovative 1
▁raised 1
based 1
▁platform 1
▁previous 1
▁relativ 1
▁2007 1
▁Erst 1
▁bezahlt 1
▁verfügbar 1
▁dahin 1
funktion 1
▁kümmern 1
▁Komplexität 1
▁Grün 1
steigen 1
▁Institutionen 1
▁technical 1
▁clever 1
▁solid 1
▁novel 1
head 1
▁flower 1
▁disorder 1
zwischen 1
▁krank 1
zusehen 1
▁Stoff 1
▁truck 1
▁crash 1
▁stuck 1
town 1
▁adults 1
▁ecosystem 1
▁1980 1
wick 1
▁bemerkenswert 1
▁Spielen 1
▁Gegenteil 1
▁Mode 1
tauchen 1
▁reicht 1
▁Ziele 1
▁Sekunde 1
▁epi 1
▁1,000 1
▁adult 1
tail 1
▁element 1
▁cave 1
▁strategy 1
▁plus 1
▁meters 1
▁dinosaur 1
▁Konferenz 1
quelle 1
▁erlauben 1
▁Fliege 1
▁Gesch 1
▁Viel 1
▁Wunsch 1
▁Zuerst 1
zugeben 1
▁westliche 1
▁exercise 1
rc 1
▁log 1
oli 1
▁marriage 1
▁suchte 1
treffen 1
▁halbe 1
▁Insekten 1
▁City 1
▁stärker 1
▁erhält 1
▁zerstört 1
▁Vögel 1
▁Fernsehen 1
vision 1
▁mouth 1
▁believed 1
illion 1
▁drag 1
▁mechanism 1
▁leider 1
▁Radio 1
▁dieselbe 1
schlagen 1
▁Architekt 1
▁gegenseitig 1
▁Gewebe 1
▁Stärke 1
▁Tasche 1
▁visuelle 1
▁Bruder 1
▁writer 1
▁tick 1
▁trend 1
atom 1
▁advantage 1
▁stranger 1
▁dran 1
▁Paar 1
▁Kontinent 1
▁Keine 1
▁Karten 1
▁leid 1
▁Fällen 1
kultur 1
▁Experten 1
▁engineers 1
▁particles 1
▁responsible 1
▁flo 1
▁french 1
▁creatures 1
▁prefer 1
▁expression 1
stream 1
▁graph 1
▁motion 1
▁dürfen 1
▁wächst 1
▁hängt 1
▁bestimmen 1
▁Professor 1
▁Stand 1
▁Brot 1
▁auseinander 1
▁getötet 1
▁majority 1
▁counter 1
aft 1
▁multiple 1
▁journalist 1
rechnung 1
gegangen 1
▁bezahlen 1
▁Mitglied 1
▁Code 1
▁Sein 1
schied 1
bewusst 1
▁Materie 1
▁geschafft 1
▁debate 1
▁snow 1
▁pin 1
▁hyper 1
▁proud 1
▁elements 1
ou 1
▁sink 1
▁übertragen 1
▁überraschend 1
▁gewöhnlich 1
halte 1
▁Krise 1
erfolg 1
▁Lern 1
▁versteckt 1
▁repeat 1
▁discovery 1
▁quiet 1
▁necessarily 1
ook 1
▁according 1
▁dress 1
▁1990 1
therapie 1
▁lieber 1
▁Bill 1
▁wichtigste 1
▁Bra 1
▁Jungs 1
fläche 1
stimmt 1
▁Golf 1
krebs 1
▁persönliche 1
▁opened 1
▁leading 1
▁monitor 1
▁fairly 1
▁bubble 1
▁Außerdem 1
geber 1
▁verantwortlich 1
▁effizient 1
▁Resultat 1
▁genetisch 1
▁Ökosystem 1
▁scheinen 1
▁Tradition 1
▁Irak 1
▁sugar 1
▁cartoon 1
▁finish 1
▁hohen 1
▁Zucker 1
▁herausgefunden 1
menge 1
linie 1
aktion 1
▁außerdem 1
▁College 1
▁gewonnen 1
▁frage 1
▁airplane 1
▁click 1
▁compared 1
grade 1
▁holding 1
▁battle 1
amme 1
▁halte 1
sichtlich 1
▁Kindheit 1
▁bieten 1
▁Geräte 1
▁usw 1
▁einsetzen 1
▁Online 1
▁Symbol 1
▁boo 1
▁vent 1
▁opinion 1
▁department 1
▁childhood 1
witz 1
▁survey 1
▁blu 1
▁aktuelle 1
▁Heimat 1
spielen 1
▁Stimmen 1
▁fragt 1
▁gelangen 1
▁bedeutend 1
speicher 1
ießen 1
wirkung 1
▁Fünf 1
▁physische 1
▁attempt 1
▁extend 1
▁horse 1
▁stream 1
▁weak 1
▁received 1
cha 1
▁church 1
▁Grundlage 1
▁Kurs 1
▁Sorgen 1
▁Erfindung 1
▁letztendlich 1
▁Einfach 1
schritt 1
▁Hintergrund 1
Da 1
▁Bitte 1
▁Soldaten 1
▁dinner 1
▁earn 1
▁creation 1
▁independent 1
▁mad 1
gon 1
▁kenya 1
room 1
▁flag 1
▁Kräfte 1
projekt 1
▁wiederum 1
▁tausende 1
▁wartet 1
▁Ost 1
leuchten 1
anlage 1
führt 1
▁Fest 1
▁lay 1
▁poem 1
tti 1
▁failed 1
ooper 1
▁fern 1
lia 1
▁rief 1
▁sicherlich 1
▁Seele 1
▁besitzen 1
▁Tom 1
antwort 1
▁Fläche 1
▁Blog 1
▁Beweis 1
▁Küste 1
▁comment 1
▁restaurant 1
▁trained 1
50 1
▁harder 1
▁studied 1
▁concentrat 1
figur 1
▁nah 1
▁weiss 1
rechnen 1
▁Gericht 1
▁verbessert 1
fähigkeit 1
▁Milliarde 1
▁vollkommen 1
▁geführt 1
▁Obwohl 1
▁drehen 1
▁Ameisen 1
Gesundheitswesen 1
▁necessary 1
▁phenomenon 1
▁hopefully 1
▁interface 1
▁economist 1
▁succeed 1
lag 1
▁wahre 1
▁Nutzen 1
jährigen 1
▁Pass 1
▁sitzt 1
▁versuchten 1
▁Bildern 1
▁lebende 1
▁Kontext 1
▁Einheit 1
ologische 1
▁interagieren 1
▁kürzlich 1
ichen 1
▁unless 1
▁constantly 1
▁weapons 1
▁typical 1
zone 1
lösung 1
▁verwandeln 1
▁traurig 1
▁gäbe 1
▁töten 1
▁Folgendes 1
▁zukünftige 1
für 1
▁Laufe 1
▁Gründen 1
Ha 1
▁Augenblick 1
▁Interaktion 1
▁construct 1
▁fighting 1
▁belong 1
▁2005 1
ata 1
▁location 1
▁clinic 1
▁Kohlenstoff 1
▁arbeiteten 1
▁Kalifornien 1
gründe 1
▁Denk 1
▁mindestens 1
▁sozusagen 1
▁unsichtbar 1
▁konzentriert 1
▁Prä 1
▁Mc 1
▁Außen 1
▁Einstellung 1
labor 1
▁conduct 1
▁sto 1
▁volunteer 1
▁lunch 1
▁sudden 1
▁insight 1
▁mc 1
▁slowly 1
▁channel 1
▁odd 1
▁leaving 1
▁reef 1
▁rechten 1
▁sichtbar 1
▁AIDS 1
▁Themen 1
▁Wüste 1
▁entwerfen 1
▁habt 1
▁vertraut 1
▁hauptsächlich 1
▁Quadrat 1
▁Stress 1
▁fell 1
▁grown 1
▁frame 1
▁empower 1
▁button 1
▁curve 1
▁bread 1
▁caught 1
oma 1
▁2009 1
▁Pra 1
▁Zweck 1
▁Affen 1
▁schaute 1
▁Stamm 1
tiker 1
▁Modelle 1
▁Kaffee 1
▁Freundin 1
▁row 1
▁bull 1
▁invisible 1
▁related 1
▁capable 1
▁1960 1
wind 1
ologists 1
▁researchers 1
▁gay 1
▁british 1
ppel 1
▁erzähle 1
▁Zug 1
▁Mill 1
▁Schrift 1
▁übrig 1
▁Rahmen 1
Le 1
Bahn 1
▁interessieren 1
▁Verstand 1
▁Erklärung 1
▁Strukturen 1
▁Patient 1
60 1
▁worried 1
▁compare 1
▁finished 1
▁malaria 1
▁clinical 1
▁trillion 1
▁perception 1
▁narrative 1
▁assume 1
▁launch 1
▁egg 1
▁egypt 1
▁modernen 1
▁September 1
▁irgendwann 1
▁Malaria 1
▁Sprachen 1
▁erhöht 1
▁Gleiche 1
▁Spiele 1
▁politician 1
▁degree 1
▁reveal 1
▁currently 1
▁described 1
▁bang 1
▁reform 1
▁elephant 1
▁stammt 1
▁verhindern 1
▁Satelliten 1
sätzlich 1
▁chemische 1
üssig 1
▁Bericht 1
▁Stimm 1
▁schließen 1
▁Col 1
cor 1
▁intellectual 1
▁pair 1
▁hy 1
▁metal 1
▁translate 1
▁Masse 1
schläge 1
▁hinweg 1
▁Emotionen 1
▁Wichtig 1
▁Stift 1
▁vorhanden 1
▁Änderung 1
▁Schicht 1
▁grau 1
▁Sehr 1
▁Öffentlichkeit 1
▁Twitter 1
▁everyday 1
▁leader 1
▁intensiv 1
▁followed 1
power 1
▁taste 1
▁wearing 1
▁relative 1
wagen 1
leistung 1
▁Spieler 1
▁schlimmer 1
spruch 1
▁falsche 1
schule 1
schneiden 1
▁Fabrik 1
▁Brust 1
▁fresh 1
▁daily 1
▁jung 1
▁myth 1
▁1970 1
▁guide 1
▁fourth 1
▁treated 1
▁mathematics 1
▁Mitarbeiter 1
reiben 1
▁Tanz 1
gekommen 1
▁X 1
stoß 1
▁Hunger 1
▁Rätsel 1
▁gemein 1
▁verfolgen 1
▁limited 1
▁hill 1
▁cow 1
▁concerned 1
▁operate 1
▁married 1
▁mouse 1
▁electric 1
▁pump 1
▁brown 1
box 1
▁fellow 1
itude 1
▁kosten 1
schaffen 1
▁aufhören 1
▁Gar 1
▁Gedanke 1
schwer 1
gefühl 1
▁Zivilisation 1
▁beschloss 1
▁Landwirtschaft 1
skop 1
▁Zuhause 1
▁folks 1
▁surprised 1
▁grass 1
▁hidden 1
▁round 1
▁kick 1
▁250 1
geschlagen 1
völker 1
▁verwandelt 1
▁Neues 1
▁Ernährung 1
▁werfen 1
▁wertvoll 1
▁Journalist 1
▁Brücke 1
schütz 1
▁logic 1
▁collapse 1
raw 1
▁discussion 1
▁wag 1
water 1
▁conscious 1
state 1
▁exchange 1
▁invited 1
▁refer 1
▁Gemeinden 1
▁Abschluss 1
▁aufbauen 1
▁Mich 1
▁eingesetzt 1
Mo 1
▁Fahrzeug 1
▁Wild 1
▁erscheinen 1
▁Brasilien 1
▁Katze 1
▁dollar 1
▁extinct 1
▁95 1
▁pounds 1
ivity 1
ura 1
Institut 1
systeme 1
▁fördern 1
▁hoffentlich 1
schalten 1
anischen 1
▁selber 1
▁washington 1
cap 1
▁seriously 1
▁fascinating 1
over 1
▁roman 1
▁valley 1
▁tube 1
film 1
▁lau 1
▁dick 1
▁newspaper 1
auto 1
▁hunderte 1
▁Händen 1
▁möglicherweise 1
▁schlechter 1
▁lebte 1
▁studiert 1
▁Website 1
▁tip 1
▁closed 1
▁organic 1
anti 1
▁1950 1
▁smile 1
▁illness 1
▁lung 1
▁watched 1
20 1
kette 1
▁Washington 1
▁Dienst 1
▁Figur 1
▁unterstützt 1
▁teuer 1
▁Höhle 1
▁minister 1
▁highest 1
▁operating 1
▁artificial 1
▁normally 1
▁origin 1
▁transformation 1
ago 1
▁experienced 1
▁wake 1
▁wach 1
lohn 1
produkt 1
stärke 1
grenze 1
▁lebten 1
▁Zimmer 1
gebaut 1
▁Grafik 1
▁bedeuten 1
▁beantworten 1
▁topic 1
▁caused 1
▁perfectly 1
▁versus 1
▁germany 1
▁paying 1
▁attach 1
valu 1
▁comfortable 1
▁robotic 1
▁Meilen 1
▁End 1
▁Seh 1
▁anfing 1
▁Wellen 1
▁Fleisch 1
▁Muskel 1
gänge 1
▁erfinden 1
▁lebendig 1
▁religiöse 1
▁precise 1
▁institute 1
▁chart 1
▁ultra 1
▁equivalent 1
▁trauma 1
▁lift 1
▁ya 1
▁curious 1
litz 1
▁dennoch 1
fragen 1
reise 1
lösen 1
▁verteilt 1
▁Trick 1
▁Handlung 1
▁Stufe 1
▁puzzle 1
▁brief 1
▁safety 1
▁wheel 1
▁contract 1
▁pure 1
▁error 1
▁survival 1
az 1
▁cognitive 1
leiter 1
▁Norm 1
▁Annahme 1
▁Experimente 1
▁unterscheiden 1
▁Maus 1
▁Grenze 1
▁irgendetwas 1
schaftlichen 1
▁Korallen 1
▁mentioned 1
▁invention 1
▁admit 1
▁expected 1
▁businesses 1
▁dry 1
front 1
▁Mai 1
▁Unterhaltung 1
▁entspricht 1
▁stelle 1
muster 1
▁gemeinsame 1
▁vertrauen 1
▁Klang 1
▁organisiert 1
lässig 1
▁Mund 1
▁tiefer 1
▁Hör 1
falte 1
▁Chi 1
▁habit 1
▁28 1
▁laptop 1
▁disaster 1
▁ordinary 1
▁budget 1
▁lady 1
▁collection 1
▁steve 1
▁grandmother 1
▁chip 1
▁tail 1
▁cure 1
▁marine 1
▁command 1
▁öffnet 1
▁Norden 1
▁Gedächtnis 1
pflanzen 1
zukommen 1
▁wundervolle 1
▁existence 1
▁managed 1
▁designing 1
▁stood 1
▁filter 1
▁classic 1
where 1
▁george 1
back 1
▁increasingly 1
▁terrorist 1
▁Erkenntnis 1
▁präsent 1
▁Schnitt 1
▁Armen 1
preis 1
▁gehören 1
▁Mission 1
▁Sitz 1
▁roten 1
▁Erste 1
▁nano 1
▁practical 1
▁paul 1
▁circuit 1
▁prime 1
▁korea 1
▁galaxy 1
▁Restaurant 1
▁Investition 1
▁kennt 1
▁Wettbewerb 1
▁ernsthaft 1
▁Dach 1
▁künstliche 1
▁Fakten 1
▁angesehen 1
läuft 1
stimmung 1
▁Start 1
▁promot 1
▁losing 1
▁shake 1
▁ignore 1
▁wisdom 1
▁filled 1
▁lifetime 1
▁deeper 1
▁equation 1
▁zoom 1
▁liberal 1
freund 1
grab 1
▁reduzieren 1
istischen 1
▁Ausmaß 1
▁schlagen 1
▁Zitat 1
wähl 1
▁Bedürfnisse 1
▁gelesen 1
▁Eigentlich 1
durch 1
▁Absicht 1
▁gehabt 1
ulator 1
▁tomorrow 1
▁analog 1
▁release 1
▁initial 1
▁theater 1
▁meat 1
▁official 1
▁protest 1
▁transition 1
▁display 1
krise 1
▁meiste 1
▁zugänglich 1
Mi 1
▁Dokument 1
▁Steve 1
erkennung 1
▁trug 1
▁Schimpansen 1
▁Spiegel 1
▁England 1
▁ließen 1
▁Teilchen 1
theorie 1
Aber 1
▁Ober 1
▁resource 1
▁quantum 1
▁pray 1
▁encounter 1
▁ride 1
▁picked 1
▁considered 1
▁32 1
▁darwin 1
▁profession 1
▁forced 1
aries 1
▁Partei 1
▁UN 1
▁Vier 1
▁Nachbarn 1
▁vergleichen 1
▁zunächst 1
krankheit 1
▁Minute 1
effekt 1
▁kostenlos 1
▁management 1
▁observe 1
▁planning 1
▁orbit 1
▁homo 1
▁loud 1
▁speaker 1
▁canada 1
▁receive 1
▁26 1
▁schlau 1
▁Euro 1
▁Paul 1
▁besagt 1
bücher 1
▁Lektion 1
▁fehlt 1
▁Dinosaurier 1
▁dealing 1
▁killing 1
▁crack 1
sistent 1
▁contribute 1
▁opening 1
name 1
▁rocket 1
▁Atem 1
▁gehalten 1
▁verdient 1
▁hoffen 1
vermögen 1
▁entworfen 1
▁daß 1
▁Alternative 1
▁verbreiten 1
▁brachten 1
▁Schau 1
▁wieso 1
▁Streit 1
▁Toilette 1
▁Methoden 1
▁Galaxien 1
zentrum 1
ection 1
▁announce 1
▁string 1
▁feedback 1
▁weather 1
▁mirror 1
▁nervous 1
▁wondering 1
▁sweet 1
▁telescope 1
▁stock 1
▁advance 1
▁Doktor 1
plätze 1
▁inspirieren 1
kosten 1
▁Zell 1
▁Kerl 1
getragen 1
▁Innen 1
▁Wirkung 1
▁Trend 1
▁linken 1
▁Hinweis 1
▁Fu 1
▁Iran 1
▁judge 1
▁shut 1
▁tall 1
▁emotion 1
▁vaccine 1
▁load 1
▁orange 1
▁factory 1
▁chicken 1
▁hide 1
▁drin 1
▁Nigeria 1
▁definieren 1
▁gewählt 1
▁Katastrophe 1
▁Definition 1
▁nachhaltige 1
▁trägt 1
▁wunderschön 1
▁Garten 1
▁Feind 1
▁könnt 1
▁Metapher 1
sphäre 1
▁concern 1
▁involve 1
▁director 1
▁awful 1
▁maintain 1
▁2004 1
hey 1
▁hip 1
kar 1
▁embrace 1
maker 1
▁abuse 1
▁stupid 1
▁pill 1
▁bias 1
▁lawyer 1
▁electrical 1
▁fiction 1
▁polar 1
masse 1
▁doubt 1
▁[" 1
▁Ökonom 1
▁fähig 1
durchschnittlich 1
▁Jemand 1
▁fasziniert 1
▁echten 1
▁Linien 1
▁Beweise 1
aktiv 1
▁exact 1
▁accurate 1
▁silence 1
▁users 1
▁associated 1
▁empty 1
▁credit 1
▁member 1
▁Wohlstand 1
▁geändert 1
▁hergestellt 1
▁Zeitalter 1
heiratet 1
▁berühmt 1
▁allerdings 1
▁Null 1
▁Kranken 1
▁entgegen 1
▁heavy 1
▁buck 1
▁review 1
▁yesterday 1
▁120 1
▁tape 1
▁distribution 1
▁dumm 1
▁congress 1
▁empathy 1
▁Haufen 1
▁Gegensatz 1
▁erstaunliche 1
▁automatisch 1
▁beschlossen 1
▁Nationen 1
▁Summe 1
▁Chirurg 1
schrieb 1
haben 1
▁Klinik 1
▁facing 1
▁setting 1
▁testing 1
▁specifically 1
house 1
▁vessel 1
▁ethic 1
▁peak 1
iness 1
▁galaxies 1
▁symptom 1
▁establish 1
▁brauche 1
▁Nation 1
gebildet 1
▁Laut 1
▁Existenz 1
▁breite 1
▁Hinsicht 1
▁Gestalt 1
▁Australien 1
▁verbrachte 1
▁Kirche 1
▁Medikament 1
friend 1
▁kilometers 1
▁pocket 1
▁courage 1
▁essential 1
▁publish 1
▁clip 1
▁pleasure 1
team 1
▁launched 1
▁permanent 1
▁agriculture 1
▁addict 1
▁season 1
print 1
▁perfekte 1
▁entstanden 1
▁Riesen 1
▁Dimension 1
▁schickte 1
Nun 1
möglichkeiten 1
▁Viertel 1
ächte 1
▁Seine 1
▁Pferd 1
▁verschwinden 1
▁Lager 1
▁Moleküle 1
▁Schalt 1
▁Kreuz 1
▁erkennt 1
▁zentrale 1
▁Gesichter 1
▁Schatten 1
▁vermute 1
▁Verhältnis 1
▁Phase 1
▁Küche 1
▁rural 1
▁advanced 1
▁democratic 1
▁arrived 1
▁construction 1
▁85 1
▁epidemic 1
ographie 1
▁Umfeld 1
▁Weltraum 1
▁komisch 1
▁lernt 1
▁körperlich 1
▁Straf 1
▁analysis 1
▁army 1
▁spider 1
▁harvard 1
▁tele 1
▁2,000 1
▁flip 1
▁poet 1
feuer 1
▁leichter 1
▁begrenzt 1
▁Diagramm 1
▁abhängig 1
▁weibliche 1
▁zahlen 1
▁Laptop 1
▁berührt 1
▁Helden 1
räume 1
▁zunehmend 1
▁Folie 1
▁annehmen 1
▁Argument 1
hof 1
▁combination 1
▁extract 1
▁mathematical 1
▁mono 1
▁broke 1
▁instant 1
▁peer 1
▁shame 1
▁variety 1
▁saved 1
▁vulnerable 1
▁underneath 1
▁Kapital 1
▁bildet 1
▁Nachde 1
▁Acht 1
haltung 1
▁Hunderte 1
▁virtuelle 1
▁solch 1
▁George 1
technik 1
▁Geschenk 1
▁Schwierigkeiten 1
Ü 1
▁verschieden 1
▁dramatisch 1
▁skill 1
▁100,000 1
▁equipment 1
▁scared 1
▁replica 1
aufnahme 1
▁enorme 1
▁Gesamt 1
▁Gib 1
▁anwenden 1
▁nieder 1
fertig 1
▁studieren 1
▁Reich 1
▁Individuen 1
▁gelb 1
▁Kleidung 1
▁liebte 1
züge 1
gibt 1
▁Märkte 1
▁regard 1
▁label 1
▁consumption 1
▁evil 1
▁reject 1
▁gestern 1
▁Auswahl 1
▁deswegen 1
▁Köpfe 1
▁Eindruck 1
▁Erwachsene 1
▁Such 1
▁Molekül 1
streit 1
▁Laden 1
▁zusätzliche 1
▁corruption 1
down 1
▁height 1
▁fortunate 1
▁property 1
▁journal 1
spring 1
▁britain 1
▁protection 1
▁occasion 1
▁relation 1
haltig 1
▁Korruption 1
Na 1
werfen 1
▁Erlebnis 1
▁gründete 1
▁irgend 1
▁celebrate 1
▁worldwide 1
uh 1
▁joke 1
▁covered 1
▁southern 1
▁gang 1
▁danger 1
frau 1
▁fängt 1
versorgung 1
▁äußerst 1
▁gebraucht 1
▁geschickt 1
▁jährlich 1
▁vorne 1
schreiben 1
▁teure 1
▁beinahe 1
▁10.000 1
▁Besuch 1
▁Stattdessen 1
losigkeit 1
▁radikal 1
▁Ursache 1
▁mont 1
▁pole 1
▁roughly 1
▁processes 1
▁status 1
▁liquid 1
▁milk 1
▁transparent 1
kunde 1
▁klug 1
▁Anteil 1
▁Kombination 1
▁Wohnung 1
▁Organismen 1
▁erscheint 1
▁Erwachsenen 1
▁Persönlichkeit 1
▁ergibt 1
▁Bauch 1
▁Harvard 1
hielt 1
▁heißen 1
ridge 1
▁assumption 1
▁parallel 1
▁discuss 1
▁studio 1
▁distinct 1
▁importance 1
▁possibilities 1
▁molecule 1
spend 1
▁spannend 1
▁gestorben 1
▁akzeptieren 1
▁Zwischen 1
▁Besitz 1
▁Zuschauer 1
artikel 1
▁Wälder 1
▁Elemente 1
▁beliebt 1
▁Güte 1
▁beinhaltet 1
▁eindeutig 1
organisation 1
scale 1
▁implement 1
▁volume 1
▁relatively 1
▁participate 1
load 1
▁grid 1
▁rob 1
▁england 1
▁poetry 1
▁increasing 1
▁plate 1
▁abstract 1
▁march 1
▁preserv 1
▁gdp 1
▁2006 1
▁Juli 1
▁Elektrizität 1
▁dauern 1
▁Anruf 1
fahrer 1
▁Fälle 1
▁Lebewesen 1
▁Kanada 1
▁Prototyp 1
▁prä 1
▁Islam 1
▁Kenia 1
▁Sprech 1
▁reagiert 1
▁appreciate 1
▁handle 1
▁tribe 1
▁kitchen 1
▁manipulat 1
view 1
▁valuable 1
▁german 1
▁surgeon 1
ffizi 1
▁antwortete 1
▁Aussage 1
▁Räume 1
▁grundsätzlich 1
▁Privat 1
▁definiert 1
▁Webseite 1
▁umgeben 1
▁Israel 1
▁kaufte 1
▁Hilfs 1
▁Fels 1
▁üblich 1
▁Patent 1
▁Zauber 1
▁Multi 1
▁Vorfahren 1
▁warming 1
▁conservation 1
▁title 1
▁mammal 1
▁grad 1
▁convert 1
▁mexico 1
ibility 1
▁kar 1
▁dots 1
schränkung 1
flug 1
▁Schaf 1
▁zerstören 1
▁Sogar 1
▁besorgt 1
▁versteht 1
▁doppelt 1
arbeiter 1
▁Tonnen 1
▁entfernen 1
▁ungewöhnlich 1
▁Gerechtigkeit 1
▁chimpanzee 1
▁carefully 1
verbrauch 1
▁beschäftigen 1
▁aufzubauen 1
ermaßen 1
▁Innere 1
▁Mikroben 1
▁Kilo 1
▁individuelle 1
▁verbindet 1
▁Show 1
▁schätzen 1
▁Füße 1
▁cutting 1
▁mac 1
▁exception 1
▁richard 1
▁winter 1
▁witness 1
strategi 1
politik 1
▁solcher 1
▁saubere 1
▁Deutschland 1
▁ruhig 1
▁Buchstaben 1
züglich 1
▁Darstellung 1
zuhalten 1
▁entstand 1
▁Milch 1
▁Entfernung 1
40 1
aving 1
▁northern 1
▁hotel 1
▁japanese 1
▁whereas 1
▁chemistry 1
▁dimensions 1
▁consume 1
▁bike 1
till 1
▁sight 1
▁toilet 1
▁activities 1
▁Brennstoff 1
▁MIT 1
▁gelöst 1
▁steigt 1
▁darstellen 1
▁Szene 1
▁School 1
zwei 1
▁Roman 1
▁sexuelle 1
leiten 1
▁stattdessen 1
ville 1
▁historical 1
▁transportation 1
▁rapidly 1
▁quarter 1
▁infection 1
▁transfer 1
▁36 1
▁steel 1
▁generally 1
▁mention 1
▁academic 1
face 1
fusion 1
▁pakistan 1
▁healthcare 1
▁exam 1
▁dolphin 1
ologe 1
▁vermitteln 1
▁kurzem 1
▁darunter 1
▁Quanten 1
▁Irgendw 1
bringt 1
▁zählen 1
▁Theater 1
wissenschaftlich 1
▁Chemie 1
▁gewaltige 1
streben 1
wissenschaftler 1
▁Leider 1
▁fruit 1
▁emissions 1
▁grain 1
▁crop 1
▁firm 1
▁added 1
▁shall 1
▁cast 1
▁absorb 1
▁francisco 1
▁internal 1
foot 1
▁suppose 1
▁quasi 1
▁außen 1
wissen 1
▁mittlere 1
▁Damals 1
▁Kurve 1
▁kontrolliert 1
waffe 1
▁Teilnehmer 1
▁Interview 1
▁microbes 1
▁comfort 1
▁panel 1
▁habitat 1
▁pulled 1
▁mystery 1
▁lake 1
greg 1
▁definitely 1
will 1
▁criminal 1
▁demonstrate 1
▁incentive 1
▁battery 1
anne 1
▁Ereignisse 1
▁Nase 1
▁Risiken 1
▁Richard 1
▁ersetzen 1
Sequenz 1
▁Times 1
▁Plattform 1
▁Großmutter 1
▁Löcher 1
▁Wieso 1
▁besuchen 1
▁statement 1
▁cup 1
▁union 1
half 1
▁convinced 1
▁frank 1
▁decline 1
▁christian 1
▁physicist 1
▁33 1
▁rum 1
▁langfristig 1
▁Ausnahme 1
sländern 1
▁Sub 1
▁Hotel 1
▁Element 1
▁schlafen 1
▁Schaden 1
▁verfolgt 1
oberfläche 1
hütte 1
▁schwimmen 1
▁illustrat 1
▁affected 1
▁2001 1
▁nasa 1
▁inspiration 1
▁presentation 1
▁club 1
▁employees 1
▁mechanical 1
▁typically 1
▁client 1
▁relate 1
▁silk 1
▁opera 1
▁organized 1
▁released 1
80 1
▁prototype 1
▁molecular 1
▁route 1
▁Mehrheit 1
▁unbekannt 1
▁tötet 1
▁Sprach 1
träger 1
▁männliche 1
▁unendlich 1
▁Nano 1
▁Einstein 1
trägt 1
▁Flüchtlinge 1
▁Maßstab 1
▁length 1
▁introduce 1
▁effectively 1
▁conclusion 1
▁section 1
▁gravity 1
▁guard 1
philosoph 1
▁perceive 1
▁Farm 1
▁vermeiden 1
▁Debatte 1
gesellschaft 1
▁finanzielle 1
▁Zahn 1
▁Wetter 1
klasse 1
▁klinische 1
▁Blau 1
▁bush 1
▁critic 1
▁explanation 1
▁jail 1
▁Witz 1
▁Allgemein 1
▁Abfall 1
▁Betrieb 1
▁zusammenarbeite 1
▁Komponente 1
▁Strahl 1
▁Winter 1
▁überwinden 1
seitige 1
▁Zufall 1
schleunig 1
▁Darum 1
▁Südafrika 1
▁Moral 1
▁severe 1
▁prepared 1
▁fundamentally 1
▁radiation 1
▁par 1
▁psychological 1
stone 1
▁flies 1
▁educate 1
▁thin 1
▁alien 1
▁introduced 1
▁2011 1
▁rescue 1
▁Koch 1
schieben 1
▁liefern 1
▁gelebt 1
▁drüben 1
▁Stock 1
▁Planet 1
▁höre 1
▁Wechsel 1
▁bezeichnet 1
▁Tee 1
Al 1
▁Gleichung 1
▁Aktion 1
▁meaningful 1
▁script 1
▁privilege 1
▁physically 1
worm 1
▁swim 1
▁autism 1
▁pink 1
▁passionate 1
▁dank 1
▁zieht 1
gewicht 1
▁Teenager 1
dreht 1
▁leiten 1
▁Kongress 1
▁Mil 1
▁Darwin 1
▁klassische 1
▁Diagnose 1
▁Unterricht 1
▁technological 1
▁compete 1
▁engaged 1
▁amazon 1
▁queen 1
▁shadow 1
▁boom 1
▁spectrum 1
opho 1
▁privacy 1
▁steuern 1
▁Zehn 1
▁verhalten 1
▁Viren 1
leitung 1
▁heilen 1
▁scheinbar 1
▁schwach 1
lässt 1
▁mathematische 1
▁Brit 1
▁Schulter 1
gesellschaftlich 1
▁advice 1
▁finance 1
▁prediction 1
▁diver 1
▁apartment 1
▁elegant 1
▁properties 1
▁jack 1
▁barrier 1
▁teeth 1
▁2012 1
▁distribute 1
▁sphere 1
▁settle 1
▁schwarz 1
ierbar 1
▁Fahrrad 1
▁gebeten 1
▁erweitern 1
ücken 1
▁empfinde 1
geworfen 1
▁Rasse 1
▁Spezial 1
kleid 1
▁Echtzeit 1
▁Könnte 1
▁republic 1
▁dish 1
▁propose 1
▁rip 1
▁700 1
▁mile 1
▁library 1
▁appropriate 1
▁aggressiv 1
▁flog 1
▁deserve 1
▁penguin 1
▁Ruf 1
▁bietet 1
▁gegründet 1
▁Neben 1
matisch 1
▁Jugendliche 1
▁Immer 1
▁Option 1
▁Geistes 1
▁Francisco 1
▁Flasche 1
▁endet 1
▁aufgebaut 1
▁jünger 1
▁2003 1
▁acid 1
▁phrase 1
▁circumstance 1
▁rush 1
▁robust 1
▁naturally 1
▁emerging 1
▁primary 1
▁NASA 1
schiff 1
▁Dutzend 1
▁darstellt 1
▁erschien 1
▁erfuhr 1
▁sammelt 1
▁durfte 1
fühle 1
größe 1
▁gefangen 1
▁gewann 1
▁verstehe 1
▁britische 1
▁Training 1
▁terrorism 1
▁pilot 1
▁producing 1
▁escape 1
▁lecture 1
▁illusion 1
▁atoms 1
▁implant 1
▁intention 1
level 1
gemacht 1
▁Potential 1
▁Respekt 1
▁Rakete 1
▁Präsentation 1
▁Bedrohung 1
▁Wesentlichen 1
▁hieß 1
▁Überraschung 1
kunft 1
▁Übung 1
▁Bombe 1
▁Therapie 1
▁Literatur 1
▁verletzt 1
▁Werbung 1
▁Gemälde 1
▁Amazon 1
▁übernehmen 1
boden 1
▁Fehl 1
▁langweilig 1
▁mutig 1
▁Billionen 1
▁urge 1
▁accomplish 1
▁harvest 1
▁800 1
shirt 1
▁exploration 1
▁confront 1
▁stretch 1
▁lens 1
flat 1
▁storm 1
audio 1
▁ritual 1
▁exo 1
▁lebe 1
▁sparen 1
▁Ehre 1
▁Kommentar 1
Mein 1
▁Transport 1
▁Angriff 1
▁Ausstellung 1
▁Batterie 1
▁wiederholt 1
▁Student 1
verhalten 1
▁englische 1
▁Blase 1
▁Zweifel 1
bindung 1
▁Weltkrieg 1
amerikanisch 1
▁convince 1
▁clothes 1
▁sculpture 1
▁diverse 1
▁transplant 1
▁therapy 1
▁fake 1
▁lion 1
schmerz 1
▁Kredit 1
▁Heim 1
▁stehe 1
▁verließ 1
▁kreieren 1
▁Mexiko 1
▁vorzustellen 1
▁Anreiz 1
▁geteilt 1
▁kollektive 1
▁limb 1
▁staff 1
making 1
▁busy 1
▁nest 1
▁literature 1
▁musician 1
▁assign 1
profit 1
▁laboratory 1
▁afternoon 1
▁swimming 1
▁youtube 1
gerufen 1
▁Wurzel 1
▁beeindruckend 1
▁Spielzeug 1
▁Russland 1
orientiert 1
▁enthält 1
▁berichtet 1
▁Klar 1
▁antworte 1
▁Metall 1
wohl 1
▁aufgewachsen 1
▁Haushalt 1
▁Schließlich 1
urchschnittliche 1
▁Decke 1
▁Kampagne 1
▁Völker 1
▁Eier 1
▁linear 1
▁agent 1
▁welcome 1
▁clock 1
▁biologist 1
▁strip 1
▁pipe 1
▁confidence 1
▁charles 1
▁constant 1
▁dramatic 1
▁mortality 1
▁brave 1
▁graphic 1
▁eröffnet 1
▁Verbesserung 1
▁Nächste 1
nehmer 1
▁Ohne 1
▁Anführer 1
▁Rezept 1
▁Fast 1
straße 1
▁Ähnlich 1
▁Dafür 1
▁gespielt 1
▁Magazin 1
▁gebrochen 1
▁Charles 1
▁Dritte 1
▁Lücke 1
▁seitdem 1
▁Infektion 1
▁integrate 1
▁brutal 1
▁sophisticated 1
▁evolutionary 1
▁tank 1
▁observation 1
▁flexible 1
▁collaboration 1
▁toxic 1
play 1
▁percentage 1
immer 1
trick 1
▁beteiligt 1
▁gefällt 1
▁Angestellte 1
▁Danach 1
▁DNS 1
▁Stuhl 1
▁wütend 1
▁Spektrum 1
weiß 1
▁Alltag 1
▁verstand 1
▁viruses 1
▁analyze 1
▁awareness 1
▁underwater 1
▁branch 1
▁manufacturing 1
glas 1
▁ladies 1
fish 1
▁drone 1
▁beschrieben 1
ordnung 1
▁fährt 1
▁drauf 1
gewiesen 1
medizin 1
▁löst 1
▁Frank 1
▁bemerken 1
▁Gegenwart 1
▁Flagge 1
▁paris 1
▁disrupt 1
▁bug 1
▁angry 1
▁neural 1
▁chicago 1
▁govern 1
▁reference 1
▁chapter 1
version 1
▁phase 1
▁psychology 1
▁deck 1
▁betroffen 1
▁dahinter 1
▁reduziert 1
▁basierend 1
▁Anstatt 1
▁wünsche 1
▁günstig 1
▁Belohnung 1
▁furchtbar 1
groß 1
ruhe 1
▁merken 1
▁Unfall 1
▁sinnvoll 1
▁erkannt 1
▁wrap 1
▁hoping 1
▁29 1
▁fiber 1
▁spiritual 1
▁nerve 1
▁dropped 1
▁unknown 1
▁Nutzung 1
▁Scham 1
▁kriegen 1
▁psychische 1
▁mochte 1
▁froh 1
▁Weiter 1
▁dunkel 1
▁Klassenzimmer 1
ifiziert 1
▁pollution 1
▁split 1
▁applied 1
▁repair 1
▁infinite 1
▁medium 1
▁plot 1
▁unusual 1
▁predator 1
sahara 1
▁ingredient 1
▁memories 1
▁Bevor 1
▁Zunächst 1
▁Voll 1
▁feststellen 1
▁lediglich 1
▁zählt 1
▁Gro 1
▁Tour 1
▁Schlange 1
▁erwachsen 1
▁Algorithmen 1
▁erneut 1
▁Mio 1
▁SMS 1
▁hydrogen 1
▁bond 1
▁intense 1
ifying 1
▁reverse 1
▁hunger 1
▁michael 1
▁behave 1
▁james 1
▁physician 1
▁challenging 1
▁geistige 1
▁fein 1
▁Dia 1
▁kümmert 1
▁dünn 1
Hey 1
läufe 1
▁trinken 1
▁reisen 1
▁fremd 1
schlaf 1
sammlung 1
▁wachsende 1
▁Blatt 1
▁schuf 1
▁Störung 1
▁Magnet 1
ländische 1
▁Galaxie 1
▁Afrikaner 1
▁Überzeugung 1
▁calculate 1
▁pile 1
▁neither 1
▁license 1
▁hypo 1
▁favor 1
▁romantic 1
technolog 1
▁edit 1
▁style 1
▁potent 1
▁stieg 1
▁birthday 1
▁commun 1
▁eastern 1
studie 1
▁Anderson 1
▁wüsste 1
▁Aufbau 1
▁getrennt 1
▁überlebt 1
▁Rock 1
▁Kabel 1
▁Chemikalien 1
▁tödlich 1
▁Magie 1
▁Spinne 1
▁Sechs 1
▁Chicago 1
▁Geburtstag 1
▁visible 1
▁complain 1
▁bicycle 1
▁instruction 1
▁commitment 1
▁productive 1
▁pour 1
▁latin 1
▁titan 1
▁rhythm 1
▁beibringen 1
▁kaputt 1
Tech 1
▁World 1
liegende 1
▁wechseln 1
▁erforscht 1
wickelt 1
▁Alzheimer 1
▁industrielle 1
▁schlug 1
▁startete 1
gebung 1
▁Deswegen 1
▁sustain 1
▁equally 1
▁attitude 1
▁concrete 1
▁alzheimer 1
▁telephone 1
ckel 1
▁false 1
▁file 1
▁christmas 1
▁Schuhe 1
▁wofür 1
▁investiert 1
▁Presse 1
▁ausgebildet 1
▁besitzt 1
▁Wände 1
▁Potenzial 1
▁dargestellt 1
▁Teufel 1
▁regelmäßig 1
▁Stahl 1
▁Schicksal 1
Also 1
long 1
▁globe 1
,500 1
▁framework 1
▁domestic 1
▁improvement 1
▁struck 1
▁painful 1
▁password 1
▁magnet 1
▁Terrorismus 1
▁Anders 1
▁Nachbarschaft 1
schirm 1
▁Beobachtung 1
▁Michael 1
▁Sterbe 1
▁Verstehen 1
product 1
▁sail 1
▁sunlight 1
motiv 1
▁weigh 1
▁drill 1
▁defense 1
▁editor 1
▁flash 1
▁pregnant 1
liste 1
▁Mangel 1
▁Schnee 1
▁Analyse 1
▁Photo 1
▁Hallo 1
▁erfüllt 1
▁geholfen 1
Scan 1
▁hinunter 1
▁Bibliothek 1
▁erhöhen 1
schließt 1
gewinn 1
▁Führer 1
▁Autismus 1
trauen 1
▁Pinguin 1
▁BG 1
▁3,000 1
▁steal 1
▁5,000 1
▁pacific 1
▁commit 1
▁violent 1
▁france 1
▁pitch 1
▁cortex 1
▁computation 1
▁retire 1
▁lying 1
▁historische 1
gesetz 1
▁ansieht 1
▁Mobil 1
▁vorsichtig 1
▁knapp 1
▁grundlegend 1
gelöst 1
▁James 1
▁beispielsweise 1
▁drücken 1
▁dynamisch 1
▁Ohren 1
▁Zähne 1
▁Antibiotika 1
▁unterrichten 1
▁Pfund 1
▁Verbrechen 1
▁anderson 1
▁ought 1
▁smoke 1
▁nick 1
▁narrow 1
▁trigger 1
▁scratch 1
▁nowhere 1
▁intervention 1
▁suck 1
▁humor 1
▁grandfather 1
▁psychologist 1
▁37 1
▁angle 1
▁tonight 1
▁proportion 1
▁reserve 1
▁centuries 1
▁contrast 1
▁demokratische 1
kurs 1
▁Paris 1
verkehr 1
▁Chef 1
▁Box 1
▁bekomme 1
zeichnung 1
▁Stammzellen 1
▁Talent 1
▁solange 1
▁lachen 1
▁Kopie 1
▁Tor 1
▁Rettung 1
▁BIP 1
▁iPhone 1
lusion 1
▁compar 1
media 1
▁destruction 1
▁frankly 1
▁equality 1
▁boring 1
american 1
strom 1
▁variation 1
▁mosquito 1
▁awesome 1
hoo 1
▁syria 1
gestalt 1
▁Inspiration 1
▁sowas 1
▁spüren 1
▁Zeichnung 1
sequenz 1
▁Extrem 1
▁merkte 1
▁vorbereitet 1
▁Sonnensystem 1
▁Open 1
▁neugierig 1
wache 1
▁thick 1
▁$1 1
▁september 1
▁citizen 1
▁cents 1
▁inspire 1
▁dancing 1
▁prince 1
▁ultimate 1
▁ruin 1
▁occurred 1
▁greek 1
▁horrible 1
▁invite 1
▁primitive 1
▁vital 1
▁providing 1
▁knee 1
▁balloon 1
▁organize 1
▁cloth 1
▁deploy 1
▁secure 1
▁brach 1
▁teilweise 1
▁verursachen 1
▁Fokus 1
▁Wann 1
▁Konsum 1
▁wünschte 1
▁Asien 1
▁Angeles 1
▁Kapitel 1
▁pool 1
▁presence 1
book 1
ounce 1
▁download 1
▁curiosity 1
▁2050 1
▁suspect 1
▁comic 1
▁adam 1
▁bizarre 1
▁tunnel 1
Dollar 1
▁irgendjemand 1
stellungskraft 1
geschäft 1
▁Schlacht 1
▁schreibt 1
▁University 1
▁bekämpfen 1
▁Ruhe 1
▁Pilz 1
▁Mäuse 1
▁Wagen 1
„ 1
▁Krankenhäuser 1
▁Sichtweise 1
▁wählt 1
förmig 1
lehnen 1
▁Behinderung 1
▁cash 1
▁boston 1
▁computing 1
▁manufacture 1
▁2015 1
▁discipline 1
▁attend 1
▁cheat 1
▁Bord 1
▁Widerstand 1
pflege 1
▁Zerstörung 1
▁weshalb 1
▁zufrieden 1
▁wunderschöne 1
▁Denkweise 1
▁Impfstoff 1
▁Verfahren 1
▁liefert 1
▁Grippe 1
▁böse 1
▁Obama 1
▁grateful 1
▁efficiency 1
▁rapid 1
▁paradigm 1
▁motivate 1
▁creature 1
▁passive 1
▁cord 1
▁evolve 1
▁dominant 1
▁desperate 1
▁murder 1
igne 1
▁scholar 1
trug 1
fragt 1
▁Terror 1
▁gekauft 1
▁unmittelbar 1
▁kämpft 1
▁Männchen 1
▁lehrt 1
fällt 1
▁treiben 1
▁heisst 1
▁Top 1
▁Homo 1
▁Vorhersage 1
▁Prinzipien 1
▁Konsequenzen 1
gefähr 1
▁Blind 1
▁legitim 1
▁transmit 1
▁motivation 1
▁kilo 1
▁resistance 1
▁piano 1
▁angeles 1
▁silent 1
▁navigat 1
▁stereo 1
▁dramatically 1
▁Strand 1
▁Treffen 1
▁befreien 1
▁städtische 1
▁gestaltet 1
stiegen 1
▁Futter 1
▁Mauer 1
▁gelangt 1
▁Chaos 1
▁berühren 1
▁Verlauf 1
▁verlangt 1
▁flach 1
▁Außer 1
▁Ideal 1
▁bedroht 1
▁Fremden 1
▁begegnen 1
▁revenue 1
▁capitalism 1
▁regime 1
dependent 1
▁sweat 1
▁sustainability 1
▁miracle 1
▁55 1
▁fabric 1
▁hydro 1
▁authority 1
▁depth 1
▁medication 1
▁regret 1
omi 1
▁aufgeregt 1
▁dankbar 1
▁Freiwillige 1
▁verglichen 1
▁Säugetier 1
▁Sonnenlicht 1
▁zwang 1
kamera 1
▁Tätigkeit 1
geschwindigkeit 1
leuchtet 1
▁Bürgermeister 1
▁lehren 1
▁Teleskop 1
▁Erinnern 1
▁genügend 1
▁organisieren 1
▁verschwunden 1
▁ökologisch 1
▁Ereignis 1
▁Seide 1
▁europäische 1
▁Flügel 1
▁flood 1
▁rice 1
▁vertical 1
▁corporate 1
▁housing 1
▁knock 1
▁geographic 1
▁phenomena 1
keep 1
▁greenhouse 1
▁activist 1
meister 1
▁punish 1
▁obama 1
einheit 1
▁ländliche 1
▁gründen 1
küste 1
tief 1
▁Street 1
▁Versorgung 1
▁Science 1
▁berühmte 1
▁exakt 1
▁genetische 1
▁Ursprung 1
reißen 1
▁General 1
▁Pakistan 1
▁Wach 1
▁Kiste 1
Spiel 1
▁judgment 1
▁gray 1
▁conventional 1
▁unexpected 1
▁policies 1
▁microscope 1
▁Wäre 1
▁wiederholen 1
▁reiste 1
produktion 1
behörde 1
▁genießen 1
▁fließen 1
▁gesammelt 1
▁enthalten 1
▁Entwurf 1
▁Boston 1
▁Fett 1
▁Verletzung 1
▁Skelett 1
▁nachgedacht 1
gefasst 1
▁wovon 1
▁Ya 1
▁Wikipedia 1
▁Titan 1
▁stoppen 1
▁Nahe 1
▁dioxide 1
▁thomas 1
▁defend 1
▁hook 1
▁solving 1
ax 1
▁careful 1
▁magnetic 1
school 1
▁overcome 1
▁causing 1
▁genius 1
▁virgin 1
▁exhibition 1
▁antibiotics 1
▁hormone 1
▁Darüber 1
▁Rauch 1
▁Meister 1
▁mittels 1
▁Sicher 1
Wissen 1
▁kognitive 1
▁Blätter 1
Y 1
schalt 1
Auf 1
▁worauf 1
▁nervös 1
▁elektronische 1
▁Frankreich 1
System 1
▁Weisheit 1
▁Symptome 1
▁Studierende 1
▁leap 1
▁wireless 1
▁exploit 1
▁trace 1
▁olympic 1
▁constrain 1
▁Einzelne 1
▁Jugend 1
▁verdammt 1
▁Wärme 1
▁Kategorie 1
▁spezifische 1
▁Kugel 1
nutzer 1
▁Chip 1
▁Bestandteil 1
▁Fertig 1
▁Plötzlich 1
▁Dreh 1
▁Ängste 1
▁YouTube 1
▁recommend 1
▁flew 1
clusive 1
▁correspond 1
▁wikipedia 1
▁heaven 1
▁expectations 1
▁42 1
held 1
frage 1
▁freue 1
anstalt 1
▁Kolonie 1
▁neigen 1
▁Skulptur 1
▁verliebt 1
▁Ausgang 1
▁gerettet 1
▁Heutzutage 1
ebene 1
▁Schwimm 1
▁ewig 1
▁Ungleichheit 1
schön 1
▁pose 1
▁committed 1
▁scream 1
▁inject 1
▁authentic 1
graph 1
▁objective 1
▁gps 1
▁frisch 1
▁Wirklich 1
▁Verwendung 1
▁Marketing 1
methode 1
▁Fantasie 1
▁alltäglich 1
▁Wichtigste 1
▁heutige 1
▁Tele 1
glücklicherweise 1
▁physikalische 1
▁wahrnehmen 1
▁haiti 1
▁190 1
▁2020 1
▁audit 1
▁alarm 1
▁horizontal 1
▁pretend 1
▁extent 1
▁rising 1
▁identical 1
▁fluid 1
▁arrest 1
▁federal 1
▁philosopher 1
▁candidate 1
▁tweet 1
▁glamour 1
▁insbesondere 1
▁Thomas 1
▁infiziert 1
▁Studio 1
▁tanzen 1
▁erweitert 1
▁veröffentlichen 1
▁merkwürdig 1
▁konfrontiert 1
▁GPS 1
▁Status 1
▁Nachhaltigkeit 1
▁Farb 1
▁produktiv 1
▁Neugier 1
▁Serie 1
▁Schweine 1
▁anpassen 1
▁Tauch 1
▁thumb 1
▁ugly 1
▁automatically 1
▁consistent 1
▁exploring 1
▁feminist 1
▁gulf 1
▁Gebrauch 1
▁Budget 1
▁erfüllen 1
▁taucht 1
▁Enkel 1
▁Sorge 1
▁psychologische 1
▁Angebot 1
▁zurückkehren 1
heiß 1
▁Fang 1
▁öfter 1
▁technologische 1
▁rufen 1
▁eingeladen 1
▁unterwegs 1
geborene 1
▁Adam 1
▁airport 1
▁colleague 1
▁ceo 1
▁continuous 1
▁blame 1
▁database 1
▁emergency 1
▁conclude 1
▁external 1
▁philosophy 1
▁quot 1
▁grave 1
▁neutral 1
▁chocolate 1
▁conservative 1
▁obsessed 1
▁ridiculous 1
▁recognition 1
▁carried 1
▁stack 1
osphere 1
▁crucial 1
▁Kritik 1
▁betreiben 1
▁Verbreitung 1
▁Naja 1
▁betrieben 1
stamm 1
▁besessen 1
Projekt 1
▁Großvater 1
▁Illusion 1
▁lächerlich 1
basierte 1
▁Ritual 1
▁Ägypten 1
▁Privatsphäre 1
▁corporation 1
▁immense 1
▁scenario 1
▁lifestyle 1
related 1
▁twin 1
▁native 1
▁honey 1
evolution 1
▁adjust 1
▁controlled 1
▁loop 1
▁animation 1
▁council 1
▁asteroid 1
▁manifest 1
▁anxiety 1
Okay 1
▁hinterlassen 1
▁befand 1
▁mechanisch 1
fährt 1
▁Trotzdem 1
schlecht 1
gehört 1
änderung 1
▁überlegt 1
▁Gemüse 1
geschnitten 1
gehalten 1
▁Muslime 1
▁spiele 1
▁wisst 1
▁verliert 1
▁Einrichtungen 1
▁instinct 1
▁cooperation 1
▁distant 1
▁tight 1
▁cluster 1
lips 1
▁cyber 1
▁arctic 1
▁breed 1
▁inequality 1
▁refuse 1
kapital 1
” 1
spitze 1
▁landete 1
▁International 1
▁Renn 1
▁beschreibt 1
▁Herstellung 1
▁jegliche 1
▁ernähren 1
▁versorgen 1
▁Brustkrebs 1
▁könne 1
▁Hitze 1
▁süß 1
▁Geschmack 1
▁optimistisch 1
▁Schauspieler 1
▁Verkauf 1
▁Umfrage 1
▁fotografiert 1
▁Kreatur 1
▁Dadurch 1
▁corn 1
▁robert 1
▁engaging 1
▁raising 1
▁350 1
▁strike 1
▁shelter 1
▁productivity 1
▁agency 1
▁district 1
▁incident 1
▁routine 1
▁plenty 1
▁margin 1
▁procedure 1
firma 1
▁Robert 1
flüge 1
▁hinzufügen 1
▁Umgang 1
gängig 1
region 1
▁sozial 1
fotograf 1
▁Treppe 1
▁komplex 1
▁gezwungen 1
grafische 1
aktivität 1
▁Hacker 1
▁economies 1
▁agenda 1
▁engagement 1
▁infected 1
▁fortune 1
▁rebuild 1
▁drove 1
▁fascinated 1
▁properly 1
▁portrait 1
▁exponential 1
▁earthquake 1
▁obstacle 1
▁disgust 1
▁geschützt 1
▁Spannung 1
▁aussah 1
▁Nadel 1
▁stirbt 1
unterricht 1
▁offenbar 1
▁Staub 1
▁Mobiltelefon 1
▁Zentral 1
Aktivist 1
gespräch 1
▁renewable 1
▁frog 1
called 1
▁compound 1
▁column 1
▁plug 1
▁underground 1
▁slip 1
free 1
script 1
▁gentlemen 1
▁orient 1
▁rwanda 1
hirn 1
▁pyramid 1
▁Haiti 1
wünscht 1
▁staatliche 1
▁Papa 1
▁Dün 1
▁Süß 1
▁erfand 1
ähnliche 1
objekt 1
▁logisch 1
▁Böse 1
▁Population 1
▁Erdbeben 1
▁isoliert 1
▁Psychologie 1
▁Symmetrie 1
▁january 1
▁minimal 1
▁footprint 1
▁kingdom 1
▁wise 1
conscious 1
▁household 1
▁diagram 1
▁surveillance 1
▁isolated 1
faktor 1
▁Mögliche 1
gelenk 1
▁kreiert 1
teressanterweise 1
▁Dörfer 1
stunde 1
▁Philosophie 1
▁Zurück 1
▁Verlangen 1
▁Flüssigkeit 1
gebunden 1
▁Richter 1
▁Löwen 1
▁Darm 1
▁Dienstleistung 1
▁Chinesen 1
▁fragment 1
▁regulation 1
▁legacy 1
modul 1
▁granted 1
▁guarantee 1
▁mathematician 1
▁confident 1
▁neck 1
á 1
▁synchron 1
▁Januar 1
▁Erfinder 1
▁finanziert 1
▁angenehm 1
▁Tempo 1
▁Polizist 1
▁vernünftig 1
▁Island 1
▁Schriftsteller 1
▁Fundament 1
▁Übergang 1
▁hindurch 1
meldet 1
▁beendet 1
▁Comic 1
▁Sektor 1
▁Terroristen 1
▁ghana 1
▁1998 1
▁opposed 1
▁distract 1
▁request 1
▁rabbi 1
▁positiv 1
▁hässlich 1
▁Motivation 1
▁stammen 1
▁Anstieg 1
▁Anpassung 1
▁integriert 1
▁gemessen 1
▁Lebenserwartung 1
▁Matt 1
chirurg 1
▁Überwachung 1
▁Geruch 1
▁Bibel 1
rabischen 1
▁paradox 1
▁backwards 1
▁obesity 1
▁rainforest 1
▁chief 1
▁sharp 1
▁herself 1
▁bun 1
▁hungry 1
▁suicide 1
▁silicon 1
▁exposed 1
▁martin 1
▁optimistic 1
▁affair 1
▁stroke 1
▁viral 1
▁Logik 1
glück 1
▁irgendwelche 1
▁Besondere 1
▁wirksam 1
▁Weibchen 1
▁bedeckt 1
stufe 1
plikation 1
▁Stämme 1
▁trocken 1
▁Animation 1
▁ignorieren 1
▁Schwelle 1
▁Alpha 1
▁Brüder 1
▁Onkel 1
▁Nachfrage 1
▁Einwohner 1
▁Impuls 1
▁Gipfel 1
▁chromosome 1
▁depressed 1
▁poison 1
▁neuroscience 1
frequent 1
▁floating 1
▁transparency 1
▁senior 1
▁yield 1
▁2030 1
▁clue 1
▁decrease 1
▁adventure 1
▁diagnosed 1
▁Kapitalismus 1
▁Zivil 1
▁sorgt 1
▁Pilot 1
hundert 1
▁oberen 1
▁erfordert 1
▁reparieren 1
▁Italien 1
▁Ehemann 1
männer 1
▁Laser 1
▁Gleichgewicht 1
▁vegetable 1
▁blank 1
▁diabetes 1
▁explosion 1
▁commission 1
▁consult 1
computer 1
generation 1
▁ceiling 1
▁initiative 1
▁football 1
field 1
▁activate 1
läufig 1
▁ökonomische 1
▁letztlich 1
▁zwingen 1
▁gewöhnt 1
▁verlor 1
▁angepasst 1
streu 1
▁unerwartet 1
▁Strecke 1
▁gestartet 1
▁gefährdet 1
▁umgekehrt 1
▁Empathie 1
kontakt 1
▁korrekt 1
▁Videospiele 1
▁accessible 1
▁borrow 1
▁excuse 1
▁hardware 1
▁polio 1
▁indicate 1
dollar 1
third 1
▁furniture 1
▁appeal 1
▁insurance 1
▁minus 1
▁autonomous 1
▁enemy 1
▁disagree 1
▁frozen 1
▁dedicated 1
▁ethiopia 1
▁dringend 1
▁Eigenschaft 1
▁getestet 1
▁Nahrungsmittel 1
▁Schöne 1
▁vielmehr 1
▁analysieren 1
▁identifizieren 1
▁geeignet 1
physik 1
erkrankung 1
▁Martin 1
▁Bewohner 1
▁Maßnahmen 1
▁Angelegenheit 1
▁feiern 1
▁Hals 1
▁1999 1
▁manhattan 1
century 1
▁anonymous 1
▁subtle 1
▁recycle 1
▁colony 1
invasiv 1
▁facial 1
▁Anstrengung 1
▁Dennoch 1
▁Schätzung 1
▁erwähnen 1
▁Waffe 1
▁verstecken 1
▁ausgewählt 1
steht 1
▁atlantic 1
▁universities 1
▁synthetic 1
▁microsoft 1
▁gesture 1
yeah 1
▁uncomfortable 1
▁dignity 1
▁struggling 1
▁reduction 1
▁formula 1
▁mutation 1
▁utter 1
▁concert 1
▁higgs 1
▁Hügel 1
gesundheit 1
brachte 1
▁ignoriert 1
▁Vermögen 1
▁entwarf 1
▁Bedarf 1
▁stets 1
▁verblüffend 1
▁Schweden 1
▁herrscht 1
▁erledigen 1
▁Dunkelheit 1
ändern 1
▁Schweiz 1
X 1
▁Schädel 1
▁stimmen 1
farben 1
▁Panik 1
▁strategies 1
▁craft 1
▁fifth 1
▁bump 1
▁embedded 1
▁mimic 1
▁reputation 1
▁texas 1
▁anonym 1
ponent 1
▁2014 1
▁mushroom 1
▁schief 1
▁politisch 1
entwicklung 1
▁Ghana 1
▁Niveau 1
▁Schnell 1
▁Original 1
▁Irr 1
▁Dialog 1
▁Tränen 1
empfindlich 1
▁Knopf 1
▁füllen 1
▁Schlechte 1
▁Normalerweise 1
▁Eigentum 1
häuser 1
▁örtliche 1
▁Klavier 1
▁Flüchtling 1
▁Nordamerika 1
▁Mikroskop 1
▁seht 1
▁Gehör 1
▁entertainment 1
▁agricultural 1
▁measuring 1
▁arrive 1
▁stanford 1
ggle 1
▁drift 1
▁tragedy 1
▁pause 1
▁passenger 1
▁Rohstoff 1
wichtig 1
würfe 1
greift 1
▁Microsoft 1
städte 1
▁Stanford 1
▁jüngste 1
unwahrscheinlich 1
▁Ziege 1
sterblichkeit 1
▁vierte 1
▁Neuigkeiten 1
▁Pflanze 1
tschaftswachstum 1
▁Higgs 1
▁Pollen 1
▁freak 1
▁soviet 1
▁happier 1
▁demographic 1
▁tackle 1
▁Doppel 1
▁Juni 1
▁insgesamt 1
stätte 1
▁nachdenkt 1
▁hilfreich 1
▁anscheinend 1
▁Diabetes 1
▁Selbstmord 1
▁Linse 1
▁Medium 1
▁benutze 1
▁fließt 1
verhältnis 1
▁schmerzhaft 1
▁Vergnügen 1
▁restrict 1
▁simplicity 1
▁sacred 1
▁particle 1
▁skeleton 1
▁mask 1
▁spill 1
▁absurd 1
▁description 1
▁shore 1
▁weapon 1
▁intuition 1
▁tragic 1
strafe 1
▁Sprung 1
zählen 1
▁Organismus 1
bedarf 1
▁Größenordnung 1
▁geöffnet 1
▁Speicher 1
▁Egal 1
▁Salz 1
▁Valley 1
▁Käfer 1
Source 1
▁Tragödie 1
Jährige 1
▁angemessen 1
▁Praxis 1
▁Erkenntnisse 1
▁ensure 1
▁acknowledge 1
▁vietnam 1
▁fulfill 1
kilometer 1
▁schizophren 1
elect 1
▁parliament 1
▁slavery 1
floss 1
▁deutsche 1
▁herausfand 1
brüche 1
▁Ernst 1
kämpfe 1
▁Gegenstände 1
▁Übrigens 1
▁molekulare 1
▁anbieten 1
▁Heilung 1
drängt 1
▁fliegt 1
▁Ausrüstung 1
▁Letztes 1
▁Front 1
▁abstrakte 1
▁Alkohol 1
▁Röntgen 1
schränke 1
▁exponentiell 1
▁repräsentiert 1
▁Parlament 1
▁Vorurteile 1
▁freundlich 1
▁Ruanda 1
▁Delfin 1
▁democrat 1
cellular 1
▁afterwards 1
▁dictionary 1
▁figuring 1
▁simulation 1
▁william 1
▁reconstruct 1
▁governance 1
▁mild 1
phase 1
stadium 1
▁vagina 1
▁uganda 1
▁Studium 1
▁Auftrag 1
▁Gelände 1
▁verbraucht 1
▁Griechen 1
▁Humor 1
unterschied 1
▁Feedback 1
▁Branche 1
▁Bedürfnis 1
▁Lächeln 1
▁Reichtum 1
▁Transparenz 1
▁Beitrag 1
▁bewahren 1
▁motiviert 1
drehen 1
▁Verwandte 1
▁contribution 1
▁nutrition 1
▁immediate 1
▁terror 1
▁afghan 1
▁sketch 1
▁suburb 1
▁infant 1
▁twenty 1
▁boundaries 1
▁theories 1
▁mount 1
▁spectacular 1
▁twist 1
▁sensation 1
▁definitiv 1
spezifisch 1
sammeln 1
▁sorgfältig 1
▁Party 1
gebrauch 1
▁Explosion 1
▁dauerhaft 1
Audio 1
bleiben 1
▁Höhepunkt 1
▁französische 1
▁William 1
▁unangenehm 1
▁Befehl 1
Technologie 1
▁Priorität 1
▁Kreislauf 1
▁verringern 1
▁Apfel 1
▁unterrichtet 1
▁Gletscher 1
▁Bürgerkrieg 1
▁Weihnachts 1
▁Töchter 1
▁acquire 1
▁institutional 1
▁partnership 1
▁skeptic 1
▁champion 1
▁beetle 1
▁sandwich 1
▁domain 1
▁demonstration 1
▁ignorance 1
▁substance 1
▁circa 1
▁profile 1
▁whistle 1
platte 1
▁Level 1
▁Kohlendioxid 1
▁erstmals 1
▁jeweils 1
▁Väter 1
kreuz 1
▁Nährstoffe 1
▁Schokolade 1
▁Gemeinsam 1
Journal 1
▁Sammlung 1
▁beschleunigt 1
ifikation 1
▁Blickwinkel 1
▁Kooperation 1
▁Fußball 1
▁Hormon 1
▁programmieren 1
▁Initiative 1
▁erfasst 1
gestoßen 1
▁Lärm 1
second 1
▁breakthrough 1
▁1995 1
▁helicopter 1
▁industries 1
▁interconnect 1
resistant 1
▁enhance 1
▁smooth 1
▁identified 1
▁turkey 1
▁jewish 1
▁inspiring 1
▁slave 1
▁disappoint 1
▁excellent 1
▁1994 1
▁grace 1
▁Abendessen 1
▁Daumen 1
▁diskutieren 1
▁inklusive 1
▁Merk 1
▁Hölle 1
▁Polio 1
▁Manhattan 1
▁klingen 1
brecher 1
▁heiraten 1
▁Produktivität 1
▁Texas 1
▁Disziplin 1
▁Act 1
▁Abenteuer 1
▁südlich 1
▁identisch 1
▁systematisch 1
▁calculation 1
▁fragile 1
▁textbook 1
▁resolve 1
▁mysterious 1
▁skull 1
▁translation 1
▁confirm 1
▁fraction 1
▁systematic 1
▁Effizienz 1
günstig 1
▁Prüfung 1
▁gelehrt 1
▁bedeutsam 1
gefügt 1
▁ausreichend 1
▁akzeptiert 1
▁mittlerweile 1
▁Angesicht 1
▁vermittelt 1
▁auftaucht 1
▁Standpunkt 1
gemeinschaft 1
▁stieß 1
▁aufmerksam 1
▁Astronom 1
▁Hindernisse 1
▁Slum 1
pflanzt 1
▁schwanger 1
▁Moskito 1
▁Entstehung 1
▁Beschreibung 1
▁Währung 1
▁Fried 1
▁aesthetic 1
▁confused 1
▁dilemma 1
▁glacier 1
▁reinvent 1
▁cousin 1
▁aircraft 1
▁sweden 1
▁advertising 1
▁probability 1
▁alcohol 1
▁leverage 1
▁narrator 1
analyse 1
▁Globalisierung 1
▁verdoppelt 1
süchtig 1
▁fügt 1
▁verzweifelt 1
▁Sollte 1
▁Hypothese 1
▁Aufstieg 1
▁Ehrlich 1
▁Knoten 1
▁Simulation 1
stift 1
▁Richtlinie 1
▁erneuerbare 1
▁Meeting 1
▁Frequenz 1
Nobelpreis 1
▁Vagina 1
▁oxford 1
▁capita 1
▁assess 1
▁astonishing 1
▁restore 1
unclear 1
temperatur 1
▁recipe 1
▁pioneer 1
▁unbelievable 1
▁variable 1
▁survivor 1
▁horizon 1
▁fabulous 1
▁begun 1
diagnose 1
▁ethnic 1
▁shrimp 1
▁2013 1
▁spontan 1
▁rettet 1
▁Oxford 1
▁engagiert 1
▁leistungs 1
▁ehemalige 1
▁Chromosom 1
▁Horizont 1
▁jahrelang 1
strecken 1
▁offiziell 1
▁Cartoon 1
geschoss 1
▁Anzeige 1
▁Wohlbefinden 1
▁Liefer 1
▁Uganda 1
▁Täuschung 1
▁Lügen 1
▁inevitable 1
▁resilience 1
▁eliminate 1
▁recruit 1
▁fought 1
▁diplomat 1
▁orchestra 1
▁virtue 1
patient 1
▁erzielen 1
▁Media 1
▁Intuition 1
▁freiwillig 1
▁Chinesisch 1
Programm 1
▁präzise 1
▁bewirkt 1
▁verschwindet 1
mütig 1
▁ansprechen 1
meldung 1
▁verwirrt 1
▁Herkunft 1
▁comparison 1
▁snap 1
▁punch 1
▁empire 1
▁frustrated 1
space 1
▁injury 1
▁trivial 1
▁buried 1
▁explode 1
▁convey 1
▁genocide 1
▁abilities 1
▁mechanics 1
kunst 1
sprung 1
▁ungeheuer 1
▁schreibe 1
nutzung 1
▁Kontroll 1
▁unterscheidet 1
▁verlangen 1
▁beschützen 1
▁umfasst 1
verständnis 1
▁Karikatur 1
▁üben 1
▁überwältigend 1
weisung 1
▁Hochschul 1
▁Hätte 1
▁intersection 1
▁competitive 1
▁array 1
▁dialogue 1
▁garbage 1
minute 1
▁association 1
▁naked 1
▁combat 1
▁accelerate 1
▁relax 1
▁programming 1
▁facility 1
▁snake 1
▁enterprise 1
▁geplant 1
▁diskutiert 1
arzt 1
▁Privileg 1
▁Konzentration 1
▁ausschließlich 1
▁vielfältig 1
▁Substanz 1
geholt 1
gebäude 1
prinzip 1
▁geheime 1
▁unglücklich 1
▁musikalische 1
▁vernetzt 1
▁Scheibe 1
▁überprüfen 1
▁Baseball 1
▁Pfeil 1
▁Mühe 1
▁bewältigen 1
gesichts 1
▁dominate 1
▁bathroom 1
▁consist 1
▁overwhelming 1
▁october 1
▁compromise 1
▁crystal 1
▁attribute 1
▁enforce 1
control 1
▁structural 1
▁vulnerability 1
▁stigma 1
psycho 1
biologi 1
fleisch 1
gewöhnlich 1
▁Engagement 1
▁Pläne 1
▁Entschuldigung 1
▁hübsch 1
bedingungen 1
▁erstaunt 1
▁Regenwald 1
wachstum 1
▁ermutigen 1
▁verhindert 1
▁Immunsystem 1
▁stoßen 1
▁Winkel 1
geteilt 1
▁spirituelle 1
▁Möbel 1
geschaltet 1
▁vereint 1
▁Individuum 1
▁Treibstoff 1
▁beschränkt 1
▁blicken 1
▁Sklaverei 1
▁stärkste 1
▁Merkmale 1
▁dumb 1
▁loving 1
▁vacuum 1
▁agencies 1
▁temple 1
▁elected 1
▁broadcast 1
í 1
▁unterhalb 1
▁Konsumenten 1
▁anfängt 1
▁auszudrücken 1
▁Trotz 1
▁Oktober 1
▁Bescheid 1
▁entschlossen 1
▁Bindung 1
risiko 1
▁gegessen 1
▁gemeinnützige 1
▁Schwanz 1
▁Variation 1
▁Business 1
▁Nachmittag 1
▁ärmsten 1
▁Mount 1
▁bestätigt 1
▁Mahlzeit 1
▁Mittlere 1
▁screw 1
▁barrel 1
▁thrill 1
▁florida 1
▁collaborative 1
▁shrink 1
▁smoking 1
▁sacrifice 1
▁matrix 1
▁primarily 1
▁choosing 1
wurzel 1
ündigt 1
▁gewinnt 1
▁zahlreiche 1
▁gefühlt 1
▁Plätze 1
▁Einzige 1
▁Florida 1
gewebe 1
▁Allerdings 1
gefertigt 1
▁Kapazität 1
▁Verteidigung 1
▁verurteilt 1
▁Gehalt 1
blätter 1
▁hervorragend 1
▁Zufriedenheit 1
▁Brown 1
▁Kompromiss 1
sufficient 1
▁category 1
▁threshold 1
▁wheelchair 1
▁august 1
▁collaborator 1
▁valid 1
▁hollywood 1
▁terrifying 1
▁chamber 1
▁prepare 1
▁Flughafen 1
▁Besonders 1
gehoben 1
Komm 1
▁Lampe 1
▁Prinz 1
▁Filter 1
▁außerordentlich 1
▁längst 1
Energieverbrauch 1
▁Abhängigkeit 1
abhängig 1
▁verknüpft 1
klatsch 1
Zeit 1
▁kombiniert 1
▁August 1
▁schlussendlich 1
▁Zuhörer 1
▁universelle 1
▁Pyramide 1
drüse 1
▁expansion 1
▁administration 1
▁grandchildren 1
▁nutrients 1
▁impression 1
▁disconnect 1
▁accus 1
▁monster 1
▁experiencing 1
▁torture 1
▁advocate 1
▁exhibit 1
▁anticipate 1
▁pulse 1
▁signature 1
▁origami 1
▁diagnosis 1
▁nördlich 1
▁Dynamik 1
▁erkunden 1
▁Mechanismus 1
▁Variante 1
▁steigern 1
▁beantwortet 1
▁Cousin 1
▁versagt 1
▁scharf 1
▁Versicherung 1
▁Kämpfe 1
▁Held 1
haufen 1
▁Diplomat 1
▁Kalorien 1
▁automobile 1
▁reducing 1
▁irrational 1
▁expedition 1
▁magnitude 1
▁ecological 1
▁supermarket 1
▁creator 1
▁uniform 1
▁optimal 1
▁gradually 1
▁simultaneously 1
▁transcend 1
▁hemisphere 1
= 1
▁1,5 1
▁lenken 1
▁involviert 1
▁zutiefst 1
▁Behauptung 1
▁Pazifik 1
▁kombinieren 1
▁spürt 1
▁begleitet 1
▁peinlich 1
▁erledigt 1
▁Urknall 1
▁analysiert 1
▁Anwälte 1
▁vergleichbar 1
▁scheitern 1
▁erheblich 1
schätzung 1
▁tragisch 1
▁diagnostiziert 1
▁weiterentwickel 1
▁Passwörter 1
▁Gewohnheit 1
▁Säule 1
▁Syrien 1
▁philip 1
▁capabilities 1
▁oxytocin 1
▁saturn 1
▁contemporary 1
▁diamond 1
▁crush 1
▁unfold 1
▁unfair 1
▁scott 1
# 1
▁Manager 1
▁Offensichtlich 1
▁Periode 1
▁treibt 1
deutet 1
erfahrung 1
▁militärische 1
▁generell 1
▁umfassende 1
Boot 1
▁äußere 1
▁begegnet 1
kratische 1
▁senken 1
▁Gravitation 1
▁gesünder 1
▁Sklaven 1
▁wohlhabend 1
▁Hollywood 1
▁akademische 1
▁Zeile 1
▁Vulkan 1
▁smith 1
▁smallpox 1
▁pharmaceutical 1
▁pandemic 1
▁whatsoever 1
audience 1
▁architectural 1
organizing 1
▁retina 1
▁breakfast 1
▁beneath 1
▁register 1
▁biodiversity 1
▁chronic 1
▁verwandt 1
▁zwölf 1
kenntnis 1
▁theoretisch 1
▁Dauer 1
▁Berührung 1
▁einschließlich 1
▁Unsicherheit 1
höhe 1
▁selbe 1
Glücklicherweise 1
▁Erscheinung 1
Modern 1
▁Verbraucher 1
▁besaß 1
▁gewohnt 1
▁durchzuführen 1
▁anfühlt 1
▁beruflich 1
▁Black 1
▁vertikal 1
▁Truppe 1
▁Rechner 1
▁participation 1
▁compress 1
▁marvel 1
▁qualities 1
▁bulb 1
▁extension 1
▁crawl 1
▁distinguish 1
engineer 1
▁ambition 1
▁1984 1
▁compelling 1
▁immigrant 1
student 1
▁derzeitige 1
fahrzeug 1
konzept 1
▁gewissermaßen 1
▁irgendwas 1
▁Benzin 1
▁Trinkwasser 1
▁geredet 1
forscher 1
▁verletzen 1
▁fortgeschritten 1
Modell 1
▁Gewässer 1
fabrik 1
▁beängstigend 1
hülle 1
▁Anwalt 1
▁konstruiert 1
▁Falsch 1
bürger 1
▁Veranstaltung 1
▁Töne 1
▁Gefangene 1
▁Elektronik 1
▁detailliert 1
▁TEDTalk 1
▁purchase 1
▁parasite 1
▁unprecedented 1
▁reliable 1
▁defeat 1
▁injustice 1
▁syndrome 1
▁intimate 1
▁indonesia 1
▁currency 1
▁eingeschränkt 1
Maschine 1
▁Smith 1
▁Dezember 1
richtig 1
▁Digital 1
▁schmutzig 1
▁Erstaunlich 1
▁Geschwister 1
▁chaotisch 1
▁Tendenz 1
▁gegenwärtige 1
▁ähnelt 1
▁interaktive 1
flasche 1
▁Mischung 1
▁Getreide 1
▁Türkei 1
▁konkrete 1
▁farbige 1
▁Tinte 1
▁Anhänger 1
märkte 1
▁1996 1
▁stomach 1
▁facilities 1
▁hypothesis 1
▁miserable 1
▁mobility 1
▁devil 1
▁descend 1
▁episode 1
▁LKW 1
▁Analogie 1
▁Mittagessen 1
Adresse 1
▁finanzieren 1
▁Widerspruch 1
▁Gerüst 1
▁verstärkt 1
gehörigkeit 1
▁Zwilling 1
▁Balance 1
▁unzählige 1
▁benannt 1
opfer 1
▁überwachen 1
schwäche 1
▁unheimlich 1
▁Mentor 1
▁Rhythmus 1
▁Erwärmung 1
▁Schweigen 1
▁Thunfisch 1
▁december 1
world 1
▁friday 1
▁civic 1
▁multinational 1
▁excitement 1
▁distort 1
▁cambridge 1
▁storytelling 1
▁simulate 1
▁nowadays 1
▁located 1
▁inhabit 1
katastrophe 1
▁tätig 1
▁künstlerische 1
branche 1
▁ethische 1
▁Reihenfolge 1
▁motivieren 1
▁attraktiv 1
▁Glühbirne 1
▁Redner 1
▁beschädigt 1
▁South 1
▁Saturn 1
▁Solche 1
▁Distanz 1
wächs 1
kräftig 1
▁verspreche 1
▁Tempel 1
▁Konzert 1
gebrochen 1
▁Äthiopien 1
▁Ladung 1
▁Versprechen 1
▁Oxytocin 1
▁contrary 1
▁microbial 1
▁'90 1
▁spontaneous 1
▁meanwhile 1
▁deforestation 1
▁interrupt 1
▁bribe 1
▁colonies 1
▁genuine 1
▁categories 1
▁optimism 1
▁introvert 1
▁negativ 1
interest 1
▁2016 1
▁thrive 1
geschrieben 1
▁gestohlen 1
▁Urlaub 1
geräusch 1
chädlich 1
▁verfügen 1
▁Kluft 1
▁Cambridge 1
▁Blüte 1
▁stattfindet 1
▁Anweisungen 1
▁Optimismus 1
▁Treib 1
▁versorgt 1
▁vergrößern 1
Syndrom 1
▁Direktor 1
▁Vorlesung 1
▁Zentimeter 1
▁ignor 1
▁specula 1
▁divorce 1
▁strategic 1
▁sanitation 1
▁hawaii 1
+ 1
generating 1
▁generous 1
▁innocent 1
▁circulat 1
▁exposure 1
▁awkward 1
▁terrified 1
▁potato 1
signal 1
▁Fossil 1
bewohner 1
▁Voraussetzung 1
▁Furcht 1
▁Notwendigkeit 1
▁Bewertung 1
▁frustriert 1
▁Fußgänger 1
▁Verzweiflung 1
▁empfehle 1
Veröffentlichung 1
▁statistisch 1
▁beeindruckt 1
▁Pharma 1
▁Anfänge 1
▁Durchmesser 1
▁Später 1
▁Babies 1
Fiction 1
▁1997 1
▁pedestrian 1
▁closing 1
▁mutual 1
▁ownership 1
▁jewel 1
▁residents 1
▁grasp 1
▁prosperity 1
▁flavor 1
_ 1
röhre 1
▁züchten 1
▁zehntausende 1
▁allererste 1
▁schuldig 1
▁Hardware 1
▁Norwegen 1
▁probieren 1
schuhe 1
zweck 1
▁fröhlich 1
charakter 1
▁vergrößert 1
▁bedienen 1
▁überqueren 1
▁Feuerwehr 1
▁gigantische 1
▁Erlaubnis 1
▁verarbeitet 1
▁Unabhängigkeit 1
▁Treibhausgase 1
▁Trauer 1
▁Söhne 1
› 1
‹ 1
▁Smartphone 1
▁monument 1
▁recall 1
▁aspiration 1
▁cigarette 1
▁humanitarian 1
▁scrap 1
▁composition 1
▁serving 1
▁exhaust 1
▁browse 1
▁jellyfish 1
▁depressiv 1
ç 1
▁Philip 1
▁aufhört 1
▁probiert 1
▁Dilemma 1
▁Vereinte 1
▁wundervoll 1
▁Apparat 1
▁spektakulär 1
▁Trennung 1
▁Stabilität 1
▁vergewaltigt 1
▁bzw 1
▁Arktis 1
▁Rollstuhl 1
▁NSA 1
ordinarily 1
apparat 1
▁earliest 1
▁lonely 1
▁paralyzed 1
▁temporary 1
▁silver 1
▁despair 1
▁tendency 1
▁curriculum 1
▁clarity 1
▁interior 1
gras 1
▁coordinate 1
▁february 1
▁embryo 1
▁canadian 1
▁backyard 1
▁buddhist 1
▁convention 1
ó 1
▁Verwaltung 1
▁bewiesen 1
▁Verpflichtung 1
▁schätzt 1
▁Wünsche 1
▁externe 1
▁Fettleibigkeit 1
▁hungrig 1
▁Silicon 1
▁Archiv 1
▁programmiert 1
▁Kühe 1
▁beteiligen 1
▁Schwäche 1
▁schwamm 1
▁Dunkel 1
ströme 1
störungen 1
▁Tropfen 1
▁Schwangerschaft 1
▁Götter 1
▁Minderheit 1
▁Korallenriffe 1
▁Drohnen 1
▁andauernd 1
▁continuing 1
▁amazed 1
tropical 1
▁encouraging 1
▁dictator 1
▁believing 1
▁tsunami 1
▁recycling 1
▁deliberate 1
▁hallucinat 1
▁acoustic 1
▁grandparents 1
▁endangered 1
brett 1
‘ 1
▁Programmierer 1
Nullsummen 1
firmen 1
▁Rekord 1
▁bräuchte 1
▁Reichweite 1
▁ermutigt 1
▁spezialisiert 1
▁Tafel 1
größte 1
▁Barriere 1
▁bestätigen 1
▁beruht 1
▁identifiziert 1
▁uralte 1
▁Februar 1
RNA 1
klettert 1
▁jüdische 1
▁Graph 1
▁Hersteller 1
▁nukleare 1
▁eröffnen 1
▁beherrschen 1
▁Ideologie 1
▁Reaktor 1
▁excess 1
▁rethink 1
▁constitu 1
▁reproduce 1
▁swallow 1
▁collaborate 1
▁1991 1
▁communicating 1
▁prescription 1
▁investigation 1
▁straightforward 1
▁captain 1
▁membrane 1
▁negotiation 1
▁occupy 1
efficient 1
▁theoretical 1
▁diagnostic 1
▁bangladesh 1
▁independence 1
▁cooperate 1
▁Management 1
▁geprägt 1
▁Vietnam 1
▁Ärger 1
▁Expedition 1
▁Schwierig 1
▁Installation 1
Regierung 1
▁Regime 1
▁Aufzeichnungen 1
▁erschafft 1
▁Demonstration 1
▁Deutsch 1
▁Szenario 1
▁Nebenwirkungen 1
▁Jedoch 1
▁Hühner 1
▁Belastung 1
▁Poesie 1
▁Bekannt 1
▁ethnische 1
▁Zigarette 1
▁lügen 1
▁America 1
▁gelähmt 1
▁wheat 1
▁flourish 1
▁retreat 1
▁leather 1
▁memorial 1
▁louis 1
▁possess 1
symmetric 1
▁purple 1
▁magnificent 1
▁knife 1
▁stimulate 1
▁introduction 1
▁athletes 1
lapse 1
▁orphan 1
▁triangle 1
▁default 1
▁festival 1
▁1989 1
▁disabilities 1
familie 1
▁ultimative 1
▁Selektion 1
▁synthetische 1
▁Bakterium 1
zufügen 1
▁derjenige 1
▁drastisch 1
▁Sonntag 1
▁befürchte 1
▁Ignoranz 1
▁verkündet 1
schüchtern 1
▁verpflichtet 1
▁woanders 1
▁Kollege 1
▁LED 1
▁lächeln 1
▁Hürde 1
▁Großeltern 1
▁Informatik 1
▁phantom 1
▁ecology 1
▁hybrid 1
▁workforce 1
▁accumulate 1
integration 1
▁trajectory 1
▁pencil 1
▁executive 1
▁receiving 1
▁destiny 1
▁yourselves 1
▁tattoo 1
▁drought 1
▁synapse 1
▁Republikaner 1
verschmutzung 1
verarbeitung 1
▁angeboten 1
▁stattfand 1
▁Techno 1
▁menschlich 1
▁MRT 1
▁geschätzt 1
▁biologisch 1
▁konservativ 1
▁Käse 1
▁dokumentiert 1
▁betrachte 1
▁Unglaublich 1
Herangehensweise 1
▁Hektar 1
▁Gegner 1
▁März 1
▁großzügig 1
▁Melodie 1
▁Investoren 1
▁Global 1
▁verborgen 1
▁Indonesien 1
▁Stickstoff 1
▁North 1
▁impressive 1
▁ebola 1
▁substantial 1
▁indigenous 1
▁contaminat 1
▁dopamine 1
▁thread 1
▁terribly 1
▁glamorous 1
▁striking 1
▁1975 1
▁migration 1
▁spiral 1
▁advertise 1
▁pizza 1
▁regulate 1
▁nucleus 1
▁carolina 1
▁transaction 1
▁Wiederholung 1
ingenieur 1
▁auszuprobieren 1
▁Wahnsinn 1
gesagt 1
▁Interpretation 1
▁Ebola 1
menschliche 1
▁verwirklichen 1
▁Louis 1
▁Dopamin 1
▁anzuwenden 1
Problem 1
▁anerkannt 1
Publikum 1
▁repräsentieren 1
▁Hausaufgaben 1
▁Primaten 1
▁verbrannt 1
▁griechische 1
▁Glaube 1
▁Luxus 1
β 1
▁innovativ 1
▁physisch 1
▁rechne 1
▁müsst 1
▁privat 1
° 1
è 1
ã 1
▁aktuell 1
⁄ 1
▁künstlich 1
ñ 1
▁individuell 1
Ä 1
▁finanziell 1
— 1
@ 1
( 1
́ 1
^ 1
à 1
öge 1
‟ 1
‚ 1
[ 1
‒ 1
€ 1
– 1
ï 1
ù 1
ê 1
ø 1
­ 1
ā 1
♫ 1
â 1
♪ 1
* 1
$ 1
ô 1
อ 1
ī 1
ë 1
 1
 1
 1
ú 1
• 1
£ 1
ร 1
่ 1
ย 1
¡ 1
œ 1
¥ 1
® 1
É 1
Ç 1
Å 1
~ 1
» 1
× 1
û 1
送 1
你 1
葱 1
ć 1
ě 1
ū 1
प 1
् 1
र 1
े 1
म 1
š 1
© 1
ý 1
Á 1
¶ 1
ò 1
ō 1
 1
 1
ă 1
ť 1
č 1
å 1
¿ 1
к 1
Ӓ 1
« 1
Ō 1
Č 1
Ű 1
Œ 1
