▁the	-3.36301
s	-3.57413
▁and	-3.88584
▁of	-4.04609
▁to	-4.06861
▁a	-4.17165
,	-4.19193
▁in	-4.31224
.	-4.495
▁i	-4.57129
▁that	-4.66795
'	-4.67536
▁it	-4.80095
▁was	-4.9459
t	-5.01797
▁he	-5.03981
▁you	-5.04752
e	-5.15668
en	-5.1868
▁is	-5.19972
ed	-5.29715
▁die	-5.33924
▁for	-5.35043
n	-5.38936
▁we	-5.39409
ing	-5.39593
▁with	-5.41027
▁be	-5.44103
▁so	-5.45729
▁his	-5.46023
▁und	-5.47414
d	-5.536
▁this	-5.5386
▁as	-5.54151
▁but	-5.54401
▁had	-5.61228
▁on	-5.63699
▁not	-5.64367
▁they	-5.69189
▁her	-5.70838
▁at	-5.72329
▁have	-5.78955
▁der	-5.79603
er	-5.80622
▁she	-5.81055
▁an	-5.81073
▁all	-5.85135
▁ist	-5.9339
▁my	-5.95357
ly	-5.97165
▁zu	-5.98153
▁das	-6.00326
▁are	-6.01433
▁by	-6.03075
▁one	-6.03518
▁me	-6.04048
▁from	-6.04946
m	-6.05821
▁what	-6.08619
▁there	-6.10003
▁which	-6.10732
▁him	-6.12955
▁wir	-6.14808
▁ich	-6.15891
re	-6.19225
▁were	-6.21287
▁or	-6.23087
▁said	-6.23136
r	-6.24283
▁es	-6.2443
y	-6.25613
▁do	-6.26466
▁when	-6.26918
▁if	-6.28348
▁man	-6.30255
▁ein	-6.35189
▁no	-6.35253
▁can	-6.36859
▁Sie	-6.37576
▁	-6.39509
▁their	-6.40626
▁sie	-6.41646
▁them	-6.41981
▁out	-6.42057
▁would	-6.42512
▁who	-6.43922
▁about	-6.44026
▁nicht	-6.46957
▁up	-6.48328
▁—	-6.49358
▁will	-6.50364
▁von	-6.50934
▁eine	-6.5355
▁now	-6.56509
▁dass	-6.56603
▁like	-6.57056
▁den	-6.58327
es	-6.59811
▁more	-6.6316
▁been	-6.64154
▁very	-6.6431
▁mit	-6.66844
▁auf	-6.68975
▁then	-6.70429
▁your	-6.70972
▁our	-6.73029
▁Und	-6.73223
▁into	-6.74116
▁could	-6.74198
▁some	-6.78086
▁time	-6.78564
▁know	-6.83009
▁these	-6.83133
▁see	-6.84284
▁war	-6.85155
:	-6.86587
▁Ich	-6.86924
▁people	-6.86965
ll	-6.87073
▁has	-6.87841
▁how	-6.88115
▁wie	-6.88688
▁just	-6.89773
-	-6.89998
▁sich	-6.90283
▁little	-6.92106
▁us	-6.94468
▁sind	-6.94923
▁other	-6.98221
▁well	-6.98729
▁over	-6.99137
▁für	-6.99352
▁than	-6.99374
ve	-7.0039
▁go	-7.011
▁"	-7.01411
al	-7.02054
▁haben	-7.0292
st	-7.03275
▁two	-7.04125
▁think	-7.04174
▁er	-7.05354
▁did	-7.05567
▁only	-7.07435
▁um	-7.08476
▁here	-7.08858
?	-7.09212
b	-7.09359
▁where	-7.10826
▁also	-7.1189
in	-7.12108
▁way	-7.13566
g	-7.13628
▁good	-7.13958
▁because	-7.13985
▁als	-7.17003
▁down	-7.1754
▁any	-7.17713
▁Das	-7.20911
▁much	-7.2139
▁am	-7.218
c	-7.21864
▁im	-7.22017
▁get	-7.22431
l	-7.23133
▁don	-7.23188
▁first	-7.24189
▁aus	-7.24667
▁going	-7.24754
▁dem	-7.25793
▁come	-7.26034
▁before	-7.27213
▁Es	-7.27354
▁make	-7.27592
▁made	-7.27754
▁day	-7.27902
te	-7.28073
▁diese	-7.2827
▁after	-7.28754
▁back	-7.28844
▁should	-7.28966
▁Wir	-7.29798
▁great	-7.30164
▁uns	-7.30721
▁upon	-7.31655
▁say	-7.32516
▁world	-7.34243
▁über	-7.35668
▁came	-7.37288
le	-7.37727
▁those	-7.38024
▁even	-7.38326
▁never	-7.3871
▁old	-7.39357
▁life	-7.40141
▁such	-7.40371
▁wenn	-7.41198
ation	-7.42131
▁most	-7.42785
▁right	-7.43023
)	-7.43205
▁hat	-7.43502
k	-7.44754
▁(	-7.45605
a	-7.45906
▁einen	-7.46218
▁things	-7.46255
▁must	-7.46722
ten	-7.47009
▁take	-7.47682
▁may	-7.47986
▁long	-7.48086
o	-7.48357
▁own	-7.4956
▁every	-7.49868
▁ver	-7.50229
▁können	-7.50229
▁oder	-7.50388
h	-7.51061
▁went	-7.51128
▁through	-7.51153
▁many	-7.51271
▁again	-7.51457
▁werden	-7.51541
▁thought	-7.52183
▁s	-7.52605
▁new	-7.53701
ic	-7.5387
▁really	-7.5399
▁des	-7.54129
▁years	-7.54456
▁look	-7.54628
▁let	-7.54891
ung	-7.54906
▁un	-7.55176
ter	-7.55211
w	-7.56093
ä	-7.56666
ge	-7.56685
an	-7.57063
▁something	-7.57501
▁being	-7.57633
▁might	-7.58985
ch	-7.59332
it	-7.59698
▁want	-7.59795
▁men	-7.5993
▁ge	-7.60125
▁work	-7.61184
▁aber	-7.61295
▁thing	-7.61335
▁too	-7.62071
▁auch	-7.63063
▁kann	-7.63065
on	-7.63458
▁mister	-7.63683
▁de	-7.64074
▁Die	-7.64137
▁hand	-7.6504
or	-7.65125
ness	-7.65224
▁same	-7.65237
th	-7.65339
▁einer	-7.65715
▁last	-7.65727
▁re	-7.65853
z	-7.65913
▁still	-7.66388
▁three	-7.66611
▁away	-7.67215
▁tell	-7.6745
▁Aber	-7.67615
▁got	-7.67675
▁nur	-7.68488
▁einem	-7.69272
▁its	-7.69418
▁put	-7.7096
▁why	-7.71101
▁himself	-7.71895
ity	-7.71965
▁off	-7.72374
▁without	-7.72571
▁Menschen	-7.72885
f	-7.73071
▁mich	-7.73759
ion	-7.73908
us	-7.73954
p	-7.74274
▁wird	-7.76329
▁sehr	-7.76634
be	-7.76885
u	-7.76915
▁found	-7.77128
▁another	-7.77567
▁vor	-7.78301
ar	-7.79415
▁place	-7.79465
able	-7.79518
▁hier	-7.80045
▁head	-7.82048
ü	-7.8213
▁da	-7.82847
▁nothing	-7.83429
▁nach	-7.83974
ig	-7.84349
▁house	-7.84519
ul	-7.84593
ur	-7.84756
▁sein	-7.84868
▁while	-7.85249
▁gibt	-7.85267
▁give	-7.8532
▁night	-7.8533
▁eyes	-7.85697
▁o	-7.85725
la	-7.86011
▁find	-7.86044
▁Er	-7.86485
▁saw	-7.87644
▁ever	-7.88017
▁love	-7.88616
ers	-7.88687
sch	-7.89072
▁under	-7.89258
▁once	-7.89353
▁laughter	-7.89608
▁room	-7.89784
▁dann	-7.89995
de	-7.90138
li	-7.90596
▁kind	-7.91246
▁shall	-7.91352
▁yet	-7.92184
▁part	-7.92359
▁took	-7.92689
▁noch	-7.92985
el	-7.93109
▁water	-7.93367
▁actually	-7.93454
▁mir	-7.93472
▁etwas	-7.93723
▁end	-7.93728
▁young	-7.93884
▁–	-7.94524
il	-7.94543
▁home	-7.94578
ri	-7.94695
ne	-7.94861
et	-7.95501
▁face	-7.95829
is	-7.95852
i	-7.95931
▁Welt	-7.97139
ra	-7.97827
▁left	-7.9797
▁though	-7.98366
▁called	-7.9916
▁always	-7.99244
▁each	-7.99911
▁habe	-8.01184
▁father	-8.01186
▁asked	-8.01277
ment	-8.01309
▁sehen	-8.01593
▁bei	-8.02264
▁better	-8.02504
▁B	-8.02783
ive	-8.03084
▁looked	-8.03265
est	-8.03868
▁need	-8.04138
▁S	-8.04299
▁dieser	-8.04338
ol	-8.04451
▁few	-8.04559
▁mind	-8.04864
▁mehr	-8.04914
▁In	-8.05103
ro	-8.05336
▁far	-8.05955
den	-8.0627
▁moment	-8.06739
▁wo	-8.07306
ry	-8.07459
▁light	-8.08252
▁course	-8.08689
▁heart	-8.08793
▁around	-8.09439
▁durch	-8.09468
▁told	-8.09661
▁Wenn	-8.09823
▁mother	-8.10081
▁alle	-8.10088
▁different	-8.12867
▁heard	-8.1288
▁done	-8.12949
gen	-8.13164
ia	-8.13649
▁yes	-8.15322
▁use	-8.15498
▁king	-8.15546
"	-8.15602
▁whole	-8.15898
▁between	-8.16014
▁A	-8.16469
▁half	-8.16747
▁quite	-8.17203
▁sir	-8.17507
▁side	-8.17716
▁woman	-8.17964
ern	-8.18183
me	-8.18506
ö	-8.19031
▁du	-8.19054
▁wurde	-8.19097
ton	-8.19345
man	-8.19362
▁missus	-8.19766
▁oh	-8.2027
na	-8.20273
▁enough	-8.20355
ma	-8.20639
ie	-8.20727
▁Be	-8.21144
ist	-8.21222
▁next	-8.21247
▁knew	-8.21475
▁does	-8.21799
ate	-8.21835
▁Zeit	-8.22099
▁together	-8.22146
ff	-8.22352
▁unsere	-8.2268
se	-8.24274
ieren	-8.24288
▁having	-8.24338
▁meine	-8.24807
▁Ein	-8.2511
▁fact	-8.25445
▁Ihnen	-8.25555
▁against	-8.25691
▁set	-8.25759
▁seemed	-8.25853
▁K	-8.25975
ber	-8.26065
▁door	-8.26078
ver	-8.26349
▁con	-8.26352
▁both	-8.26376
▁E	-8.26601
▁Ver	-8.27555
▁tun	-8.27746
▁looking	-8.27927
▁immer	-8.2796
▁god	-8.28189
▁four	-8.28245
▁seen	-8.28278
der	-8.28439
id	-8.28792
ling	-8.29023
▁zum	-8.2907
▁human	-8.29336
▁machen	-8.29396
v	-8.2943
▁e	-8.29465
▁small	-8.29536
▁best	-8.29625
▁soon	-8.2985
▁wirklich	-8.30038
ir	-8.30701
ck	-8.31203
lo	-8.31215
▁big	-8.31346
ut	-8.32085
▁viel	-8.32238
ant	-8.3225
▁country	-8.3259
▁g	-8.3287
▁lot	-8.33018
▁weil	-8.33194
▁began	-8.33215
▁pro	-8.33747
▁year	-8.33989
as	-8.34072
▁ab	-8.34119
▁Sch	-8.34135
im	-8.34319
▁le	-8.3474
▁car	-8.34797
um	-8.34801
▁high	-8.34933
▁name	-8.35016
ies	-8.35426
▁hatte	-8.35904
▁ihre	-8.3595
▁believe	-8.36013
▁An	-8.36106
▁live	-8.36116
▁help	-8.36368
▁keine	-8.36412
▁myself	-8.36498
▁almost	-8.36536
▁five	-8.36634
▁talk	-8.36898
▁miss	-8.37562
less	-8.37731
▁p	-8.37873
▁white	-8.3788
▁anything	-8.37988
at	-8.38224
▁gave	-8.38485
▁idea	-8.38486
▁poor	-8.38558
▁point	-8.3861
men	-8.38848
▁doing	-8.39505
▁didn	-8.39744
▁turned	-8.3989
mp	-8.40059
ous	-8.40065
▁children	-8.40104
am	-8.40328
▁call	-8.40599
▁since	-8.40726
▁second	-8.40758
ce	-8.4096
ine	-8.4111
▁real	-8.41142
▁question	-8.41363
▁ma	-8.41493
▁girl	-8.42311
▁words	-8.42508
▁land	-8.43015
▁feel	-8.43177
▁morning	-8.43569
▁hard	-8.43662
▁open	-8.43685
▁power	-8.43741
ta	-8.43797
▁felt	-8.43822
▁einfach	-8.44255
▁keep	-8.44341
ste	-8.44634
▁hands	-8.448
▁until	-8.45075
▁Also	-8.45146
▁days	-8.45244
▁mean	-8.45329
▁women	-8.45368
▁money	-8.45483
▁among	-8.45707
to	-8.45955
▁viele	-8.46214
▁show	-8.46459
ful	-8.46491
▁zwei	-8.46505
ha	-8.46526
ru	-8.46667
▁matter	-8.4714
▁Leben	-8.47165
▁air	-8.47176
▁lady	-8.47176
▁perhaps	-8.47235
▁mo	-8.47328
▁able	-8.47341
▁black	-8.47477
▁less	-8.47479
▁used	-8.47524
▁bin	-8.47868
▁Leute	-8.47909
age	-8.47948
▁hope	-8.48101
▁müssen	-8.48189
▁story	-8.48244
▁nor	-8.48282
▁k	-8.48692
▁st	-8.48892
em	-8.49017
▁rest	-8.49131
▁co	-8.49405
ted	-8.49521
▁word	-8.49718
▁voice	-8.49831
▁change	-8.5005
ting	-8.50908
▁dis	-8.50936
▁T	-8.51227
▁child	-8.51351
▁sure	-8.51577
▁everything	-8.51991
▁person	-8.5203
▁care	-8.52187
led	-8.52788
lich	-8.52921
▁sea	-8.52952
▁Dinge	-8.53163
▁andere	-8.53214
▁however	-8.53293
ance	-8.5353
igen	-8.53812
▁rather	-8.53942
▁ob	-8.54196
nt	-8.54317
▁waren	-8.54442
."	-8.54528
▁dear	-8.54596
▁Was	-8.54617
iert	-8.54643
▁sagte	-8.54652
▁thank	-8.54826
▁dieses	-8.54916
▁bit	-8.55177
▁diesem	-8.5521
▁nature	-8.55326
▁wissen	-8.55449
▁boy	-8.55579
ke	-8.5571
▁large	-8.5587
▁friend	-8.55872
▁full	-8.55913
▁start	-8.56008
un	-8.56017
▁body	-8.56115
▁sagen	-8.56263
▁ex	-8.56295
▁ho	-8.56563
▁hundred	-8.56671
▁Jahren	-8.56781
▁reason	-8.56796
▁f	-8.56961
▁whom	-8.56963
▁understand	-8.57039
▁red	-8.57144
▁la	-8.57499
▁fire	-8.57585
▁true	-8.57683
au	-8.57761
op	-8.58189
mo	-8.58209
ish	-8.58267
▁sat	-8.58438
di	-8.58472
▁brought	-8.58483
▁stood	-8.58627
sten	-8.58635
▁d	-8.58823
▁hear	-8.5891
▁ca	-8.59359
▁diesen	-8.59425
▁round	-8.59467
▁earth	-8.59492
▁sort	-8.59515
▁death	-8.59803
▁herself	-8.60054
▁themselves	-8.60078
▁along	-8.60202
S	-8.60379
he	-8.60481
▁ask	-8.61016
▁St	-8.61131
▁-	-8.6119
Lachen	-8.61297
ad	-8.61304
ler	-8.6137
ty	-8.61423
▁ihr	-8.62285
▁feet	-8.62428
▁m	-8.62439
▁coming	-8.6248
▁gone	-8.62549
▁answer	-8.62551
▁Art	-8.62577
▁anderen	-8.62777
x	-8.62815
land	-8.62821
▁würde	-8.62867
▁means	-8.63382
ci	-8.63448
▁started	-8.63452
▁sense	-8.63548
▁per	-8.63551
min	-8.63614
▁taken	-8.63754
▁case	-8.63922
▁indeed	-8.64111
▁Da	-8.64308
▁play	-8.64373
▁six	-8.64389
▁state	-8.64735
▁cannot	-8.64815
▁jetzt	-8.64975
▁form	-8.6509
▁become	-8.6525
▁behind	-8.65327
▁present	-8.6597
chen	-8.66025
▁Jahre	-8.66139
▁doctor	-8.66228
▁selbst	-8.66333
▁wieder	-8.66401
▁ago	-8.66693
▁run	-8.66733
▁school	-8.66785
▁order	-8.66863
▁till	-8.67364
▁often	-8.67387
▁making	-8.67407
zu	-8.67551
und	-8.67724
▁wanted	-8.67778
A	-8.67835
▁unter	-8.68
▁So	-8.68078
▁ba	-8.68124
▁leave	-8.68184
ian	-8.68203
▁city	-8.68314
▁zur	-8.68347
co	-8.68669
▁replied	-8.68696
▁read	-8.68759
▁already	-8.688
▁gut	-8.68909
▁certain	-8.69202
▁dur	-8.69348
▁lay	-8.69385
▁bring	-8.69397
▁short	-8.69511
▁whether	-8.69589
▁applause	-8.69642
▁important	-8.69723
▁Man	-8.69763
ren	-8.69829
▁Der	-8.6984
▁beautiful	-8.69933
▁Ge	-8.70057
da	-8.70564
Gelächter	-8.7065
▁10	-8.70655
ben	-8.70678
▁speak	-8.70773
▁cried	-8.70775
▁bis	-8.70788
▁lo	-8.70818
▁wife	-8.70977
▁ten	-8.71148
os	-8.71523
ier	-8.71701
▁near	-8.72104
▁Wie	-8.72447
▁damit	-8.72696
▁20	-8.72792
bo	-8.72871
▁bo	-8.73061
▁business	-8.73355
▁ground	-8.7344
▁within	-8.7345
▁fear	-8.7353
▁muss	-8.73671
ft	-8.73725
▁number	-8.73744
▁given	-8.73834
▁others	-8.74286
ach	-8.7435
▁else	-8.74477
▁family	-8.74512
▁bed	-8.74637
▁alone	-8.74714
fe	-8.74854
ring	-8.74973
▁times	-8.75236
▁geht	-8.75269
▁dead	-8.75348
▁alles	-8.75349
▁sp	-8.75588
son	-8.75652
ated	-8.75671
▁turn	-8.75683
▁across	-8.76388
▁itself	-8.76416
▁ja	-8.76951
▁master	-8.77291
▁mein	-8.77338
ary	-8.77657
▁least	-8.77725
▁fl	-8.77899
▁close	-8.78286
▁son	-8.78381
ct	-8.78407
ungen	-8.78456
▁sometimes	-8.78472
▁sun	-8.78538
▁wish	-8.78557
▁sch	-8.78899
▁try	-8.78977
▁pretty	-8.7905
om	-8.79107
▁lord	-8.79113
▁dark	-8.79113
▁zurück	-8.79238
▁arm	-8.79321
ence	-8.79423
che	-8.7944
▁past	-8.7962
▁♫	-8.79633
ho	-8.79889
▁pre	-8.79909
kt	-8.79938
▁today	-8.79962
▁friends	-8.79975
▁bad	-8.80193
▁fast	-8.80334
▁remember	-8.80364
▁stand	-8.80452
ster	-8.8046
cht	-8.80647
▁F	-8.80848
▁whose	-8.80948
▁po	-8.81097
tor	-8.81193
▁percent	-8.81317
▁W	-8.81549
iv	-8.81694
▁became	-8.81726
▁ent	-8.81728
▁age	-8.81735
ner	-8.81741
▁Re	-8.81803
▁possible	-8.81845
ph	-8.81871
▁says	-8.8204
▁Vor	-8.8207
▁denn	-8.82595
pt	-8.82961
ating	-8.83266
▁M	-8.83328
▁law	-8.83519
▁seine	-8.83638
▁art	-8.83745
ard	-8.8375
▁system	-8.83837
ab	-8.84147
end	-8.84149
▁table	-8.84188
▁won	-8.84322
▁passed	-8.84331
ag	-8.84376
▁general	-8.84438
▁thus	-8.84741
▁b	-8.85083
▁ra	-8.85228
▁example	-8.85337
nk	-8.85344
tic	-8.85361
uch	-8.85405
▁thinking	-8.85415
▁hin	-8.85486
▁Kinder	-8.85488
▁book	-8.85539
Applaus	-8.85553
▁schon	-8.85574
▁sound	-8.85601
▁eines	-8.8594
▁vi	-8.85989
po	-8.86155
▁Diese	-8.86259
▁li	-8.86332
▁happened	-8.86567
▁line	-8.8664
▁therefore	-8.86738
lt	-8.86777
▁hour	-8.8686
dy	-8.86887
▁twenty	-8.87051
▁thousand	-8.87361
▁mal	-8.87386
▁free	-8.87481
ub	-8.8767
▁19	-8.87682
▁answered	-8.87851
▁t	-8.88152
▁sent	-8.88377
▁known	-8.88406
ische	-8.88576
▁möchte	-8.88692
▁ha	-8.88863
ischen	-8.88923
▁either	-8.88955
▁saying	-8.89062
go	-8.89158
▁lost	-8.89323
▁ihnen	-8.89719
▁wind	-8.89732
▁brain	-8.89946
▁thou	-8.89956
▁clear	-8.90185
▁fell	-8.90251
▁eye	-8.90426
ot	-8.9061
▁vielleicht	-8.90667
▁suddenly	-8.90883
▁horse	-8.90891
lu	-8.90895
▁P	-8.91093
▁sta	-8.91114
ial	-8.91202
▁later	-8.91253
▁above	-8.91849
▁en	-8.92218
▁living	-8.9231
▁space	-8.92422
ze	-8.92717
ac	-8.9275
▁ran	-8.92778
▁se	-8.92914
▁Teil	-8.92999
▁getting	-8.93036
▁taking	-8.93216
▁drei	-8.93227
▁prince	-8.93361
wa	-8.93368
▁design	-8.93388
▁public	-8.93448
ein	-8.93559
▁je	-8.93582
▁na	-8.93828
▁neue	-8.93987
▁trying	-8.94034
▁low	-8.94335
ious	-8.94341
▁weiter	-8.9438
▁fine	-8.94391
▁green	-8.9451
ud	-8.94812
▁z	-8.95096
▁zusammen	-8.95229
tro	-8.95331
vi	-8.95483
▁food	-8.9558
;	-8.95816
▁di	-8.95907
▁problem	-8.95921
▁em	-8.96169
heit	-8.96188
ism	-8.96269
▁road	-8.9628
▁act	-8.96385
bar	-8.96461
que	-8.96701
▁cl	-8.96921
▁cut	-8.97016
▁G	-8.97212
0	-8.97278
▁blood	-8.97372
▁manner	-8.97383
no	-8.97385
▁C	-8.97389
▁hatten	-8.97451
▁strange	-8.97492
▁davon	-8.97512
▁happy	-8.97582
▁einige	-8.97676
▁experience	-8.97681
▁R	-8.97768
hr	-8.9784
▁pass	-8.98026
▁truth	-8.98047
▁foot	-8.98066
▁genau	-8.98133
▁seven	-8.98334
her	-8.98335
▁deep	-8.9838
▁ganz	-8.98442
▁w	-8.98788
▁town	-8.98818
▁hold	-8.9892
▁common	-8.98958
mal	-8.99333
▁Aus	-8.99485
▁soul	-8.9961
▁bar	-8.99765
lie	-8.99828
▁kept	-8.99846
▁towards	-8.99848
▁evening	-8.99899
▁heute	-8.99909
▁Geschichte	-8.99952
sh	-9.00024
ow	-9.00028
▁gab	-9.00348
▁imp	-9.00361
▁simple	-9.00452
▁view	-9.00462
▁front	-9.0069
▁held	-9.00737
▁Beispiel	-9.00922
▁Se	-9.00949
▁Jahr	-9.00951
▁figure	-9.01032
▁brother	-9.01188
▁longer	-9.01302
▁strong	-9.01563
D	-9.01596
▁government	-9.01659
▁rose	-9.01838
ng	-9.01918
▁deal	-9.02073
▁meiner	-9.02089
▁subject	-9.02118
▁ready	-9.02129
▁hair	-9.02329
▁ihn	-9.02468
▁Ab	-9.02653
▁talking	-9.02842
▁probably	-9.02888
▁daughter	-9.02999
▁doesn	-9.03005
ien	-9.03016
▁könnte	-9.03141
▁several	-9.03442
ige	-9.03547
lin	-9.03579
▁Hier	-9.03618
up	-9.0364
▁music	-9.03732
▁cold	-9.03919
fi	-9.03982
va	-9.04231
▁Problem	-9.0436
rs	-9.04729
▁met	-9.04738
per	-9.05069
red	-9.05113
▁nun	-9.0524
▁future	-9.05351
▁blue	-9.05618
▁river	-9.05691
▁instead	-9.05728
▁doubt	-9.05749
▁c	-9.05882
▁ro	-9.06078
▁walk	-9.06565
▁weiß	-9.06601
pf	-9.06611
▁wollen	-9.06682
▁hours	-9.06713
▁dort	-9.06732
pp	-9.06735
ko	-9.06749
▁Ma	-9.06917
▁fellow	-9.06961
▁captain	-9.07024
▁sight	-9.07041
▁Ihre	-9.07087
ped	-9.07124
▁sondern	-9.07217
▁working	-9.07392
▁count	-9.07392
▁wrong	-9.07562
ex	-9.07766
▁self	-9.07941
▁social	-9.08028
▁returned	-9.08191
▁Nun	-9.08328
▁top	-9.08361
we	-9.08676
▁Als	-9.08689
▁wurden	-9.08785
▁maybe	-9.08813
▁street	-9.08933
do	-9.0909
ator	-9.09371
M	-9.09373
▁O	-9.09374
▁Arbeit	-9.09492
▁darüber	-9.09559
▁comp	-9.09639
▁sleep	-9.09689
ran	-9.09887
▁welche	-9.09927
rt	-9.09991
▁Tag	-9.10004
▁comes	-9.10057
▁stop	-9.1006
▁feeling	-9.10323
▁gehen	-9.10487
▁dream	-9.10739
▁unserer	-9.10871
▁paar	-9.10883
2	-9.10889
▁Le	-9.10892
▁fish	-9.10992
ah	-9.11085
▁single	-9.11107
▁move	-9.11347
our	-9.11402
▁letter	-9.11413
▁Auf	-9.11881
ley	-9.11925
▁werde	-9.12047
fa	-9.12469
ti	-9.12475
B	-9.12692
tra	-9.12724
▁eight	-9.1282
ip	-9.12858
▁yourself	-9.12912
▁learn	-9.12937
▁early	-9.13014
▁seem	-9.13238
ger	-9.13267
▁return	-9.13308
▁minutes	-9.13357
▁'	-9.13364
▁gar	-9.1345
nen	-9.13508
zi	-9.13607
▁sc	-9.13683
▁window	-9.13754
▁tried	-9.1396
▁arms	-9.13964
▁follow	-9.1439
pi	-9.14615
rk	-9.14652
ical	-9.1466
▁wild	-9.14705
▁ru	-9.14777
mon	-9.14824
▁H	-9.14926
▁chance	-9.14979
▁kein	-9.14991
▁wäre	-9.15013
▁million	-9.15125
hal	-9.15129
ca	-9.15196
ward	-9.15477
way	-9.15607
cy	-9.15835
▁tatsächlich	-9.15845
les	-9.15892
ken	-9.15908
liche	-9.15967
▁lives	-9.16009
▁third	-9.16139
▁mar	-9.16266
▁pay	-9.16374
▁wichtig	-9.16982
▁wall	-9.17161
▁company	-9.17238
ka	-9.17384
▁character	-9.17447
▁mine	-9.17565
▁tree	-9.17569
▁certainly	-9.1765
▁john	-9.17733
▁Eine	-9.17877
▁account	-9.17921
ding	-9.17971
▁natural	-9.18052
▁Gehirn	-9.18264
▁husband	-9.18264
▁information	-9.18453
▁mu	-9.18472
▁piece	-9.18473
▁english	-9.18479
▁fair	-9.18483
▁forward	-9.1871
▁late	-9.1878
▁church	-9.18867
gg	-9.18901
▁nie	-9.18982
▁glad	-9.191
▁vom	-9.19302
▁ju	-9.19676
▁process	-9.19692
ized	-9.20028
▁Wasser	-9.20191
mit	-9.20299
▁project	-9.20434
▁sogar	-9.20581
nce	-9.20606
▁sw	-9.20649
con	-9.20778
▁spoke	-9.20994
▁followed	-9.2101
▁Im	-9.21037
▁health	-9.21083
ug	-9.21147
pe	-9.21148
▁stay	-9.21303
▁picture	-9.21416
▁denken	-9.21709
nd	-9.21831
▁3	-9.21878
▁meet	-9.21892
▁dazu	-9.21901
▁suppose	-9.21902
▁lived	-9.21925
▁cause	-9.22531
ure	-9.22538
pa	-9.22599
tz	-9.22648
▁kommen	-9.22683
bi	-9.22786
▁global	-9.22789
▁makes	-9.22819
▁lu	-9.22855
▁bear	-9.22865
▁Frauen	-9.22867
▁states	-9.22931
T	-9.23003
▁step	-9.23175
ga	-9.23227
▁court	-9.23239
stand	-9.23303
▁rich	-9.23307
▁interesting	-9.23359
hi	-9.23395
▁cha	-9.23409
vo	-9.23464
▁finden	-9.23503
▁seeing	-9.23512
är	-9.23619
▁ye	-9.23632
▁heraus	-9.2365
isch	-9.23657
▁history	-9.23739
the	-9.23808
▁garden	-9.2382
▁fall	-9.23846
▁trouble	-9.23935
▁leben	-9.23954
▁data	-9.2402
▁further	-9.24056
▁building	-9.24109
▁months	-9.24148
ov	-9.24151
▁Weg	-9.24167
ba	-9.24321
▁watch	-9.24334
▁eat	-9.2434
▁society	-9.24373
▁seems	-9.2441
▁wood	-9.24491
ib	-9.24636
▁south	-9.24713
▁technology	-9.24739
▁gold	-9.24802
▁purpose	-9.24831
▁plan	-9.24975
▁denke	-9.25013
▁opened	-9.2504
▁30	-9.2512
▁led	-9.25142
▁Pa	-9.2521
▁L	-9.25261
▁bright	-9.25298
▁große	-9.25311
▁beyond	-9.25429
ap	-9.25623
ations	-9.25751
by	-9.25782
▁sweet	-9.25799
▁Sp	-9.25886
▁De	-9.25907
▁science	-9.25937
▁Land	-9.25948
▁sha	-9.25971
8	-9.26083
▁Frage	-9.26085
▁bra	-9.26133
ions	-9.262
▁bank	-9.26321
▁ohne	-9.26465
▁thy	-9.26494
äh	-9.26561
▁macht	-9.26562
▁wait	-9.26621
▁interest	-9.26627
ugh	-9.26652
▁cap	-9.26664
▁create	-9.26679
ni	-9.26698
ative	-9.26741
so	-9.26795
▁inside	-9.26804
▁imagine	-9.26805
▁whatever	-9.26837
zen	-9.26845
▁zwischen	-9.26981
▁ta	-9.27006
▁gerade	-9.27106
▁ship	-9.27123
▁none	-9.27247
▁paper	-9.27247
▁N	-9.27283
▁attention	-9.27292
tri	-9.27319
▁reached	-9.27341
tin	-9.27361
▁einmal	-9.27384
▁happen	-9.27802
▁learned	-9.27918
▁object	-9.27932
hn	-9.27967
ell	-9.27987
▁send	-9.28005
▁Dies	-9.28014
▁50	-9.28018
▁unser	-9.28109
▁secret	-9.2822
io	-9.2822
elle	-9.28308
ral	-9.28343
▁except	-9.28462
▁outside	-9.28688
▁allow	-9.28744
▁Um	-9.2924
▁konnte	-9.29312
▁post	-9.29326
▁week	-9.29344
▁appeared	-9.29344
P	-9.29365
▁erste	-9.29381
!	-9.29412
▁goes	-9.29434
▁I	-9.29524
▁sitting	-9.29547
▁middle	-9.29576
▁Mal	-9.29592
ily	-9.29665
▁D	-9.29685
▁Z	-9.2969
pro	-9.29699
▁effect	-9.29701
▁natürlich	-9.29814
▁sign	-9.29831
▁ne	-9.29833
▁miles	-9.30033
ik	-9.30095
▁easy	-9.30104
▁dollars	-9.30112
▁geben	-9.30159
▁100	-9.30418
▁particular	-9.30431
▁Me	-9.30492
▁decided	-9.30561
pl	-9.30567
fer	-9.30599
▁test	-9.30639
▁although	-9.30929
▁cat	-9.31061
▁hu	-9.31108
▁gemacht	-9.31231
ang	-9.31396
▁north	-9.31456
▁dr	-9.31544
4	-9.3168
▁dar	-9.31699
▁control	-9.31772
▁continued	-9.31908
1	-9.31927
ak	-9.31928
qui	-9.31929
sp	-9.31961
▁carried	-9.32008
▁sub	-9.32106
▁language	-9.32155
▁denen	-9.32222
▁tra	-9.32225
▁begin	-9.32294
ß	-9.32391
▁color	-9.32455
ör	-9.32475
▁ihren	-9.32506
▁force	-9.32509
▁born	-9.32589
▁jeder	-9.32599
▁walked	-9.32605
▁stuff	-9.32607
▁please	-9.32613
hen	-9.32725
▁würden	-9.32819
▁pe	-9.32847
bel	-9.32863
▁ri	-9.32928
▁wonder	-9.32956
▁Zu	-9.33
▁toward	-9.33136
5	-9.3317
▁quickly	-9.33195
▁action	-9.33255
▁kommt	-9.33378
▁glaube	-9.33492
▁ought	-9.33497
▁knowledge	-9.33546
▁spirit	-9.3363
▁save	-9.33861
ise	-9.33964
▁zeigen	-9.34
▁uncle	-9.3404
ally	-9.34113
sa	-9.34172
ging	-9.34281
▁gra	-9.34393
▁sa	-9.34404
los	-9.34426
ron	-9.34532
ile	-9.3455
▁Daten	-9.34675
ship	-9.34698
▁pan	-9.34724
▁warm	-9.34769
▁ersten	-9.34828
▁position	-9.34844
▁dafür	-9.34867
▁besser	-9.35027
▁kleine	-9.35158
▁daran	-9.35315
tion	-9.35363
▁couldn	-9.35517
mi	-9.35553
▁trees	-9.3565
▁heaven	-9.35776
zeit	-9.35797
▁boat	-9.35814
▁verstehen	-9.35823
ably	-9.3592
▁star	-9.35942
▁passiert	-9.36043
▁breath	-9.36045
▁Grund	-9.36059
▁dress	-9.36113
E	-9.36145
▁everybody	-9.36337
lichen	-9.36389
▁rec	-9.3652
▁pleasure	-9.36543
▁meisten	-9.3656
▁hall	-9.3658
▁smile	-9.36616
▁forest	-9.36627
av	-9.36631
▁exactly	-9.3683
ble	-9.36869
▁wonderful	-9.36911
▁using	-9.36983
ür	-9.37106
▁beginning	-9.37119
▁sit	-9.37127
▁energy	-9.37164
▁neither	-9.37216
mer	-9.3722
▁chair	-9.37244
rie	-9.37274
eln	-9.37298
ps	-9.37302
▁cross	-9.37549
gel	-9.3756
▁exist	-9.37617
▁etwa	-9.37666
▁al	-9.37725
▁sister	-9.37733
▁mouth	-9.37753
com	-9.37784
lang	-9.3782
tu	-9.37879
▁bri	-9.37903
3	-9.37922
▁party	-9.3794
?"	-9.37994
▁sieht	-9.38012
rr	-9.3821
▁fe	-9.38227
▁fi	-9.38306
chte	-9.38382
▁während	-9.38469
▁wenig	-9.38474
▁ko	-9.38484
W	-9.38681
▁rock	-9.38765
▁job	-9.3879
▁desire	-9.38819
▁write	-9.38844
▁nearly	-9.38912
lei	-9.38917
9	-9.38972
bu	-9.38979
▁value	-9.39002
▁Ha	-9.39012
▁grew	-9.39097
▁standing	-9.3928
▁ga	-9.39329
▁spring	-9.39398
▁chief	-9.3942
▁queen	-9.39424
K	-9.39555
▁ganze	-9.396
▁respect	-9.39639
▁added	-9.39762
▁girls	-9.39799
fen	-9.39823
ities	-9.39851
▁ging	-9.39918
▁Bild	-9.39923
▁Geld	-9.40075
▁afraid	-9.40165
halten	-9.40276
▁game	-9.40389
▁received	-9.40441
▁personal	-9.40455
if	-9.40464
▁build	-9.40625
▁Un	-9.40628
▁cost	-9.40786
ction	-9.40796
▁finally	-9.40858
▁sollte	-9.40897
▁joy	-9.41147
▁Millionen	-9.41172
bb	-9.41184
6	-9.41322
▁entered	-9.41324
cken	-9.41327
▁island	-9.41449
▁ste	-9.4168
▁grow	-9.41746
N	-9.41765
▁ni	-9.4178
▁ideas	-9.41873
▁places	-9.41885
▁Lebens	-9.41928
▁shape	-9.41938
▁built	-9.41946
▁path	-9.42106
▁princess	-9.42139
▁meinem	-9.42146
▁sollten	-9.42164
▁leg	-9.42266
▁sicher	-9.4229
▁15	-9.42306
ide	-9.42349
nder	-9.42619
▁changed	-9.42656
▁warum	-9.42752
▁dog	-9.42908
C	-9.42984
▁ourselves	-9.42985
▁conversation	-9.43205
▁cool	-9.43288
▁office	-9.43333
bra	-9.43376
7	-9.43407
▁wollte	-9.43469
▁Prozent	-9.43705
▁meinen	-9.43864
▁difference	-9.43927
▁Idee	-9.44025
▁ve	-9.44164
▁loved	-9.44197
▁direction	-9.44312
▁lassen	-9.44435
▁measure	-9.44481
▁united	-9.44575
ors	-9.44586
▁Ro	-9.44588
▁bell	-9.44722
▁hi	-9.44807
▁corner	-9.4481
▁planet	-9.44878
▁könnten	-9.45059
ey	-9.45067
▁simply	-9.45097
▁silence	-9.45153
▁trust	-9.45232
▁pen	-9.45261
▁level	-9.45266
▁kids	-9.45269
▁field	-9.45296
▁consider	-9.45329
▁stopped	-9.45339
▁jo	-9.45612
▁beauty	-9.45716
cu	-9.45924
▁pain	-9.45997
▁fa	-9.46041
ium	-9.46101
ize	-9.4619
ping	-9.46208
▁floor	-9.46362
▁giving	-9.46454
▁study	-9.46916
▁england	-9.46974
▁letzten	-9.47001
▁running	-9.4704
▁support	-9.47082
▁forth	-9.47137
▁ihrer	-9.47207
ld	-9.47289
▁Mit	-9.47313
▁Ja	-9.47322
▁fight	-9.47384
▁La	-9.47521
▁necessary	-9.47599
▁visit	-9.47768
▁couple	-9.47772
▁Raum	-9.47791
▁strength	-9.47887
▁eighteen	-9.47892
▁kam	-9.47906
▁möglich	-9.47969
▁animals	-9.48145
▁el	-9.48148
art	-9.48325
▁group	-9.48359
▁laid	-9.48471
za	-9.48585
▁occasion	-9.48632
▁travel	-9.48715
ek	-9.48733
▁nice	-9.48736
▁lead	-9.48779
▁fit	-9.48877
▁mor	-9.4888
fall	-9.48914
▁caught	-9.48932
▁ways	-9.48973
ible	-9.48974
▁j	-9.49046
▁nine	-9.49092
H	-9.49108
▁result	-9.49133
▁worth	-9.49145
▁computer	-9.49166
▁gentleman	-9.4924
▁gre	-9.49287
▁Co	-9.49371
▁straight	-9.49402
▁distance	-9.49518
ition	-9.49537
▁immediately	-9.4965
▁spot	-9.49686
du	-9.49746
▁expect	-9.49855
▁opinion	-9.49988
rü	-9.50032
▁su	-9.5021
▁sprechen	-9.50258
▁heavy	-9.50285
▁Ko	-9.50305
▁Ende	-9.50341
▁mary	-9.50408
▁machine	-9.50434
▁box	-9.50469
▁normal	-9.505
▁habit	-9.50579
▁touch	-9.5064
▁bound	-9.50676
ord	-9.50757
▁hot	-9.50758
▁arbeiten	-9.5077
▁dabei	-9.50778
▁length	-9.50936
▁vier	-9.50944
▁ah	-9.51038
▁countries	-9.51126
▁add	-9.5114
od	-9.51204
kommen	-9.51224
▁perfect	-9.51262
▁Spiel	-9.51307
▁showed	-9.51345
oc	-9.5156
▁dinner	-9.51661
▁forget	-9.51679
bau	-9.51679
▁soft	-9.51698
▁He	-9.51819
gehen	-9.51844
▁american	-9.51859
▁lang	-9.51864
▁bedeutet	-9.51954
cher	-9.51974
fl	-9.52103
ified	-9.52108
▁ill	-9.52208
▁books	-9.52301
▁service	-9.52376
ite	-9.52436
▁camp	-9.52497
▁inter	-9.52528
▁wide	-9.52535
▁grave	-9.5261
▁guess	-9.52622
aus	-9.52728
▁ziemlich	-9.52739
▁search	-9.528
F	-9.52875
▁sky	-9.53006
▁difficult	-9.53009
▁bl	-9.53058
one	-9.53081
▁break	-9.53084
▁share	-9.53293
▁french	-9.53347
▁york	-9.53353
▁Körper	-9.5353
fr	-9.5359
▁looks	-9.53601
▁peace	-9.53613
▁especially	-9.53652
sche	-9.53702
▁regard	-9.5371
▁sagt	-9.53798
▁blow	-9.53857
▁lie	-9.54006
G	-9.5406
▁london	-9.54082
▁snow	-9.54082
▁l	-9.54255
▁Di	-9.54296
▁spend	-9.54499
lf	-9.54511
war	-9.54601
▁news	-9.54609
▁attempt	-9.5476
val	-9.54835
ende	-9.54861
▁Ort	-9.54929
▁cra	-9.5496
▁drew	-9.55008
▁mag	-9.55035
line	-9.55055
▁impossible	-9.55069
▁education	-9.55206
lic	-9.5536
ki	-9.55437
▁special	-9.55443
▁reach	-9.55469
▁waiting	-9.5561
▁wa	-9.55635
▁market	-9.55697
▁weniger	-9.5574
▁darauf	-9.55762
▁glass	-9.55773
▁disease	-9.55817
▁hardly	-9.55849
▁aunt	-9.55854
▁attack	-9.55882
▁bekommen	-9.55895
ration	-9.55909
▁model	-9.55926
▁america	-9.55963
▁broken	-9.5599
▁village	-9.56005
▁stone	-9.56021
▁unseren	-9.56037
tel	-9.56039
▁success	-9.5609
▁safe	-9.56212
si	-9.56329
ments	-9.56382
ris	-9.56391
▁type	-9.56399
ned	-9.56401
▁species	-9.56444
gu	-9.56541
▁ocean	-9.5657
▁moved	-9.56621
▁zeigt	-9.56633
▁2	-9.56643
ric	-9.56647
▁har	-9.56705
▁journey	-9.56885
ick	-9.56915
▁following	-9.56942
▁stick	-9.57035
▁200	-9.57044
▁th	-9.57078
▁train	-9.5709
▁ange	-9.57207
▁System	-9.57214
▁buy	-9.57365
▁pick	-9.57416
▁ti	-9.57429
".	-9.57471
▁grand	-9.5764
▁slowly	-9.57775
▁huge	-9.57984
▁tro	-9.58208
dle	-9.58208
▁stories	-9.5829
form	-9.58373
▁organ	-9.58454
▁dachte	-9.58458
▁questions	-9.58575
rus	-9.58642
▁quick	-9.58679
▁Pro	-9.5872
▁Nach	-9.588
▁shot	-9.58811
▁content	-9.58869
▁battle	-9.59061
▁someone	-9.59115
▁Computer	-9.59122
▁isn	-9.59143
▁Mo	-9.59242
▁west	-9.59305
▁struck	-9.59381
▁listen	-9.59385
▁eigentlich	-9.5951
▁exclaimed	-9.5955
▁gate	-9.59572
▁key	-9.59629
▁bi	-9.59657
▁mark	-9.59692
▁boys	-9.59754
▁doch	-9.59768
▁class	-9.59833
▁Dann	-9.59917
▁danger	-9.60081
▁Dank	-9.60149
▁minute	-9.60175
▁modern	-9.60229
▁pa	-9.60238
▁Li	-9.60348
▁shadow	-9.60357
▁expression	-9.60423
▁board	-9.60439
▁report	-9.60536
▁main	-9.60541
▁bottom	-9.60554
▁animal	-9.60657
▁brown	-9.60748
▁experiment	-9.60751
▁spread	-9.60751
.000	-9.60752
▁wouldn	-9.6076
▁win	-9.6079
▁completely	-9.60843
▁Mann	-9.60865
▁happens	-9.60884
nie	-9.60918
00	-9.61026
schaft	-9.61028
▁thick	-9.61087
▁tone	-9.61125
▁Schw	-9.61174
▁discovered	-9.61321
▁com	-9.61322
▁quiet	-9.61367
▁knight	-9.61542
▁nehmen	-9.61565
wer	-9.61687
▁che	-9.61711
▁Sa	-9.6173
▁filled	-9.61749
▁rep	-9.61785
▁brauchen	-9.61795
▁sei	-9.61807
▁ka	-9.62036
tte	-9.62069
▁blind	-9.62145
▁iron	-9.62175
▁wrote	-9.6234
▁fresh	-9.6234
▁fest	-9.62424
ries	-9.62466
trag	-9.62504
▁min	-9.6256
▁mountain	-9.62603
lä	-9.62741
▁ball	-9.62811
▁research	-9.62875
▁guard	-9.62906
▁seat	-9.62923
▁scene	-9.62959
▁situation	-9.63009
▁va	-9.63091
ock	-9.63103
▁thirty	-9.63278
anz	-9.63419
▁below	-9.63466
▁somebody	-9.6348
▁tea	-9.6353
▁worked	-9.63542
▁surface	-9.63549
oo	-9.63637
▁pocket	-9.63683
▁besides	-9.63722
▁kleinen	-9.63741
▁qu	-9.63775
ität	-9.63999
▁amount	-9.64034
▁Denn	-9.64099
gi	-9.64145
stellen	-9.64166
▁ausge	-9.6424
igkeit	-9.64243
Ich	-9.64244
let	-9.64249
▁killed	-9.64251
▁Fall	-9.6427
▁plain	-9.64312
wi	-9.64329
▁rise	-9.64369
▁gute	-9.64396
▁port	-9.6441
▁Ihr	-9.64439
side	-9.64459
▁Energie	-9.64471
%	-9.64498
▁spent	-9.64508
▁africa	-9.64521
▁Ka	-9.64543
ja	-9.64568
▁happiness	-9.64635
▁clean	-9.64704
ellen	-9.64786
teil	-9.64846
▁kill	-9.6488
▁fifty	-9.64977
▁private	-9.64977
▁super	-9.64991
▁pack	-9.64991
▁glance	-9.65052
▁video	-9.65068
▁community	-9.65114
ture	-9.65166
ute	-9.65242
▁moral	-9.65304
▁Technologie	-9.65347
▁sand	-9.65355
▁cor	-9.65358
▁nobody	-9.65458
ress	-9.65584
▁greater	-9.65671
▁Dollar	-9.65679
R	-9.6583
▁hole	-9.65845
▁tears	-9.65877
▁dance	-9.65979
▁moon	-9.65997
▁judge	-9.6601
▁moving	-9.66079
▁Über	-9.66215
▁risk	-9.66231
▁Kon	-9.66232
uer	-9.66294
▁seit	-9.66339
▁ice	-9.66354
ett	-9.66434
▁ring	-9.66552
▁jeden	-9.66575
▁turning	-9.66576
▁Na	-9.66668
ever	-9.66791
▁sad	-9.6686
▁speaking	-9.66908
▁opportunity	-9.66914
▁Am	-9.66946
▁Sache	-9.67172
▁charge	-9.67178
▁offer	-9.67215
▁jemand	-9.67242
▁written	-9.67264
▁Form	-9.67359
▁5	-9.67437
▁12	-9.67467
spe	-9.67505
all	-9.67534
▁appearance	-9.67562
▁meaning	-9.6768
▁wi	-9.67728
▁san	-9.67784
▁terrible	-9.67826
▁rate	-9.67896
▁sick	-9.67925
▁lower	-9.68008
▁gegen	-9.68043
▁Ho	-9.6805
▁sudden	-9.68066
▁Moment	-9.68077
▁richtig	-9.68131
▁beside	-9.68184
▁schnell	-9.68209
▁notice	-9.68334
▁sal	-9.68346
▁draw	-9.68381
▁Projekt	-9.68476
▁pale	-9.68504
▁everyone	-9.68528
ham	-9.68529
▁Zukunft	-9.68535
▁tu	-9.68556
ierte	-9.68556
▁hätte	-9.68576
▁bringen	-9.686
▁fashion	-9.68604
▁ihm	-9.68638
L	-9.68669
▁Person	-9.68684
▁comfort	-9.68706
auf	-9.6876
▁40	-9.68816
▁shut	-9.6884
▁mad	-9.68842
▁east	-9.68864
▁died	-9.68869
▁Stadt	-9.689
I	-9.68909
▁saint	-9.69033
▁placed	-9.69043
▁te	-9.69083
▁meant	-9.69108
▁record	-9.69114
▁baby	-9.69201
▁entire	-9.69278
ther	-9.69292
ign	-9.69309
▁product	-9.69384
▁powerful	-9.6948
▁carry	-9.69486
▁fo	-9.69522
▁period	-9.69532
▁condition	-9.6962
▁4	-9.69636
▁18	-9.69685
rg	-9.69787
▁size	-9.69822
▁bird	-9.69888
▁choice	-9.69895
▁Gr	-9.69993
▁erst	-9.7002
▁youth	-9.7002
▁fra	-9.70037
▁easily	-9.70108
▁funktioniert	-9.7018
▁palace	-9.70182
▁Kind	-9.70275
▁Frau	-9.70285
▁army	-9.70367
▁gesehen	-9.7039
▁broad	-9.70406
▁summer	-9.70409
▁bill	-9.7041
▁individual	-9.70437
ford	-9.70478
▁race	-9.70544
▁großen	-9.70711
ucht	-9.70746
▁explain	-9.70912
fan	-9.70946
▁recht	-9.70974
▁worse	-9.71051
▁cover	-9.71078
par	-9.7111
▁Ra	-9.71113
▁wise	-9.71141
port	-9.7116
▁wahr	-9.7129
for	-9.71294
▁skin	-9.71298
▁national	-9.71308
king	-9.71356
▁allowed	-9.71381
▁evil	-9.71488
▁married	-9.71488
gra	-9.71601
rück	-9.71611
▁Menge	-9.71723
▁remained	-9.71904
▁pleasant	-9.71928
▁parts	-9.72021
▁laughed	-9.72076
▁billion	-9.72179
▁kurz	-9.72296
▁Du	-9.72308
and	-9.72335
▁Mi	-9.72364
▁command	-9.72394
▁Weise	-9.72408
▁surprise	-9.7242
▁influence	-9.72443
",	-9.7253
▁lose	-9.72566
▁lips	-9.72644
▁stranger	-9.72856
▁raised	-9.729
isten	-9.72909
▁stream	-9.72917
unt	-9.72931
▁Al	-9.72961
▁noise	-9.72984
▁rain	-9.73001
▁physical	-9.73109
▁writing	-9.73109
▁image	-9.73121
ay	-9.7315
▁arrived	-9.73232
▁später	-9.73323
▁margaret	-9.73333
spiel	-9.73384
geben	-9.73483
nehmen	-9.73491
▁speech	-9.73556
▁fortune	-9.73557
▁chapter	-9.73577
▁afternoon	-9.73631
▁cast	-9.73675
▁complete	-9.73681
▁app	-9.7371
▁understood	-9.73781
▁Fa	-9.7385
▁remain	-9.73869
▁entirely	-9.73898
▁loud	-9.74044
▁program	-9.74054
▁mass	-9.74055
...	-9.7414
▁anne	-9.74147
▁leaving	-9.74231
▁Punkt	-9.74231
▁growing	-9.74255
▁quarter	-9.74306
bl	-9.74419
▁drive	-9.74497
▁harm	-9.74499
▁ce	-9.74507
▁tri	-9.74587
bt	-9.74679
▁political	-9.74683
▁Licht	-9.74716
af	-9.74751
▁cry	-9.74772
▁promise	-9.74896
▁store	-9.749
▁Erde	-9.75
▁likely	-9.75012
▁lad	-9.7506
uf	-9.75073
▁par	-9.75073
▁sah	-9.7514
▁gi	-9.75224
▁clothes	-9.75255
▁Seite	-9.75264
▁lange	-9.7534
▁Auto	-9.75345
▁covered	-9.75356
▁honor	-9.7538
cent	-9.75397
▁prevent	-9.7544
iz	-9.75444
sicht	-9.75527
▁according	-9.75533
▁entwickelt	-9.75669
▁march	-9.75675
▁winter	-9.75732
▁weeks	-9.75764
wo	-9.75862
▁amazing	-9.75898
wand	-9.7593
des	-9.7594
▁okay	-9.7598
▁works	-9.75992
▁song	-9.76043
ied	-9.76052
▁peter	-9.76062
▁ganzen	-9.76085
▁sail	-9.76118
▁terms	-9.76141
▁rule	-9.76285
system	-9.76313
▁cook	-9.76381
▁mis	-9.76418
▁h	-9.76469
▁guy	-9.76503
▁speed	-9.76597
sta	-9.76602
▁presence	-9.76666
▁keinen	-9.76694
▁bre	-9.7672
tung	-9.76876
▁meeting	-9.76922
▁braucht	-9.76985
▁gas	-9.77128
▁Sta	-9.77144
▁tall	-9.77153
▁gesagt	-9.77283
▁edge	-9.77295
▁bread	-9.77301
▁pi	-9.77339
ismus	-9.7738
▁Männer	-9.77438
▁glauben	-9.77522
vers	-9.77527
▁Bei	-9.7755
▁needed	-9.77551
▁sorry	-9.77599
▁expected	-9.77631
▁hill	-9.77674
▁message	-9.77683
▁r	-9.77698
▁ok	-9.77724
▁walking	-9.77739
▁Danke	-9.7774
▁catch	-9.77857
ade	-9.77912
▁1	-9.77921
▁marriage	-9.77983
▁thin	-9.78011
▁Hand	-9.78038
▁beim	-9.78103
▁crowd	-9.78159
▁stage	-9.7816
▁Antwort	-9.78217
▁problems	-9.78294
▁drink	-9.78392
▁bow	-9.78477
▁hoch	-9.78492
▁unless	-9.78511
▁grace	-9.78576
▁schön	-9.78611
▁Ba	-9.78614
pass	-9.78618
▁cancer	-9.78621
▁fünf	-9.78688
▁telling	-9.78721
▁konnten	-9.78885
▁movement	-9.78965
▁eigenen	-9.78969
▁local	-9.79015
▁universe	-9.7916
▁century	-9.79239
▁Warum	-9.79286
000	-9.79373
▁neck	-9.79382
▁noble	-9.79467
▁Vi	-9.79507
els	-9.79582
▁Ta	-9.79679
▁passion	-9.79725
ists	-9.7975
▁interested	-9.79771
▁usual	-9.79785
▁month	-9.79828
▁shore	-9.7988
▁silent	-9.79937
▁Mutter	-9.79953
▁plant	-9.79956
tur	-9.80008
▁silver	-9.80033
▁horses	-9.80044
▁Probleme	-9.8006
▁similar	-9.80192
▁broke	-9.80202
ale	-9.80294
▁conduct	-9.80353
▁perfectly	-9.80373
▁einzige	-9.80378
▁lernen	-9.80432
▁suit	-9.80505
▁van	-9.80532
▁mill	-9.80675
▁beat	-9.80733
▁appear	-9.80741
▁qua	-9.8082
▁Regierung	-9.80832
▁parents	-9.80897
ny	-9.80955
ack	-9.81013
▁challenge	-9.81073
▁disc	-9.81082
▁drop	-9.811
▁protect	-9.811
▁square	-9.81236
app	-9.81251
▁learning	-9.81404
▁schwer	-9.81493
ill	-9.81511
nom	-9.81547
▁versuchen	-9.81601
▁closed	-9.81613
ku	-9.81619
▁nutzen	-9.81726
▁higher	-9.81735
pen	-9.81873
▁Bi	-9.81967
ob	-9.82039
▁helfen	-9.82049
▁indem	-9.82053
▁fly	-9.82126
▁Vielen	-9.82133
▁ted	-9.82135
▁neu	-9.82138
▁stellen	-9.82187
▁v	-9.82224
▁grass	-9.82263
▁ancient	-9.8237
▁thoughts	-9.82547
▁yellow	-9.82618
elt	-9.82637
ank	-9.82643
▁cur	-9.82772
▁unglaublich	-9.82778
▁golden	-9.828
arbeit	-9.82855
▁fer	-9.82893
▁hit	-9.82946
▁various	-9.82957
▁offen	-9.82963
▁ladies	-9.82969
▁sex	-9.83033
▁Natur	-9.83048
dem	-9.83116
▁„	-9.83123
▁n	-9.83198
log	-9.83262
▁Gefühl	-9.8327
▁legs	-9.83287
▁park	-9.83321
▁evidence	-9.83353
▁25	-9.83492
▁cell	-9.83572
▁greatest	-9.83607
▁police	-9.83683
▁thousands	-9.83778
▁cells	-9.83832
▁instance	-9.83853
fully	-9.83995
▁vielen	-9.84054
▁created	-9.8406
▁taste	-9.84072
▁material	-9.84095
ook	-9.84135
iger	-9.84186
▁flow	-9.84212
▁char	-9.84262
▁schaffen	-9.84271
▁Wo	-9.84286
schen	-9.84331
▁laugh	-9.84455
O	-9.84506
▁finding	-9.84549
▁marry	-9.84742
▁heat	-9.8497
▁tail	-9.85048
▁Gesellschaft	-9.85097
▁shop	-9.85123
tle	-9.85155
▁threw	-9.85181
▁steps	-9.85232
▁memory	-9.85265
▁flowers	-9.85344
▁serious	-9.85599
▁ph	-9.8561
▁talked	-9.85624
▁weit	-9.85647
▁bag	-9.85649
▁sing	-9.85653
▁pray	-9.85657
▁basically	-9.8569
tan	-9.85809
▁wear	-9.85823
▁pu	-9.85887
▁major	-9.85894
▁dick	-9.8599
▁sharp	-9.86023
▁patient	-9.86033
▁slow	-9.86069
▁sh	-9.86173
▁drawing	-9.86227
▁join	-9.86248
▁economic	-9.86277
▁pet	-9.86392
▁wished	-9.86395
▁calm	-9.86479
▁putting	-9.86562
▁morrow	-9.86624
▁Entwicklung	-9.86702
▁faint	-9.8679
▁duty	-9.86974
▁escape	-9.86993
▁paid	-9.87164
▁heißt	-9.87218
wood	-9.87227
▁gal	-9.87283
▁custom	-9.873
▁birds	-9.87331
▁produce	-9.87336
use	-9.87449
▁trade	-9.87453
▁jedes	-9.87506
▁Ga	-9.87524
▁depend	-9.87554
▁treat	-9.87571
chten	-9.87599
ins	-9.87641
▁wahrscheinlich	-9.87643
▁accept	-9.87658
▁cu	-9.87698
▁anders	-9.87707
▁Herz	-9.87772
▁cre	-9.87849
▁china	-9.87869
▁supposed	-9.87883
▁instant	-9.87912
▁progress	-9.87997
▁faith	-9.88053
▁curious	-9.88087
▁india	-9.88131
▁wasn	-9.88216
kl	-9.88254
▁reading	-9.8827
▁log	-9.88314
▁turns	-9.88375
▁fun	-9.88397
og	-9.88455
▁lying	-9.88458
▁terror	-9.88506
▁twelve	-9.88593
▁enemy	-9.88593
▁klar	-9.88914
iti	-9.88937
ai	-9.88938
▁fallen	-9.88993
▁absolutely	-9.88996
▁cru	-9.89096
▁reality	-9.89136
tag	-9.89156
▁revolution	-9.89202
rin	-9.89257
▁audience	-9.89289
▁positive	-9.89293
▁sto	-9.89294
▁pat	-9.89342
▁anxious	-9.89377
tar	-9.89377
▁USA	-9.89471
▁cities	-9.89487
▁honest	-9.89553
▁page	-9.89587
▁hero	-9.89592
▁unserem	-9.89607
▁knowing	-9.89631
uc	-9.89709
▁Jetzt	-9.89729
▁dry	-9.89735
▁Afrika	-9.89815
hl	-9.89895
▁advantage	-9.89903
▁brave	-9.89949
ual	-9.8997
▁existence	-9.90192
▁genug	-9.90265
▁sword	-9.90372
▁sur	-9.9042
▁culture	-9.90522
▁Wissen	-9.90523
▁discover	-9.90538
▁oil	-9.90583
▁Buch	-9.90591
▁alive	-9.90594
nc	-9.90613
▁station	-9.90657
▁merely	-9.90763
▁scarcely	-9.90772
▁sell	-9.90792
len	-9.90882
▁region	-9.90899
reich	-9.90942
▁realized	-9.90961
▁seiner	-9.90998
haft	-9.91003
▁watching	-9.91044
▁Internet	-9.91054
▁anyone	-9.91078
▁express	-9.91279
eg	-9.91288
▁center	-9.91309
gt	-9.91383
▁nächsten	-9.91407
▁kennen	-9.91408
▁hurt	-9.91433
▁jede	-9.91514
tik	-9.91596
▁cup	-9.9165
▁usually	-9.91695
hin	-9.91754
▁labor	-9.91781
▁begann	-9.91819
▁forty	-9.91822
▁U	-9.91823
ker	-9.91829
▁Film	-9.91858
▁pieces	-9.91914
rate	-9.9197
▁walls	-9.92085
▁Fr	-9.92089
ath	-9.92143
▁neuen	-9.92179
▁Selbst	-9.92222
ability	-9.92309
ili	-9.92382
ina	-9.92489
▁afterwards	-9.92633
▁nichts	-9.92654
▁proud	-9.92731
hood	-9.92734
▁erzählen	-9.92775
eth	-9.92786
▁scale	-9.9279
nde	-9.92941
wei	-9.93013
▁team	-9.93016
▁kinds	-9.93036
sam	-9.93098
▁prove	-9.93099
lum	-9.93183
▁equal	-9.93194
▁map	-9.93423
▁laws	-9.93423
ich	-9.93425
▁population	-9.93487
▁noticed	-9.93645
▁gu	-9.93664
▁creature	-9.93712
▁believed	-9.93731
ep	-9.93736
▁enter	-9.93752
▁knows	-9.93758
▁hung	-9.93793
ning	-9.93797
lk	-9.9388
▁considered	-9.93928
keit	-9.93944
▁weak	-9.93946
iß	-9.94046
recht	-9.94051
▁environment	-9.94088
▁repeated	-9.94129
nden	-9.94146
unter	-9.94164
ons	-9.94206
▁circumstances	-9.94216
▁wealth	-9.9431
ju	-9.94579
▁president	-9.94582
▁gene	-9.94584
▁dich	-9.94612
▁prisoner	-9.94645
▁takes	-9.94713
gang	-9.94777
▁stra	-9.94832
▁honour	-9.94859
▁beneath	-9.94859
▁dropped	-9.94872
▁holding	-9.94942
▁storm	-9.94954
▁shook	-9.94957
▁frank	-9.95063
▁particularly	-9.95067
▁arch	-9.95099
▁Ziel	-9.95138
▁gleich	-9.95196
leg	-9.95234
▁aware	-9.95251
▁bevor	-9.95258
ou	-9.95265
▁kl	-9.95312
▁Mädchen	-9.95322
▁observed	-9.95395
▁letters	-9.95468
clock	-9.95493
▁V	-9.95615
▁passing	-9.95682
ians	-9.95784
▁hospital	-9.95787
▁religion	-9.95787
▁coat	-9.95924
▁mental	-9.95933
▁Nicht	-9.96008
▁latter	-9.96068
▁pop	-9.96114
▁Musik	-9.96129
ierung	-9.96149
▁alt	-9.96188
ssen	-9.96207
▁happening	-9.96212
enden	-9.96235
▁pure	-9.96258
▁farm	-9.96262
nis	-9.96266
▁trans	-9.96321
▁darkness	-9.96596
▁Für	-9.96657
rop	-9.96663
▁serve	-9.96669
▁Video	-9.96677
▁named	-9.96719
▁narrow	-9.96724
▁reply	-9.96794
▁New	-9.96848
▁understanding	-9.96857
▁receive	-9.96898
▁anybody	-9.96912
ana	-9.96958
gest	-9.96987
▁generation	-9.97015
▁finished	-9.97084
▁lake	-9.97098
▁pri	-9.9715
▁practice	-9.97195
▁Meine	-9.97204
▁issue	-9.97269
pla	-9.97271
▁80	-9.97278
▁Erfahrung	-9.9729
▁george	-9.97291
▁liegt	-9.97299
ica	-9.97353
out	-9.9737
▁teach	-9.97389
zer	-9.97432
stoff	-9.97476
▁valley	-9.97584
ktion	-9.97683
▁price	-9.97696
▁asking	-9.97744
izing	-9.97755
▁decision	-9.97764
legen	-9.97807
▁Haus	-9.97817
▁sin	-9.97933
rung	-9.97978
▁effort	-9.98032
▁paris	-9.98358
▁bauen	-9.98435
▁ears	-9.98461
▁fixed	-9.98525
▁watched	-9.98525
▁courage	-9.98528
▁france	-9.98542
hand	-9.98547
▁complex	-9.98579
▁verändern	-9.98624
▁Planeten	-9.98626
▁task	-9.98631
▁herum	-9.98651
lam	-9.9869
▁wine	-9.98718
▁wheel	-9.9872
▁double	-9.98726
▁europe	-9.98742
▁Wort	-9.98783
eck	-9.9885
wert	-9.98866
▁skill	-9.98893
▁track	-9.99001
▁größer	-9.99013
▁Bilder	-9.99072
▁opposite	-9.99105
▁gen	-9.99111
▁aid	-9.99118
▁sum	-9.99126
▁J	-9.99149
▁dressed	-9.99175
row	-9.99189
▁schw	-9.99191
▁engineer	-9.99242
▁Augen	-9.99261
▁jane	-9.9933
fin	-9.99385
▁address	-9.99387
jo	-9.99404
▁check	-9.9958
▁claim	-9.99588
▁avoid	-9.99589
▁gehört	-9.99606
▁students	-9.99617
▁structure	-9.99685
▁wave	-9.99687
cke	-9.99877
▁artist	-9.99879
▁vast	-9.9996
▁loss	-10
▁musste	-10.0007
▁Geschichten	-10.0007
▁To	-10.0007
▁spite	-10.0009
weg	-10.0015
board	-10.0025
▁civil	-10.0036
▁struggle	-10.0037
▁determined	-10.004
▁8	-10.0044
▁method	-10.0046
ney	-10.005
agen	-10.0055
▁Kunst	-10.0056
▁Ne	-10.0057
▁castle	-10.0059
▁Informationen	-10.006
ete	-10.0065
▁capital	-10.0066
ea	-10.0067
▁soldiers	-10.0071
▁cal	-10.0075
▁Schule	-10.0082
▁vision	-10.0086
▁fill	-10.0088
▁original	-10.0093
▁chamber	-10.0095
▁cousin	-10.0095
▁continue	-10.0105
lon	-10.0111
▁leaves	-10.0111
▁cloud	-10.0113
▁suffering	-10.0113
▁season	-10.0113
▁Angst	-10.0115
▁fail	-10.012
put	-10.0121
▁Familie	-10.0124
▁tat	-10.0125
▁somewhat	-10.0125
▁cloth	-10.0129
▁weg	-10.0133
▁gift	-10.0137
▁pin	-10.0138
▁wer	-10.0141
▁freedom	-10.0154
mmer	-10.0155
▁christian	-10.0159
▁dir	-10.0161
▁tired	-10.0166
▁60	-10.017
▁rev	-10.0174
▁vessel	-10.0174
org	-10.0177
▁approach	-10.0178
▁grown	-10.0178
▁fat	-10.0181
▁angry	-10.0184
▁dec	-10.0191
▁pleased	-10.0193
▁col	-10.0203
▁degree	-10.0203
▁chi	-10.0204
▁letzte	-10.021
▁familiar	-10.0214
▁Ideen	-10.0216
▁ear	-10.0216
of	-10.0219
▁beg	-10.0222
kin	-10.0225
▁eigene	-10.0229
▁justice	-10.0234
icht	-10.0236
▁band	-10.024
my	-10.0241
▁behavior	-10.0244
▁solution	-10.0244
▁breast	-10.0244
▁ungefähr	-10.0244
▁robot	-10.0246
▁directly	-10.0254
▁Fragen	-10.0255
▁madame	-10.0264
▁needs	-10.0265
▁11	-10.0265
▁falsch	-10.0273
▁Kopf	-10.0276
▁choose	-10.0284
▁require	-10.0285
▁card	-10.0297
▁nu	-10.0298
▁menschliche	-10.0298
▁throw	-10.0304
▁playing	-10.0304
▁Unternehmen	-10.0304
net	-10.0304
▁Ju	-10.0305
▁stehen	-10.0305
▁gun	-10.0313
▁christ	-10.0316
▁Ent	-10.033
tes	-10.0332
▁kid	-10.0337
▁shown	-10.035
sse	-10.0354
▁property	-10.0356
▁block	-10.0356
▁pictures	-10.0361
ind	-10.0365
▁surprised	-10.0367
▁lines	-10.037
▁press	-10.0372
▁carriage	-10.0374
▁current	-10.0374
▁priest	-10.0378
▁source	-10.0379
▁weight	-10.0379
▁carefully	-10.0383
tisch	-10.0384
▁fifteen	-10.0384
▁verändert	-10.0384
ulation	-10.0384
vor	-10.0385
til	-10.04
▁♪	-10.0404
▁bat	-10.0405
▁enjoy	-10.0408
▁Leuten	-10.0418
▁Bo	-10.0431
kel	-10.0434
▁regular	-10.0435
▁roof	-10.0446
lichkeit	-10.0449
▁surely	-10.0451
weise	-10.0452
ev	-10.0453
like	-10.0453
act	-10.0458
right	-10.0461
▁hinter	-10.0462
setzen	-10.0468
mus	-10.0469
▁internet	-10.0476
▁former	-10.0482
▁si	-10.0482
▁beast	-10.0488
▁fu	-10.049
▁schwierig	-10.0496
gan	-10.0502
▁stark	-10.0504
▁weather	-10.0506
lar	-10.0514
▁shoulder	-10.0519
▁row	-10.0527
▁rid	-10.0533
▁motion	-10.0539
rum	-10.0542
▁tiny	-10.0544
▁überall	-10.0547
▁verschiedene	-10.0547
▁royal	-10.0547
▁Krieg	-10.0558
▁sorrow	-10.0558
win	-10.057
▁host	-10.0571
▁ruin	-10.0579
▁generally	-10.0581
▁versch	-10.0583
▁ci	-10.0584
▁fragen	-10.0593
▁drawn	-10.0593
han	-10.0596
▁fri	-10.0598
▁breakfast	-10.0599
▁relationship	-10.0599
▁represent	-10.0599
▁presently	-10.0609
▁circle	-10.0609
einander	-10.0611
tlich	-10.0612
▁nurse	-10.0612
gar	-10.0613
ith	-10.0616
▁due	-10.0617
▁consequence	-10.0619
▁seek	-10.0628
▁fruit	-10.063
▁Fe	-10.0646
▁excited	-10.0647
schau	-10.0652
▁spa	-10.0653
ice	-10.0673
▁jack	-10.0673
▁ihrem	-10.0675
▁seinen	-10.0677
▁mistake	-10.0678
▁mere	-10.0683
▁Design	-10.0683
▁proper	-10.0684
▁nennen	-10.0689
▁erkennen	-10.0692
▁flash	-10.0693
ya	-10.0697
j	-10.0699
▁darum	-10.0701
▁phone	-10.0701
▁sake	-10.0702
▁accident	-10.0702
▁Foto	-10.0703
▁formed	-10.0704
▁spi	-10.0711
▁Freund	-10.0712
▁bodies	-10.0713
▁sagten	-10.0714
▁opening	-10.0715
▁prison	-10.0718
tie	-10.0721
▁Te	-10.0721
vin	-10.0722
▁argument	-10.0723
▁afford	-10.0724
▁film	-10.0724
▁clearly	-10.0732
essen	-10.0733
▁twice	-10.0734
▁Lösung	-10.0734
▁gentlemen	-10.0736
▁spoken	-10.0737
ue	-10.0738
▁bare	-10.074
▁Eltern	-10.0744
▁Mein	-10.0751
▁empty	-10.0755
▁difficulty	-10.0756
eb	-10.0767
▁passage	-10.0772
▁Wa	-10.0778
car	-10.0781
▁smiled	-10.0782
▁caused	-10.0794
bed	-10.0795
▁crime	-10.0799
▁finger	-10.0808
bling	-10.0816
▁theory	-10.082
▁Weil	-10.0831
▁false	-10.0842
nal	-10.0849
▁Milliarden	-10.0849
▁colour	-10.0861
▁burst	-10.0861
▁Unter	-10.0864
▁Sprache	-10.0878
▁Wissenschaft	-10.088
▁tom	-10.0881
▁focus	-10.0881
▁remembered	-10.0892
ets	-10.0905
▁7	-10.0909
▁frei	-10.0911
▁dare	-10.0913
▁photograph	-10.0913
▁bisschen	-10.0916
▁cruel	-10.0919
▁growth	-10.0923
▁taught	-10.0924
mar	-10.0924
har	-10.093
▁anti	-10.0934
ace	-10.0935
▁abge	-10.0936
▁everywhere	-10.0945
▁access	-10.0945
▁rein	-10.0947
▁willing	-10.0948
▁development	-10.0949
▁truly	-10.0951
ans	-10.0955
▁offered	-10.096
▁flu	-10.0964
oon	-10.0965
▁farmer	-10.0969
▁conditions	-10.0975
uous	-10.0986
▁smoke	-10.0988
▁contain	-10.0992
cal	-10.0996
▁burn	-10.0998
shed	-10.0998
▁besonders	-10.0999
ake	-10.1003
▁Vielleicht	-10.101
▁prepared	-10.1013
▁william	-10.1021
▁lin	-10.1021
▁murder	-10.1024
▁possibly	-10.1031
▁match	-10.1032
▁dangerous	-10.1035
▁declared	-10.1035
▁bereits	-10.1036
▁Sonne	-10.1037
gram	-10.1037
▁Doch	-10.1058
time	-10.106
▁persons	-10.1066
gestellt	-10.1067
▁companion	-10.1067
▁forgotten	-10.1067
▁demand	-10.1079
▁tend	-10.1081
▁heads	-10.1083
▁fool	-10.1088
▁u	-10.1089
▁increase	-10.1089
▁connection	-10.1096
▁college	-10.1096
▁coast	-10.1096
▁nose	-10.1097
▁print	-10.1098
▁sounds	-10.1105
▁weitere	-10.1109
▁provide	-10.1112
▁gentle	-10.1114
▁stars	-10.1126
▁bridge	-10.113
▁professor	-10.113
▁yeah	-10.1131
▁remark	-10.1134
▁val	-10.1135
lung	-10.114
▁pattern	-10.114
▁halten	-10.1144
▁stock	-10.1146
▁height	-10.115
▁digital	-10.1151
▁allen	-10.1162
▁henry	-10.1164
ically	-10.117
▁played	-10.1172
▁forced	-10.1177
▁mil	-10.118
hu	-10.1182
▁anzu	-10.1184
▁dust	-10.1186
voll	-10.1194
▁international	-10.1194
▁ordinary	-10.1194
ei	-10.1203
▁Jahrhundert	-10.1205
▁fancy	-10.1218
ify	-10.1229
▁indian	-10.1235
van	-10.1239
▁machte	-10.1244
▁matters	-10.1244
▁handsome	-10.1245
▁successful	-10.1247
cha	-10.1248
▁mountains	-10.125
▁cow	-10.1252
▁Unterschied	-10.1271
xi	-10.1276
mittel	-10.1277
▁angel	-10.1283
ched	-10.1286
▁para	-10.1294
▁erreichen	-10.1297
▁rot	-10.1302
▁windows	-10.1302
▁hol	-10.131
▁gray	-10.1313
iness	-10.1317
gab	-10.1319
▁laughing	-10.132
▁list	-10.1322
▁hast	-10.1326
▁shock	-10.1327
▁Wert	-10.1333
▁awful	-10.1333
▁Schul	-10.1336
▁Minuten	-10.1336
▁kon	-10.1337
▁gives	-10.1338
▁dish	-10.1338
▁wohl	-10.1342
▁pair	-10.1342
▁produced	-10.1344
▁Lo	-10.1351
▁Arten	-10.1352
▁flat	-10.1354
▁wh	-10.1355
▁sage	-10.1358
▁streets	-10.1368
▁corn	-10.1378
▁base	-10.1381
▁ability	-10.1381
▁Krebs	-10.1382
▁famous	-10.1382
▁extraordinary	-10.1385
▁hearing	-10.1386
▁Fl	-10.1387
▁reden	-10.139
▁ride	-10.1393
▁colonel	-10.1394
▁organization	-10.1394
▁fingers	-10.1401
▁exercise	-10.1416
▁area	-10.1422
▁touched	-10.1423
▁hätten	-10.1432
▁Gebäude	-10.1438
▁kitchen	-10.144
▁einge	-10.144
▁frame	-10.1442
▁6	-10.1445
rous	-10.1448
▁haven	-10.1455
▁namens	-10.1457
▁poet	-10.146
▁somewhere	-10.1461
ization	-10.1462
▁fate	-10.1471
▁peculiar	-10.1472
▁Gruppe	-10.1483
chi	-10.1484
mark	-10.1498
▁trial	-10.1508
hm	-10.1511
▁device	-10.1517
▁feed	-10.1526
▁tief	-10.1527
▁realize	-10.1528
▁servant	-10.1535
▁waited	-10.1548
▁rat	-10.1549
▁imagination	-10.1551
ology	-10.1555
▁darin	-10.1557
▁leap	-10.1557
press	-10.1564
▁euch	-10.1565
▁feelings	-10.1571
▁’	-10.1574
▁hören	-10.1576
▁promised	-10.1587
▁tur	-10.1592
▁Wirtschaft	-10.1596
▁nächste	-10.1597
▁steht	-10.1598
▁distinct	-10.1599
▁flower	-10.1611
▁shame	-10.1618
nte	-10.1621
▁function	-10.1621
och	-10.1622
▁evidently	-10.1624
▁aufge	-10.1628
▁trip	-10.163
ore	-10.1631
▁smart	-10.1631
▁shows	-10.1632
▁becomes	-10.1632
ius	-10.1634
ppe	-10.1634
▁delight	-10.1635
▁dan	-10.1636
nor	-10.1639
qua	-10.1639
▁signal	-10.1642
▁tender	-10.1649
▁welcome	-10.1654
▁remind	-10.1654
▁clever	-10.1656
ätze	-10.1661
▁lack	-10.1671
▁Oder	-10.1673
kan	-10.1679
▁Dr	-10.168
▁lovely	-10.1684
▁bu	-10.1686
eu	-10.1692
▁invest	-10.1694
reiben	-10.1696
▁rush	-10.17
low	-10.1701
▁forms	-10.1708
▁jew	-10.171
▁kingdom	-10.1712
je	-10.1716
▁mut	-10.1716
▁Macht	-10.1719
▁jedem	-10.1721
stein	-10.1722
▁otherwise	-10.1723
▁tongue	-10.1724
▁pull	-10.1725
pel	-10.1725
ash	-10.1744
▁fragte	-10.1745
fahren	-10.1746
▁TED	-10.1746
▁network	-10.1758
stellung	-10.1761
▁yo	-10.1763
stone	-10.1764
▁Lage	-10.1764
ball	-10.1772
▁Vater	-10.1773
ierten	-10.1779
▁ändern	-10.1781
▁spielen	-10.1793
▁foreign	-10.1793
▁rising	-10.1796
▁quietly	-10.1803
▁Gott	-10.1805
▁gain	-10.1815
▁roman	-10.182
▁thrown	-10.1822
▁Patienten	-10.1829
cker	-10.183
nes	-10.1834
ky	-10.1847
▁sechs	-10.1852
▁alarm	-10.1852
▁Neu	-10.1858
setzt	-10.1858
▁lesson	-10.186
▁somehow	-10.1863
▁gets	-10.1864
▁Bu	-10.1865
work	-10.1866
▁numbers	-10.1872
▁note	-10.1873
▁Kultur	-10.1874
▁companies	-10.1874
▁cases	-10.1879
▁larger	-10.188
▁milk	-10.1881
▁magic	-10.1882
igung	-10.1892
▁Fisch	-10.1894
▁Po	-10.1904
▁Universum	-10.191
▁intelligence	-10.191
▁starting	-10.191
▁ya	-10.1912
fo	-10.1914
▁tap	-10.1916
▁media	-10.1923
flu	-10.1925
▁solve	-10.1925
“	-10.1928
mate	-10.1929
▁los	-10.1929
fu	-10.1944
arm	-10.1948
▁roll	-10.1948
▁gerne	-10.1949
▁Verhalten	-10.1951
▁Glück	-10.1957
▁Wei	-10.196
▁Hause	-10.1962
light	-10.1967
▁versucht	-10.1968
▁Freunde	-10.1969
▁extreme	-10.1971
▁pulled	-10.1973
▁virtue	-10.1973
bei	-10.1978
▁Do	-10.198
▁tre	-10.1981
▁protest	-10.1994
▁bath	-10.1999
rat	-10.2002
▁military	-10.2004
▁obliged	-10.2004
▁vain	-10.2008
▁nahm	-10.201
gie	-10.2011
▁Dieses	-10.2011
▁houses	-10.2014
▁Stunden	-10.2015
▁lies	-10.2016
▁manchmal	-10.2016
▁article	-10.2016
lan	-10.2019
▁minister	-10.2023
▁solche	-10.2024
▁arab	-10.2026
▁fundamental	-10.2028
lock	-10.2032
▁fully	-10.2032
isiert	-10.2035
plan	-10.2037
▁soll	-10.2039
zy	-10.204
▁worst	-10.204
▁suffer	-10.2041
lb	-10.2047
▁throughout	-10.2047
▁neighbor	-10.2051
▁previous	-10.2052
▁Stück	-10.2052
▁showing	-10.2058
▁fond	-10.206
▁engaged	-10.2071
▁principle	-10.2073
▁benutzen	-10.2076
ory	-10.2076
▁female	-10.2076
▁listening	-10.2076
utz	-10.2082
▁smiling	-10.2088
▁fault	-10.2088
▁sentence	-10.2094
▁changes	-10.2094
▁Luft	-10.2101
▁dying	-10.2101
▁luck	-10.2108
]	-10.2112
ification	-10.2112
▁Arm	-10.2121
▁bekannt	-10.2124
▁14	-10.2125
▁failed	-10.2137
bild	-10.2138
▁limit	-10.2138
▁belong	-10.214
▁objects	-10.2145
▁average	-10.2148
▁gesamte	-10.2148
▁eu	-10.2152
▁possession	-10.2155
▁useful	-10.2168
▁push	-10.2173
▁ended	-10.2175
▁squ	-10.2175
▁remarkable	-10.2177
hören	-10.218
wn	-10.2181
▁temper	-10.2184
▁shoulders	-10.2189
▁nation	-10.2196
▁earnest	-10.2199
vis	-10.2199
▁intention	-10.2203
▁Indien	-10.2209
kle	-10.221
▁charles	-10.221
▁term	-10.221
▁leading	-10.2218
▁confidence	-10.2221
▁belief	-10.2225
▁[	-10.2233
▁instrument	-10.2245
▁yesterday	-10.2245
▁asleep	-10.2245
▁becoming	-10.2245
tten	-10.2249
▁bottle	-10.2257
▁range	-10.2259
▁bereit	-10.226
▁leicht	-10.226
▁vorstellen	-10.2264
▁duke	-10.2272
▁tar	-10.2277
genommen	-10.2277
▁adventure	-10.2282
▁ray	-10.2284
▁All	-10.2284
▁guest	-10.2286
▁reg	-10.2291
sprech	-10.2294
▁waste	-10.2296
▁Tiere	-10.2302
▁lots	-10.2303
▁et	-10.2304
▁violence	-10.2306
▁favor	-10.2318
▁16	-10.2319
druck	-10.2323
▁70	-10.2325
▁bore	-10.233
▁Bewegung	-10.233
▁extremely	-10.2332
▁boil	-10.234
▁despair	-10.2343
▁gemeinsam	-10.2343
▁deine	-10.2343
▁developed	-10.2345
▁tut	-10.2349
tät	-10.2354
▁entwickeln	-10.2355
punkt	-10.236
▁busy	-10.236
▁pride	-10.2362
▁flight	-10.2371
▁trick	-10.2376
▁fourth	-10.2377
▁altogether	-10.238
▁salt	-10.2383
▁reasons	-10.2383
▁witness	-10.2384
▁Liebe	-10.2393
▁guide	-10.2394
▁Wer	-10.2397
▁older	-10.2399
▁soldier	-10.2399
▁mi	-10.24
▁90	-10.241
▁erhalten	-10.2412
▁benefit	-10.2417
▁popular	-10.2417
▁whispered	-10.2427
▁climate	-10.2429
▁authority	-10.2434
▁anderes	-10.2434
▁York	-10.2442
▁correct	-10.2442
▁grey	-10.2445
▁medicine	-10.2454
▁ahead	-10.2454
▁crown	-10.246
▁direct	-10.2462
▁tower	-10.2463
▁listened	-10.2463
▁fold	-10.2466
▁german	-10.2474
▁führen	-10.2481
▁wollten	-10.2482
▁relative	-10.2491
▁secure	-10.2499
▁naturally	-10.2503
hor	-10.2504
▁spare	-10.2506
▁hell	-10.2509
▁rode	-10.2515
▁forgive	-10.2517
die	-10.252
▁beiden	-10.2521
▁author	-10.2524
▁groß	-10.2524
▁Si	-10.253
▁dra	-10.2536
▁connected	-10.2538
▁bitter	-10.2539
▁flew	-10.2541
kraft	-10.2543
▁tin	-10.2544
▁Gesicht	-10.2544
▁evolution	-10.2556
▁faces	-10.2557
uck	-10.2559
▁liked	-10.2561
▁vari	-10.2565
▁attract	-10.2567
▁hidden	-10.2568
▁papa	-10.2569
▁Möglichkeit	-10.2573
▁Roboter	-10.2579
▁unknown	-10.2579
▁nut	-10.258
▁lifted	-10.2583
▁hundreds	-10.2584
▁violent	-10.2592
▁fand	-10.2592
▁firm	-10.2593
▁oben	-10.2595
▁conscious	-10.2599
▁cho	-10.2601
▁explained	-10.2603
ette	-10.2603
▁brilliant	-10.2604
▁dozen	-10.2607
▁events	-10.2609
▁treatment	-10.2613
▁active	-10.2616
▁quality	-10.2617
chan	-10.2617
▁China	-10.2618
▁bold	-10.2621
▁fix	-10.2623
▁Je	-10.2623
▁mentioned	-10.2627
▁Verbindung	-10.263
cted	-10.2634
▁9	-10.264
▁thanks	-10.2642
▁keeping	-10.2643
rc	-10.2651
ama	-10.2652
▁millions	-10.2654
▁flying	-10.2663
▁Hi	-10.2663
▁distant	-10.2668
griff	-10.2668
tzt	-10.267
▁gathered	-10.2671
▁satisfied	-10.268
▁suggest	-10.2681
▁raise	-10.2683
▁Modell	-10.2684
▁link	-10.2687
▁verschiedenen	-10.2687
▁Ze	-10.2689
▁desert	-10.2691
▁online	-10.2691
▁Städte	-10.2693
▁settled	-10.2702
ple	-10.2704
▁Vorstellung	-10.2707
▁wake	-10.2708
▁einigen	-10.2716
▁admit	-10.2718
▁lamp	-10.2718
▁poverty	-10.2718
▁reward	-10.272
tische	-10.2725
▁lover	-10.2726
▁lock	-10.2733
raum	-10.2736
aries	-10.2737
wick	-10.275
▁based	-10.275
▁systems	-10.2756
▁falling	-10.2758
▁tale	-10.2762
▁apple	-10.2765
▁pur	-10.2768
▁Recht	-10.2768
▁pounds	-10.2769
▁practical	-10.277
▁pity	-10.277
istic	-10.2774
some	-10.2776
▁bent	-10.2779
▁stairs	-10.2783
▁root	-10.2787
▁greatly	-10.2792
▁sufficient	-10.2796
▁operation	-10.2796
▁agree	-10.2797
asse	-10.2802
▁maid	-10.2807
▁points	-10.2818
▁contrary	-10.2821
▁excellent	-10.2821
▁Gleich	-10.2821
▁excuse	-10.2821
▁irgendwie	-10.2821
▁niemand	-10.2821
▁teeth	-10.2822
ino	-10.2833
▁birth	-10.2834
▁direkt	-10.2834
▁ideal	-10.2835
▁cent	-10.2835
V	-10.2845
▁chain	-10.2846
▁frightened	-10.2847
▁Kindern	-10.2848
kra	-10.2864
rand	-10.2866
▁cr	-10.2868
▁calling	-10.2874
▁ter	-10.2877
▁aller	-10.2879
▁rob	-10.2883
▁paul	-10.2884
▁Veränderung	-10.2886
▁bewegen	-10.2886
▁odd	-10.2888
meter	-10.2891
▁ordered	-10.2892
▁kiss	-10.2895
▁Ar	-10.2897
▁Rück	-10.2899
ehr	-10.2901
▁cy	-10.2905
▁liebe	-10.2908
▁advanced	-10.2911
▁hurry	-10.2912
▁strike	-10.2912
▁silk	-10.2913
▁Pe	-10.292
▁lion	-10.2921
▁aside	-10.2923
▁agreed	-10.2925
▁consciousness	-10.293
▁fro	-10.2931
ight	-10.2935
▁incredible	-10.2938
▁profit	-10.2938
▁medical	-10.2939
▁deliver	-10.294
▁loose	-10.2941
▁pal	-10.2945
▁daily	-10.2949
▁fan	-10.2953
▁slip	-10.2955
▁officer	-10.2958
▁industry	-10.2964
▁scientific	-10.2964
werk	-10.2965
▁guys	-10.2967
▁mention	-10.2981
ühl	-10.2984
▁bru	-10.2984
ctor	-10.299
▁impression	-10.299
▁carrying	-10.2994
▁wound	-10.2995
▁gest	-10.3002
bil	-10.3002
▁devil	-10.3005
▁drove	-10.3006
▁severe	-10.3006
▁hotel	-10.3007
▁tradition	-10.301
▁Prozess	-10.3016
del	-10.3018
▁helped	-10.3022
don	-10.3027
▁Forschung	-10.303
▁Aufgabe	-10.303
▁pretend	-10.3043
▁james	-10.3043
U	-10.3046
▁dreadful	-10.3048
rang	-10.3052
▁multi	-10.3056
▁favorite	-10.3057
▁members	-10.3058
ort	-10.3059
▁images	-10.3063
▁brothers	-10.3064
▁cave	-10.3067
▁Bereich	-10.3068
▁literally	-10.3069
üge	-10.307
well	-10.3071
zustellen	-10.3074
▁singing	-10.308
▁alter	-10.3081
▁vorher	-10.3086
▁wusste	-10.309
▁Tage	-10.3095
▁recently	-10.31
▁dogs	-10.3105
▁pra	-10.3105
▁occurred	-10.311
▁unto	-10.3111
▁besten	-10.3112
▁meat	-10.3131
▁required	-10.3134
▁hate	-10.3135
▁brief	-10.3136
▁interview	-10.3136
house	-10.3137
▁connect	-10.3139
▁ähnlich	-10.3149
▁schlecht	-10.3151
▁disappeared	-10.3156
▁pot	-10.3157
▁affairs	-10.3161
▁riesige	-10.3164
▁tools	-10.3166
▁vo	-10.3168
▁religious	-10.3175
▁smooth	-10.3175
▁bought	-10.3175
▁rank	-10.3178
▁minds	-10.3179
▁rough	-10.318
▁pipe	-10.3187
▁text	-10.319
▁upper	-10.3194
▁glücklich	-10.3197
▁male	-10.3198
▁Herausforderung	-10.3202
▁non	-10.3203
poli	-10.3208
▁sixty	-10.3212
▁wants	-10.3225
▁prop	-10.3225
▁getan	-10.3226
ville	-10.3228
▁Anfang	-10.3229
▁advice	-10.3229
▁hurried	-10.3229
bit	-10.3232
▁Wahl	-10.3236
▁fühlen	-10.3238
▁pit	-10.3242
▁intelligent	-10.3242
▁importance	-10.3243
▁advance	-10.3244
▁proved	-10.3247
▁Mensch	-10.3253
▁halt	-10.3255
▁weltweit	-10.3269
▁supper	-10.327
▁apart	-10.3274
▁Lass	-10.3276
▁gla	-10.3278
▁rules	-10.3282
▁17	-10.3284
▁brand	-10.3292
▁Tier	-10.3293
trieb	-10.3297
▁shout	-10.3301
▁servants	-10.3304
▁woods	-10.3306
▁total	-10.3307
▁names	-10.3309
▁ski	-10.3312
▁crack	-10.3315
▁buck	-10.3316
▁holy	-10.3318
▁eher	-10.332
▁instantly	-10.3323
▁treasure	-10.3323
▁Produkt	-10.3334
▁nämlich	-10.3337
▁yield	-10.3337
▁arthur	-10.3337
ischer	-10.334
▁hath	-10.3341
▁standard	-10.3344
▁ke	-10.3346
▁wegen	-10.3346
▁supply	-10.3351
▁smell	-10.3351
▁lebt	-10.3359
▁Lehrer	-10.3363
▁hills	-10.3364
▁changing	-10.3364
▁unterschiedlich	-10.3378
▁complain	-10.3378
▁predict	-10.3378
▁extra	-10.3378
▁mile	-10.3379
▁native	-10.338
▁meal	-10.3381
▁falls	-10.3383
ika	-10.3385
▁statt	-10.3393
▁achieve	-10.3405
bare	-10.3407
▁dreams	-10.3418
▁reich	-10.3426
ome	-10.3426
▁Stellen	-10.3432
▁newspaper	-10.3433
▁prefer	-10.3436
wie	-10.3437
▁sides	-10.3444
▁Schritt	-10.3446
▁plate	-10.3447
▁Sinn	-10.3447
▁seized	-10.345
▁beginnen	-10.3451
▁treffen	-10.3451
▁creatures	-10.3453
▁partner	-10.3453
ties	-10.3454
▁shake	-10.3455
▁picked	-10.3458
▁hide	-10.3463
▁Qu	-10.3468
▁anger	-10.3472
▁final	-10.3473
▁instruct	-10.3474
▁lit	-10.3477
▁mamma	-10.3481
enz	-10.3484
▁giant	-10.3492
wir	-10.35
▁load	-10.3507
mission	-10.3512
▁regret	-10.3515
▁screen	-10.3516
▁affect	-10.3524
▁rope	-10.3524
▁interessant	-10.3525
frag	-10.3526
▁temple	-10.3529
▁Ä	-10.353
itude	-10.353
arten	-10.3531
▁hang	-10.3533
▁glo	-10.3537
▁fighting	-10.3541
head	-10.3542
▁families	-10.3543
▁überhaupt	-10.3543
▁bur	-10.3543
▁Bau	-10.3545
▁stellt	-10.3548
▁joined	-10.3556
▁economy	-10.3557
▁enormous	-10.3558
eller	-10.3558
▁fields	-10.3563
ließen	-10.3565
▁hum	-10.3566
▁bus	-10.3568
▁favour	-10.357
▁mistress	-10.3571
▁capable	-10.3583
isieren	-10.3585
▁13	-10.3586
▁david	-10.3587
▁nevertheless	-10.3598
▁eager	-10.3601
ok	-10.3607
▁rapidly	-10.3608
more	-10.3611
▁universal	-10.3612
▁louis	-10.3613
▁seventeen	-10.3613
▁cheer	-10.3619
▁menschlichen	-10.362
▁chest	-10.3621
▁Kr	-10.3626
▁horror	-10.3626
▁sacrifice	-10.3626
▁schauen	-10.3627
▁Oh	-10.3631
▁Mittel	-10.3631
sel	-10.3631
▁sim	-10.3635
▁wil	-10.364
▁gil	-10.3641
▁mid	-10.3643
▁stones	-10.3648
▁perform	-10.3648
▁affection	-10.3648
mat	-10.365
▁nervous	-10.3654
▁diamond	-10.3655
▁transport	-10.3655
▁observe	-10.3657
füll	-10.3658
▁ref	-10.3664
▁deck	-10.3667
▁photo	-10.3669
▁moments	-10.3669
▁results	-10.3676
▁remarked	-10.3677
▁select	-10.3684
lig	-10.3684
ere	-10.3686
▁club	-10.3688
can	-10.369
uß	-10.3693
▁pointed	-10.3693
▁Gemeinschaft	-10.3696
anda	-10.3697
iff	-10.3707
ruf	-10.3707
▁mess	-10.3714
zahl	-10.3716
aw	-10.3718
▁anywhere	-10.3725
▁auszu	-10.3726
▁monsieur	-10.3739
hnen	-10.3739
▁adam	-10.3745
▁trace	-10.3751
lassen	-10.3752
▁zwar	-10.3756
▁bitte	-10.3756
part	-10.3767
▁event	-10.3768
▁sunday	-10.3768
▁Wissenschaftler	-10.377
▁führt	-10.3772
ase	-10.3777
▁patients	-10.378
▁emotional	-10.3787
hält	-10.3791
▁eating	-10.3792
▁prayer	-10.3794
▁bay	-10.3795
▁brow	-10.3796
▁Wochen	-10.3798
treten	-10.3804
▁verwenden	-10.381
▁bla	-10.3811
▁kamen	-10.3811
bby	-10.3813
▁climb	-10.3817
▁cart	-10.3819
▁fur	-10.3821
▁jump	-10.3824
▁shoes	-10.3825
▁nearer	-10.3826
▁proof	-10.3827
mis	-10.383
▁western	-10.3832
▁wore	-10.3832
wal	-10.3833
▁plants	-10.3835
▁Technik	-10.3838
▁driven	-10.3839
▁separate	-10.3842
▁curiosity	-10.3853
▁mars	-10.3864
▁cabin	-10.3866
▁Umwelt	-10.3867
▁allein	-10.3868
bal	-10.3872
mut	-10.3875
▁ban	-10.3879
▁gleichen	-10.388
▁Mu	-10.3884
▁sheep	-10.3885
▁din	-10.3891
▁saved	-10.3893
▁consent	-10.3896
▁hunt	-10.3897
▁sold	-10.3905
▁highest	-10.3907
▁security	-10.3911
▁vote	-10.3911
▁innerhalb	-10.3924
▁presented	-10.3933
▁Sachen	-10.3936
▁liberty	-10.3939
▁völlig	-10.3939
lay	-10.3943
▁conc	-10.3952
▁dim	-10.3954
▁Team	-10.3956
▁transform	-10.3957
▁worthy	-10.3957
▁gay	-10.396
▁Nacht	-10.3961
▁fierce	-10.3968
wing	-10.3974
▁Hilfe	-10.3982
▁Gegen	-10.3985
ziehen	-10.3995
rich	-10.3997
▁humanity	-10.4004
▁Zum	-10.4011
ht	-10.4013
▁bekam	-10.4014
führen	-10.4016
▁Erfolg	-10.4019
▁obey	-10.4031
▁sport	-10.4039
▁hy	-10.4042
unk	-10.4049
▁deeply	-10.4058
ain	-10.406
▁Jede	-10.4061
▁elder	-10.4062
▁basket	-10.4069
▁atmosphere	-10.4069
▁dia	-10.407
affen	-10.4088
gger	-10.409
▁attend	-10.4101
▁recognize	-10.4103
▁confess	-10.4105
▁Länder	-10.4107
▁union	-10.4108
▁equally	-10.411
▁encourage	-10.4113
▁proportion	-10.4113
▁solemn	-10.4113
▁substance	-10.4113
▁slight	-10.4121
▁unc	-10.4122
▁rocks	-10.4132
▁slightly	-10.4139
▁dull	-10.4139
far	-10.4139
▁utter	-10.4141
▁fairly	-10.4141
▁Viele	-10.4141
▁jedoch	-10.4143
▁affair	-10.4144
▁blu	-10.4144
lose	-10.415
ose	-10.4152
▁gesch	-10.4156
▁El	-10.4156
▁Bildung	-10.4157
▁emperor	-10.4157
▁excitement	-10.4158
▁shift	-10.4159
grad	-10.4162
▁allem	-10.4166
▁Alter	-10.417
▁tight	-10.4174
lass	-10.4177
▁Ku	-10.4182
▁effective	-10.4182
iziert	-10.4183
▁anyway	-10.4185
kehr	-10.4187
▁Größe	-10.4187
▁profound	-10.4187
▁maintain	-10.4187
▁decade	-10.4188
▁comfortable	-10.4195
pri	-10.4199
▁mussten	-10.42
▁Experiment	-10.4202
▁edward	-10.4202
pping	-10.4202
▁verb	-10.4203
▁teil	-10.4213
ox	-10.4216
▁necessity	-10.422
▁actual	-10.4223
▁Tages	-10.423
heim	-10.423
▁compassion	-10.4233
▁auto	-10.4233
▁safety	-10.4236
lp	-10.4241
▁string	-10.4243
▁seated	-10.4247
▁sought	-10.4247
▁zweite	-10.4248
▁oak	-10.4252
▁soziale	-10.426
▁failure	-10.4263
▁consist	-10.4265
▁describe	-10.4267
▁apparently	-10.4274
▁Gedanken	-10.429
▁constantly	-10.4301
▁Haupt	-10.4306
▁Mikro	-10.4306
▁orders	-10.4309
▁highly	-10.4315
▁früh	-10.4316
▁scientists	-10.4322
▁bal	-10.4331
▁savage	-10.4336
▁Denken	-10.4336
▁goal	-10.4339
▁teacher	-10.4345
off	-10.4347
▁succeeded	-10.4349
▁splendid	-10.4351
▁stupid	-10.4351
▁visual	-10.4351
▁novel	-10.4352
▁intended	-10.4352
▁waves	-10.4352
▁resources	-10.436
▁detail	-10.4361
▁concerned	-10.4364
▁satisfaction	-10.4366
▁Programm	-10.4366
bble	-10.4366
änge	-10.4371
cum	-10.4374
▁steam	-10.4374
▁Essen	-10.4377
nten	-10.4382
▁peer	-10.4383
itch	-10.4386
Ge	-10.4388
▁voices	-10.4391
▁destroy	-10.4391
▁electric	-10.4393
zellen	-10.4396
▁Ex	-10.4398
▁butter	-10.4399
▁rare	-10.4401
▁pace	-10.4409
▁conflict	-10.4411
▁depth	-10.4411
▁Stimme	-10.4412
▁Ca	-10.4412
▁bringing	-10.4413
▁careful	-10.4415
▁obviously	-10.4416
▁Gut	-10.4419
erung	-10.4422
▁writer	-10.4424
▁Sicherheit	-10.4426
▁rub	-10.4426
▁lab	-10.4432
▁Arbeits	-10.4433
▁rapid	-10.4437
▁served	-10.4439
▁knees	-10.4441
▁Alle	-10.4441
▁respond	-10.4441
▁benutzt	-10.4441
▁Okay	-10.4442
▁chris	-10.4446
▁Möglichkeiten	-10.4448
▁apartment	-10.4454
▁Struktur	-10.4457
▁discovery	-10.4459
licht	-10.4464
▁jene	-10.4464
▁increased	-10.4466
krieg	-10.4469
▁groups	-10.447
▁sentiment	-10.4472
▁credit	-10.4472
▁Her	-10.4477
atur	-10.4482
▁bro	-10.4482
▁observation	-10.4487
▁university	-10.4487
▁display	-10.4487
▁constant	-10.4492
lia	-10.4494
▁Job	-10.4499
▁sink	-10.45
▁trail	-10.4501
▁sixteen	-10.4502
▁pig	-10.451
▁mon	-10.4511
▁officers	-10.4512
▁inner	-10.4518
▁farther	-10.4524
▁fund	-10.4525
▁collect	-10.4532
▁smith	-10.4533
▁lift	-10.4537
room	-10.454
▁beach	-10.4541
▁Fo	-10.4543
dor	-10.4544
▁member	-10.4547
▁bald	-10.4548
▁eleven	-10.4548
▁mission	-10.455
▁genauso	-10.4555
▁Eis	-10.4558
▁Versuch	-10.4564
▁damals	-10.4564
▁21	-10.4566
▁request	-10.4579
▁advis	-10.458
▁detect	-10.4581
▁awake	-10.4582
▁suffered	-10.4582
▁burning	-10.4583
▁alas	-10.4591
▁wicked	-10.4594
▁smaller	-10.4598
▁schrieb	-10.4604
▁steal	-10.4605
▁victim	-10.461
▁driving	-10.461
▁deserve	-10.461
▁Thema	-10.4611
▁sprang	-10.4611
▁series	-10.4613
▁hoffe	-10.4616
▁portion	-10.4619
▁slave	-10.4621
▁treated	-10.4624
▁potential	-10.4625
▁inform	-10.4634
nam	-10.4636
▁central	-10.4642
▁cop	-10.4645
▁Boden	-10.4646
▁wit	-10.4649
▁cars	-10.4656
▁sensation	-10.4656
▁lösen	-10.4661
▁ken	-10.4661
▁enable	-10.4661
▁solid	-10.4662
▁shade	-10.4666
▁Durch	-10.4671
▁spin	-10.4671
▁bleiben	-10.4671
▁dna	-10.4675
▁bob	-10.4676
▁soil	-10.4679
Das	-10.4681
▁perceived	-10.4682
eten	-10.4683
▁explanation	-10.4687
▁plenty	-10.4687
▁Familien	-10.4688
bot	-10.4691
last	-10.4697
▁extrem	-10.4697
▁Objekt	-10.4702
▁Politik	-10.4702
▁communication	-10.4702
▁impact	-10.4704
▁prize	-10.4706
burg	-10.4707
▁scan	-10.4715
▁bio	-10.4716
▁cottage	-10.4718
▁chinese	-10.4718
▁brachte	-10.4718
▁papers	-10.4721
▁Y	-10.4721
▁dawn	-10.4724
▁fox	-10.4724
▁Gesetz	-10.4731
▁charm	-10.4733
▁obwohl	-10.4734
▁cheap	-10.4736
bie	-10.4748
▁suggested	-10.4748
▁lawyer	-10.475
▁absolute	-10.475
▁strip	-10.475
▁trap	-10.4754
▁Ti	-10.4762
▁mighty	-10.4763
▁shining	-10.4766
▁wondered	-10.4766
lage	-10.4766
▁Generation	-10.4781
▁pardon	-10.4781
path	-10.4786
stall	-10.4791
▁closely	-10.4794
▁superior	-10.4796
▁infinite	-10.4796
▁paused	-10.4798
▁Bürger	-10.4812
▁judgment	-10.4812
▁appeal	-10.4812
▁yard	-10.4813
▁activity	-10.4813
ffer	-10.4814
ix	-10.482
▁career	-10.4821
▁Namen	-10.4823
▁Wi	-10.4827
▁grief	-10.4828
bringen	-10.483
▁metal	-10.4831
▁Zellen	-10.4835
▁doors	-10.4835
▁Grunde	-10.4837
▁grandfather	-10.4844
▁innovation	-10.4844
▁größte	-10.4847
▁Ni	-10.4853
▁leid	-10.4853
▁bigger	-10.4854
▁bull	-10.4857
▁conclusion	-10.4859
▁entscheiden	-10.4859
▁august	-10.4859
▁politische	-10.4859
▁flag	-10.486
▁praise	-10.4864
▁mist	-10.4865
▁gleiche	-10.4866
hole	-10.4868
▁clo	-10.4869
▁african	-10.487
▁gently	-10.4876
▁wären	-10.4876
▁flame	-10.4877
▁zer	-10.4888
▁aim	-10.4891
▁earlier	-10.4892
▁Woche	-10.4895
▁recover	-10.4905
▁feather	-10.4907
▁schreiben	-10.4909
▁rap	-10.491
▁Dingen	-10.4916
▁develop	-10.4918
▁mysterious	-10.4923
▁Reise	-10.4932
▁ceased	-10.4933
▁Situation	-10.4939
ised	-10.4939
▁Ob	-10.4939
▁Karte	-10.4941
pan	-10.4941
tum	-10.4942
▁softly	-10.4943
akt	-10.4945
richten	-10.4951
▁camera	-10.4951
▁Unsere	-10.4952
▁legal	-10.4954
▁Ozean	-10.4955
▁visible	-10.4955
▁mode	-10.4959
▁setting	-10.4977
▁Reihe	-10.4987
▁possessed	-10.4988
▁Gene	-10.499
ille	-10.499
▁ham	-10.4991
▁grant	-10.4993
▁decide	-10.4997
▁encounter	-10.5003
▁including	-10.5003
▁majesty	-10.5003
▁hunting	-10.5005
▁strain	-10.5007
▁nest	-10.5008
▁fairy	-10.501
▁seventy	-10.5011
▁sollen	-10.5012
▁blame	-10.5014
▁Richtung	-10.5019
▁innocent	-10.5019
gue	-10.5023
▁hundert	-10.5024
▁maiden	-10.5025
▁Meinung	-10.5032
▁Monate	-10.5036
▁described	-10.5045
▁demanded	-10.5045
▁student	-10.5046
▁candle	-10.5048
lte	-10.505
▁coffee	-10.5051
▁gradually	-10.5051
▁style	-10.5051
ologist	-10.5052
▁stepped	-10.5055
▁resolved	-10.5064
▁council	-10.5067
▁british	-10.5067
▁anderer	-10.5067
▁fin	-10.5075
▁removed	-10.5077
▁shouted	-10.5078
▁accepted	-10.508
▁divine	-10.5083
▁carbon	-10.5085
▁unten	-10.5086
▁spirits	-10.5087
▁managed	-10.5089
▁increasing	-10.5099
▁persönlich	-10.5099
▁countenance	-10.5099
▁sugar	-10.5101
▁drug	-10.511
▁Groß	-10.5115
rei	-10.5115
▁sang	-10.5119
▁begun	-10.512
▁wings	-10.5123
▁citizens	-10.5125
▁teaching	-10.5128
▁designed	-10.513
▁delicate	-10.5132
▁unusual	-10.5132
▁Publikum	-10.5133
▁twin	-10.5137
▁coal	-10.5138
▁areas	-10.5143
▁rum	-10.5146
▁thor	-10.5147
▁entfernt	-10.5148
▁Blut	-10.5148
▁eng	-10.5148
▁refused	-10.5149
greifen	-10.5153
▁wash	-10.5157
▁worden	-10.5162
▁Amerika	-10.5162
▁Wahrheit	-10.5164
▁repeat	-10.5164
▁aufzu	-10.5165
▁involved	-10.5168
▁forces	-10.5168
▁pink	-10.5172
▁exact	-10.5175
▁acquaintance	-10.5181
▁Gerät	-10.5181
▁buried	-10.5181
▁micro	-10.5183
▁clar	-10.5184
▁pitch	-10.5184
▁faithful	-10.5186
▁possess	-10.5187
rated	-10.5188
▁glow	-10.5189
▁indians	-10.5189
▁Nein	-10.519
gleich	-10.519
▁response	-10.5197
▁entrance	-10.5197
▁consideration	-10.5201
räum	-10.5213
▁scream	-10.5213
▁flesh	-10.5214
▁x	-10.5222
▁reader	-10.5224
▁nations	-10.5225
▁tru	-10.5227
▁wisdom	-10.523
▁Typ	-10.5231
▁epi	-10.5232
▁Zwei	-10.5237
▁gro	-10.5238
▁stellte	-10.524
▁knee	-10.525
▁reflection	-10.526
▁junge	-10.526
eh	-10.5262
▁title	-10.5265
▁principles	-10.5267
▁500	-10.5268
test	-10.5275
▁net	-10.5279
▁worry	-10.5279
▁sooner	-10.5283
cle	-10.5288
▁Information	-10.5289
▁komplett	-10.5296
▁interpret	-10.5296
▁throat	-10.5296
vy	-10.5296
▁Rolle	-10.5302
▁wag	-10.5303
schlagen	-10.5304
▁powers	-10.5312
▁lässt	-10.5312
▁betrachten	-10.5312
▁polite	-10.5312
▁paint	-10.5316
▁bringt	-10.5318
yearold	-10.532
hy	-10.5321
▁stir	-10.5328
▁governor	-10.5336
▁sam	-10.5339
▁größten	-10.5343
▁bewusst	-10.5351
ridge	-10.5354
▁Kan	-10.5354
top	-10.5357
▁kit	-10.536
▁immense	-10.5362
▁kleiner	-10.5363
▁resist	-10.5365
ban	-10.5366
▁dritte	-10.5372
▁voll	-10.5373
▁teilen	-10.5376
▁jewel	-10.5378
▁crying	-10.5379
▁crazy	-10.538
▁CA	-10.5387
gro	-10.5391
▁enemies	-10.5395
▁funktionieren	-10.5395
▁mortal	-10.5396
▁pressure	-10.5397
▁occur	-10.5411
▁include	-10.5412
▁worship	-10.5412
▁relief	-10.5414
▁creating	-10.5415
▁reflect	-10.5415
▁massive	-10.542
lauf	-10.5422
▁tax	-10.5425
▁besteht	-10.5429
ari	-10.5432
▁crossed	-10.5438
▁expressed	-10.5439
▁lau	-10.544
fallen	-10.544
▁considerable	-10.5441
▁pile	-10.5444
▁occupied	-10.5445
mmel	-10.5447
▁bunch	-10.5453
▁exchange	-10.5462
▁precious	-10.5462
▁Labor	-10.5462
▁Gebiet	-10.5462
stelle	-10.5463
▁wondering	-10.5464
▁score	-10.5467
▁hungry	-10.5468
▁tip	-10.5475
ologie	-10.5475
pot	-10.5476
▁solar	-10.5493
▁movie	-10.5496
▁absence	-10.5496
▁degrees	-10.5497
▁emotion	-10.5497
▁clouds	-10.5501
▁visitor	-10.5503
▁dessen	-10.5507
▁cheerful	-10.551
▁volume	-10.5513
▁shelter	-10.5514
▁sorts	-10.5517
▁Markt	-10.5517
▁Ki	-10.5518
uff	-10.5525
▁Mar	-10.5529
▁manage	-10.5532
▁spark	-10.5532
▁flo	-10.5535
▁govern	-10.5535
feld	-10.5543
▁thunder	-10.5546
▁sigh	-10.5547
▁ships	-10.5548
▁features	-10.5556
▁midst	-10.5562
▁intellectual	-10.5564
▁Heute	-10.5565
▁hart	-10.5571
▁Hu	-10.5573
▁grasp	-10.5576
▁wunderbar	-10.558
▁christmas	-10.5581
▁drunk	-10.5581
▁dig	-10.5582
▁causes	-10.5584
▁desired	-10.5588
▁Ist	-10.5588
▁largest	-10.5591
▁meanwhile	-10.5597
▁distress	-10.5597
▁services	-10.5598
blick	-10.56
stehen	-10.5606
▁behold	-10.5607
▁sprach	-10.5608
▁date	-10.5609
ander	-10.561
▁frequently	-10.5614
▁gelernt	-10.5614
▁Baby	-10.5617
▁hence	-10.5619
▁eggs	-10.5619
▁individuals	-10.5622
kins	-10.5622
zeug	-10.5622
Was	-10.5624
▁Fähigkeit	-10.5627
▁Nord	-10.5629
▁dignity	-10.5632
▁available	-10.5633
▁performance	-10.5634
▁painting	-10.5634
mann	-10.5635
▁grün	-10.5635
▁lest	-10.5639
▁erinnern	-10.5649
▁extent	-10.5649
pol	-10.565
▁hint	-10.5652
▁delay	-10.5655
▁entdeckt	-10.5666
▁langsam	-10.5667
▁dread	-10.5677
zent	-10.5678
▁knife	-10.5683
▁sterben	-10.5683
▁approached	-10.5684
▁mc	-10.5684
▁origin	-10.5687
▁painful	-10.5688
mmed	-10.5697
▁faster	-10.5698
▁mount	-10.5699
▁attitude	-10.57
field	-10.5701
▁24	-10.5703
▁friendship	-10.5707
▁provided	-10.571
▁notion	-10.5712
zo	-10.5712
pers	-10.5713
zeichnet	-10.5717
▁aspect	-10.5717
▁grim	-10.5718
▁gods	-10.5721
back	-10.5726
▁southern	-10.5728
ara	-10.5734
jährige	-10.5735
▁Nahrung	-10.5735
▁buildings	-10.5738
▁forgot	-10.5748
▁opt	-10.575
▁zehn	-10.5752
eur	-10.5753
▁regarded	-10.5755
▁Gründe	-10.5756
▁scar	-10.5767
▁correspond	-10.5769
ua	-10.5769
▁Ihren	-10.577
▁sailor	-10.5775
▁moreover	-10.5781
▁scheint	-10.5787
▁queer	-10.5787
▁Muster	-10.5788
▁recall	-10.5789
▁apply	-10.5795
▁bessere	-10.5802
▁embrace	-10.5804
▁suspicion	-10.5804
▁official	-10.5804
▁miserable	-10.5804
Z	-10.5805
▁succeed	-10.5806
▁sisters	-10.5808
▁beide	-10.5811
▁zuvor	-10.5813
tausend	-10.5816
▁concern	-10.5816
▁counter	-10.5818
▁eli	-10.582
▁worn	-10.5822
▁remains	-10.5823
▁clock	-10.5825
Und	-10.583
▁mud	-10.5833
stellt	-10.5838
▁Organisation	-10.5839
▁erstaunlich	-10.5839
▁principal	-10.5839
▁verbunden	-10.5839
▁factor	-10.5839
▁keen	-10.5844
laden	-10.585
▁effects	-10.585
▁admire	-10.5856
▁border	-10.5856
▁button	-10.5857
satz	-10.5861
▁income	-10.5863
ati	-10.5864
▁2000	-10.5869
▁erschaffen	-10.5874
▁Realität	-10.5875
▁whisper	-10.5876
▁fever	-10.5878
▁site	-10.5881
▁signs	-10.5884
▁retreat	-10.5891
▁informed	-10.5897
▁Staaten	-10.5899
▁rushed	-10.5899
▁harry	-10.5899
▁robin	-10.59
▁assert	-10.5903
▁Zahl	-10.5905
▁wounded	-10.5906
▁Netzwerk	-10.5909
▁critical	-10.5909
▁knock	-10.5911
▁einfache	-10.5911
▁pushed	-10.5912
▁earn	-10.5913
ular	-10.5914
▁dad	-10.5918
nny	-10.5918
oh	-10.5921
▁Öl	-10.5926
▁hanging	-10.5931
▁owe	-10.594
▁Krankheit	-10.594
▁Jo	-10.5941
▁Farbe	-10.5944
▁mystery	-10.5944
▁erreicht	-10.5944
Sch	-10.5947
▁gaze	-10.5949
▁delighted	-10.595
schrei	-10.5954
sehen	-10.5955
▁explore	-10.5961
▁spect	-10.5961
▁verwendet	-10.5962
▁monkey	-10.5962
▁humans	-10.5964
▁training	-10.5964
▁lief	-10.5965
▁gross	-10.5968
licher	-10.5969
ria	-10.5972
▁closer	-10.5975
▁owner	-10.5976
fassen	-10.5978
▁contract	-10.5979
▁tear	-10.598
▁Hände	-10.5986
▁Ländern	-10.5987
▁interrupted	-10.599
▁charming	-10.5995
▁threat	-10.5996
▁motor	-10.6009
▁hoped	-10.6011
▁fanden	-10.6011
▁gefunden	-10.6014
▁finish	-10.602
ram	-10.6027
▁pole	-10.6028
▁Plan	-10.6028
▁lesen	-10.603
▁forever	-10.603
▁genannt	-10.6032
▁Tatsache	-10.6032
▁slept	-10.6032
▁Autos	-10.6035
▁glory	-10.6036
▁wider	-10.604
▁Pri	-10.6045
▁defend	-10.605
▁invited	-10.6052
▁foolish	-10.6053
▁bearing	-10.6055
arian	-10.6057
▁300	-10.6065
▁thrust	-10.6068
▁elsie	-10.6068
sicher	-10.6073
rap	-10.6078
▁gui	-10.6078
▁coach	-10.6081
▁limb	-10.6083
▁kindness	-10.6085
▁nay	-10.609
▁Sehen	-10.609
zieh	-10.6093
ax	-10.6096
▁unable	-10.6102
▁Umgebung	-10.6104
▁schließlich	-10.6104
▁steel	-10.6106
▁plum	-10.611
▁Einige	-10.6119
schein	-10.6122
▁exciting	-10.6122
▁stole	-10.6124
wachsen	-10.6138
▁constitution	-10.6139
▁draußen	-10.6139
▁nineteen	-10.614
▁hab	-10.6143
weisen	-10.6144
▁roar	-10.6144
▁alice	-10.6144
▁discuss	-10.6147
▁stern	-10.6149
▁tribe	-10.615
▁hut	-10.6152
▁dancing	-10.6158
wasser	-10.6162
▁mood	-10.6165
▁web	-10.6166
gal	-10.6167
▁Kraft	-10.6176
▁greek	-10.6178
▁schaut	-10.6179
▁improve	-10.618
▁suchen	-10.6181
▁Pf	-10.6184
▁affected	-10.6187
▁totally	-10.6196
▁joe	-10.6198
▁exception	-10.6199
▁healthy	-10.6199
▁ease	-10.62
▁appears	-10.6206
▁lights	-10.6207
▁sca	-10.6209
wed	-10.6212
▁essen	-10.6214
wort	-10.6225
▁developing	-10.6227
▁instinct	-10.623
▁anxiety	-10.623
▁tremendous	-10.623
▁Ton	-10.6231
▁convinced	-10.6231
▁intense	-10.6232
▁wishes	-10.6237
▁shoot	-10.6239
▁Bio	-10.6239
▁Jeder	-10.624
▁evident	-10.6241
uring	-10.6243
▁desperate	-10.6248
▁leader	-10.626
ological	-10.6261
▁schools	-10.6261
▁hans	-10.6264
▁role	-10.6266
▁leaders	-10.6268
▁spielt	-10.627
▁code	-10.627
rot	-10.6282
▁independent	-10.6284
▁plötzlich	-10.6284
▁remote	-10.6285
▁horn	-10.6286
▁unf	-10.6294
▁poem	-10.6298
▁meines	-10.6299
▁Bevölkerung	-10.6303
▁arrival	-10.6303
▁merchant	-10.6303
▁adult	-10.6303
▁mirror	-10.6303
▁driver	-10.6304
▁Tri	-10.6305
▁halb	-10.631
für	-10.6316
▁mac	-10.6317
▁unhappy	-10.6321
▁Pi	-10.6334
▁helen	-10.6335
▁Medien	-10.6339
▁kaufen	-10.6339
▁ugly	-10.6339
▁philip	-10.634
▁foundation	-10.6341
▁gewesen	-10.6342
nach	-10.6349
▁ger	-10.6352
▁communicate	-10.6357
▁sehe	-10.6359
▁Ri	-10.6367
▁tied	-10.6368
aking	-10.6368
bus	-10.6373
deck	-10.6375
▁Gewalt	-10.6376
▁serv	-10.6377
▁Süd	-10.6377
ließ	-10.6378
cast	-10.6382
▁jim	-10.6385
ux	-10.639
▁eventually	-10.6394
▁länger	-10.6395
▁arose	-10.6395
▁cliff	-10.6396
▁hervor	-10.64
▁materials	-10.6405
▁rome	-10.6409
▁Gesundheit	-10.641
▁Bedeutung	-10.6413
▁Natürlich	-10.6413
▁continent	-10.6413
Die	-10.6414
▁facts	-10.6416
flo	-10.6416
issen	-10.6426
▁Gen	-10.643
▁pause	-10.6431
artagnan	-10.6431
▁ghost	-10.6431
▁policy	-10.6431
▁robert	-10.6433
▁heap	-10.6436
▁copy	-10.6436
berg	-10.6436
▁proceeded	-10.6438
lant	-10.644
ani	-10.6442
ziel	-10.6445
▁inquired	-10.6448
▁incredibly	-10.645
▁launch	-10.645
▁bomb	-10.6451
▁unfortunately	-10.6452
▁brains	-10.6454
mond	-10.6455
raten	-10.6459
▁stretched	-10.646
▁crew	-10.6463
▁schlechte	-10.6466
▁relation	-10.6467
▁bush	-10.6468
▁erklären	-10.6468
worth	-10.6469
▁Preis	-10.6469
▁mourn	-10.6469
▁baron	-10.6481
▁passieren	-10.6482
tus	-10.6483
yard	-10.6483
▁kindly	-10.6488
▁friendly	-10.6488
▁commission	-10.6488
isierung	-10.6494
▁phil	-10.6495
▁ki	-10.6495
▁hearts	-10.6497
▁agent	-10.6499
▁companions	-10.6499
▁lag	-10.6503
▁Konzept	-10.6505
▁arrest	-10.6506
▁miteinander	-10.651
▁eighty	-10.6512
ita	-10.6512
▁incident	-10.6524
▁politics	-10.6524
▁survive	-10.6524
▁quarrel	-10.6524
▁fought	-10.6524
▁Chris	-10.6524
fähig	-10.6527
▁stuck	-10.6527
▁Ganz	-10.6529
▁hale	-10.6539
▁refuge	-10.6543
met	-10.6546
▁Ur	-10.6549
▁grin	-10.6553
ären	-10.6553
▁Test	-10.6554
▁pour	-10.6556
▁emerge	-10.6557
▁elizabeth	-10.6562
▁platform	-10.6562
▁ashamed	-10.6562
▁mouse	-10.6568
▁recent	-10.6568
▁established	-10.657
▁protection	-10.6575
▁tan	-10.658
▁symbol	-10.658
▁Werkzeug	-10.658
over	-10.6585
▁klein	-10.6586
▁aussehen	-10.6588
▁stro	-10.6596
▁Deshalb	-10.6599
▁capacity	-10.6599
▁Tat	-10.6601
▁balance	-10.6602
▁efforts	-10.6603
nahmen	-10.6603
▁wal	-10.661
brechen	-10.6616
long	-10.6618
▁grandmother	-10.6618
▁sympathy	-10.6618
▁lunch	-10.6618
▁richard	-10.6624
kauf	-10.6626
nahme	-10.6633
tischen	-10.6634
▁issues	-10.6634
▁quit	-10.6636
▁democracy	-10.6637
▁domestic	-10.6637
▁prospect	-10.6637
▁consult	-10.6637
▁temperature	-10.6637
▁technologies	-10.6637
▁gegenüber	-10.6637
▁Geist	-10.6639
▁stroke	-10.6641
▁mache	-10.6643
▁bride	-10.6645
▁bend	-10.6649
▁assured	-10.665
▁Hoffnung	-10.6656
▁privilege	-10.6656
▁furnish	-10.6656
▁Fahr	-10.6659
▁admitted	-10.6659
▁marked	-10.667
▁Bücher	-10.6675
▁horrible	-10.6675
▁perfekt	-10.6675
▁indicate	-10.6675
▁flood	-10.6676
▁error	-10.6676
▁hinaus	-10.668
▁Va	-10.668
▁eva	-10.6683
▁del	-10.6685
▁kick	-10.6686
▁bid	-10.6687
▁tent	-10.6694
▁prompt	-10.6694
lö	-10.6696
leben	-10.6699
▁Sicht	-10.6702
stände	-10.6706
▁obvious	-10.6706
▁recognized	-10.6706
▁folks	-10.6709
▁000	-10.6709
zug	-10.6712
▁Fehler	-10.6713
▁jemals	-10.6713
▁slaves	-10.6714
▁unconscious	-10.6732
▁unexpected	-10.6732
▁hollow	-10.6733
▁returning	-10.6733
▁poison	-10.6733
▁sieben	-10.6739
▁brush	-10.6741
bol	-10.6741
lten	-10.6742
▁hinein	-10.6743
▁Studie	-10.6749
▁Während	-10.6751
rig	-10.6754
▁bond	-10.6757
▁define	-10.6758
▁hohe	-10.6759
äre	-10.6766
▁lonely	-10.677
▁render	-10.6774
izi	-10.6776
▁related	-10.6778
amp	-10.6779
▁partly	-10.6786
▁erfolgreich	-10.6789
▁verloren	-10.6789
▁una	-10.679
▁Genau	-10.6792
▁stimmt	-10.6796
▁beginnt	-10.6797
bald	-10.6799
▁unit	-10.6801
▁branches	-10.6801
▁fuel	-10.6804
▁rang	-10.6806
▁ur	-10.6808
▁games	-10.6808
▁contempt	-10.6808
▁gebaut	-10.6808
▁motive	-10.6809
▁funny	-10.681
Ma	-10.6815
▁concept	-10.6816
▁discussion	-10.682
▁surrounded	-10.6821
▁landscape	-10.6827
▁washington	-10.6828
▁refuse	-10.6828
▁seriously	-10.6828
▁dive	-10.6845
▁pressed	-10.6847
▁interessiert	-10.6847
▁saving	-10.6847
▁household	-10.685
▁sank	-10.6851
▁wolf	-10.6857
▁Tod	-10.6859
▁loving	-10.6866
▁relations	-10.6866
▁raus	-10.6877
▁engine	-10.688
▁cock	-10.6891
▁trembling	-10.6905
▁despite	-10.6905
▁schlimm	-10.6905
▁basic	-10.6905
▁gewisse	-10.6905
▁genius	-10.6906
▁vague	-10.6906
▁sofort	-10.6906
▁desk	-10.6907
▁stiff	-10.6908
▁Meter	-10.691
▁Lauf	-10.6911
▁northern	-10.6916
▁genetic	-10.6919
▁perspective	-10.6924
▁resolution	-10.6924
matic	-10.6929
Wir	-10.6936
▁Not	-10.6937
ison	-10.6941
▁traf	-10.6943
▁gezeigt	-10.6944
▁Platz	-10.6944
50	-10.6945
▁Trans	-10.6946
haus	-10.6948
pose	-10.6951
▁jumped	-10.6954
▁rage	-10.6958
qual	-10.6963
ancy	-10.6969
weit	-10.6977
▁rear	-10.6982
▁valuable	-10.6983
▁accordingly	-10.699
▁coin	-10.699
▁kissed	-10.7
▁Tatsächlich	-10.7002
▁negative	-10.7002
▁sacred	-10.7002
▁studies	-10.7002
▁urban	-10.7003
▁neighborhood	-10.7003
▁daraus	-10.7006
▁stayed	-10.7009
▁disappear	-10.7011
▁Ihrer	-10.7011
▁introduced	-10.702
▁Anzahl	-10.7025
▁essentially	-10.7026
▁statement	-10.7035
▁luc	-10.7037
▁Straßen	-10.7039
▁wachsen	-10.704
▁Innovation	-10.7042
▁deshalb	-10.7042
▁manifest	-10.7042
▁begged	-10.7043
▁labour	-10.7043
▁talent	-10.7045
▁interests	-10.705
▁younger	-10.7051
▁nachdem	-10.7051
chie	-10.7051
▁emotions	-10.7052
▁element	-10.7058
▁acknowledge	-10.7061
▁channel	-10.7061
▁expert	-10.7061
▁crisis	-10.7061
▁betray	-10.7062
▁await	-10.7062
▁stretch	-10.707
▁Ph	-10.7071
▁chap	-10.7078
▁possibility	-10.7081
▁cake	-10.7082
chlossen	-10.7084
▁hunger	-10.7085
▁isabel	-10.7087
▁sheet	-10.7088
▁neben	-10.7088
▁thoroughly	-10.7091
▁majority	-10.7091
▁sustain	-10.7097
▁drift	-10.7101
▁arrow	-10.7101
▁creative	-10.7103
▁troops	-10.7107
schnitt	-10.7112
▁Hälfte	-10.712
▁gained	-10.7127
▁descend	-10.713
rain	-10.7136
▁reckon	-10.714
▁Entscheidungen	-10.715
▁escaped	-10.7152
fold	-10.7159
▁reserve	-10.716
▁bewegt	-10.7163
▁Gi	-10.7163
▁geworden	-10.718
▁document	-10.718
▁egal	-10.7183
▁chosen	-10.7184
▁guilty	-10.7189
▁chemical	-10.72
ogen	-10.7201
▁victor	-10.7203
▁restore	-10.7214
Beifall	-10.7214
▁interessante	-10.7215
▁wing	-10.7217
▁Oberfläche	-10.722
▁teachers	-10.7221
▁Worte	-10.7234
▁Alles	-10.7235
▁significant	-10.724
upp	-10.724
▁lap	-10.7241
▁argue	-10.7241
▁gesture	-10.7242
stück	-10.7242
post	-10.7246
schlag	-10.7248
▁wearing	-10.7252
▁Orte	-10.7253
▁unge	-10.7253
▁höher	-10.726
▁glaubt	-10.726
▁civilization	-10.7261
▁burden	-10.7265
▁breaking	-10.727
rah	-10.7271
▁parliament	-10.728
▁comrade	-10.728
▁nimmt	-10.728
▁möchten	-10.7285
▁Beziehung	-10.7285
▁communities	-10.73
▁fantastic	-10.73
▁purchase	-10.73
▁danach	-10.7308
▁por	-10.7309
q	-10.7313
▁billy	-10.7314
atory	-10.7314
erweise	-10.7315
▁cab	-10.7319
▁anfangen	-10.7321
▁conquer	-10.7321
▁Teile	-10.7327
illa	-10.7328
▁americans	-10.733
cho	-10.7331
▁approaching	-10.7332
▁swift	-10.7336
▁Studenten	-10.7337
▁conscience	-10.7341
▁absurd	-10.7341
▁poll	-10.7345
▁Linie	-10.7346
▁comment	-10.735
▁published	-10.7351
▁drugs	-10.7352
▁yards	-10.7358
▁triumph	-10.7359
▁muscle	-10.7361
gress	-10.7362
▁pond	-10.7375
▁neighbour	-10.7381
▁production	-10.7383
▁estate	-10.7384
▁proposed	-10.7385
▁wichtige	-10.7385
▁onto	-10.7389
▁details	-10.7392
▁seal	-10.7395
▁profession	-10.7396
▁arranged	-10.7402
▁magnificent	-10.7402
▁seldom	-10.7402
▁sylvia	-10.7402
▁nerve	-10.7402
frei	-10.7404
▁Berg	-10.7408
▁immediate	-10.7417
▁richtige	-10.7419
In	-10.7419
▁description	-10.7422
▁whilst	-10.7422
▁humble	-10.7424
▁einzu	-10.7424
▁interact	-10.7427
▁professional	-10.7432
▁nahe	-10.7437
▁joke	-10.7439
▁campaign	-10.7443
▁necessarily	-10.7443
▁architecture	-10.7444
▁wedding	-10.7444
▁armed	-10.7445
▁slide	-10.7451
▁elect	-10.7451
▁compared	-10.7453
▁abzu	-10.7455
▁ständig	-10.7457
▁entertain	-10.7457
rian	-10.7459
▁Methode	-10.7463
▁Wörter	-10.7463
▁notes	-10.7466
▁Tür	-10.7472
▁obtain	-10.7475
▁Technologien	-10.7476
▁bekommt	-10.7476
▁victory	-10.7483
cut	-10.7483
▁patience	-10.7484
▁Chance	-10.7485
▁snap	-10.7498
▁mom	-10.7502
▁Universität	-10.7504
▁Europa	-10.7505
▁jesus	-10.7505
▁spiritual	-10.7506
▁Fuß	-10.7507
▁arbeitete	-10.7507
▁drag	-10.7507
▁bowed	-10.7515
▁bud	-10.752
▁complicated	-10.7525
▁swallow	-10.7525
▁recommend	-10.7525
▁Kamera	-10.7525
▁announced	-10.7527
▁rolled	-10.753
▁boots	-10.7532
▁Künstler	-10.7546
▁thomas	-10.7546
▁easier	-10.7546
bury	-10.7546
▁whip	-10.7548
cor	-10.7553
dium	-10.7553
▁gap	-10.7553
platz	-10.7559
über	-10.7559
▁Wind	-10.756
▁Gemeinde	-10.7566
▁colleague	-10.7566
▁fled	-10.7566
▁experienced	-10.7569
▁beard	-10.757
▁earl	-10.7573
▁destroyed	-10.7573
▁disturb	-10.7579
▁jemanden	-10.7587
▁parties	-10.7588
▁Meer	-10.7593
▁fahren	-10.7596
▁reform	-10.7603
▁essential	-10.7603
▁aktiv	-10.7608
▁warrior	-10.7608
▁improv	-10.7613
▁weary	-10.7615
▁geboren	-10.762
▁laufen	-10.7624
▁wherever	-10.7625
▁definite	-10.7629
▁district	-10.7629
▁striking	-10.7629
▁niemals	-10.7629
▁insect	-10.7629
▁slipped	-10.7631
▁Interesse	-10.7632
▁nachdenken	-10.7633
▁stable	-10.7633
▁bark	-10.764
▁concerning	-10.7641
▁plainly	-10.7644
fish	-10.7644
▁mate	-10.7648
▁accustomed	-10.765
▁counsel	-10.765
▁sensible	-10.765
▁Nachrichten	-10.7651
▁echte	-10.7653
▁patch	-10.7656
▁unlike	-10.766
fil	-10.7665
▁fatal	-10.7668
▁locked	-10.7669
▁replace	-10.7671
▁contact	-10.7671
▁rational	-10.7671
cott	-10.7671
▁divided	-10.7676
▁employ	-10.7678
▁rag	-10.7678
▁Kein	-10.7679
machen	-10.768
▁verse	-10.7687
▁findet	-10.7689
▁Mitte	-10.769
▁arrangement	-10.7691
▁verrückt	-10.7692
▁childhood	-10.7696
▁stress	-10.7698
▁stronger	-10.7698
cro	-10.7702
phone	-10.7704
▁einzelne	-10.7709
▁google	-10.7713
▁mercy	-10.7713
▁handle	-10.7714
liness	-10.7721
▁palm	-10.7722
▁craft	-10.7728
▁straw	-10.773
▁attain	-10.7734
▁endure	-10.7735
wechsel	-10.7736
▁Mars	-10.7737
▁schneller	-10.7746
water	-10.7751
▁faced	-10.7751
▁Material	-10.7753
▁library	-10.7755
▁gleam	-10.7755
▁Atom	-10.7756
führ	-10.7759
▁rede	-10.7763
tif	-10.7765
▁useless	-10.7766
▁eagerly	-10.7772
▁peasant	-10.7776
▁adapt	-10.7776
▁War	-10.7777
wissenschaft	-10.7777
▁wholly	-10.7779
▁absolut	-10.7782
▁fleet	-10.7786
terior	-10.7786
▁proceed	-10.7786
▁cheeks	-10.7789
▁piano	-10.7797
▁disorder	-10.7797
▁grateful	-10.7797
▁Folge	-10.78
kte	-10.78
▁Vortrag	-10.7802
▁Fi	-10.7812
▁punish	-10.7813
▁throne	-10.7818
üsse	-10.7821
▁daher	-10.7822
▁employed	-10.7827
▁obtained	-10.7828
▁properly	-10.7828
▁cutting	-10.7832
▁institutions	-10.7835
▁Rest	-10.7836
▁DNA	-10.7839
▁physician	-10.7839
▁variety	-10.7839
▁confine	-10.7844
▁jar	-10.7852
▁Gesundheits	-10.7857
▁version	-10.7863
▁Hund	-10.7864
gebracht	-10.7866
▁lamb	-10.7871
▁kom	-10.7873
▁lucky	-10.7874
▁lieben	-10.7875
▁bones	-10.7876
▁forehead	-10.7883
▁großartige	-10.7885
▁department	-10.7886
▁Tra	-10.7888
geht	-10.7891
▁movements	-10.7893
▁Bar	-10.7895
▁gingen	-10.7897
fach	-10.7899
viel	-10.79
▁june	-10.7901
gewöhnlich	-10.7903
▁bishop	-10.7904
▁intimate	-10.7904
▁scrap	-10.7905
▁hastily	-10.7906
▁fliegen	-10.7908
day	-10.7919
J	-10.7923
▁oppress	-10.7925
▁voyage	-10.7925
▁Fernseh	-10.7925
▁nodded	-10.7925
▁merry	-10.7926
▁beste	-10.7939
▁delightful	-10.7939
▁educat	-10.7942
thro	-10.7943
▁centre	-10.7944
▁Behandlung	-10.7947
▁feast	-10.7947
▁fetch	-10.7947
▁echo	-10.7949
▁crash	-10.7954
▁großartig	-10.7965
▁Demokratie	-10.7968
▁application	-10.7968
▁unique	-10.7968
▁babies	-10.7968
denken	-10.797
▁haste	-10.7975
innen	-10.7979
▁crush	-10.798
ivity	-10.798
▁whence	-10.7985
▁links	-10.7986
▁staff	-10.7989
▁rescue	-10.799
▁confident	-10.799
▁irre	-10.7991
▁assistance	-10.7992
▁julia	-10.7992
▁Straße	-10.7993
▁Mark	-10.7995
▁wooden	-10.7995
▁ram	-10.7997
▁shi	-10.8003
▁assist	-10.8004
▁utterly	-10.8006
▁suggestion	-10.8012
▁versuchte	-10.8013
▁marvel	-10.8014
▁curve	-10.8016
▁Su	-10.8021
▁backward	-10.8025
▁misfortune	-10.8033
▁empire	-10.8033
▁Park	-10.8041
▁infant	-10.8043
▁fog	-10.8045
▁shared	-10.8049
▁destruction	-10.8055
▁surprising	-10.8055
▁Firma	-10.8055
▁maxim	-10.8055
▁drown	-10.8055
▁Super	-10.8057
▁chose	-10.806
▁punishment	-10.806
▁pie	-10.8064
▁guns	-10.8067
▁coral	-10.8072
▁Maschine	-10.8073
kam	-10.8075
▁preparation	-10.8077
▁sonst	-10.808
▁arise	-10.808
▁elements	-10.808
▁bone	-10.8088
▁Medizin	-10.8098
▁Prinzip	-10.8098
▁widow	-10.8098
▁misery	-10.8099
▁particle	-10.8099
figur	-10.8105
▁uttered	-10.8107
▁bist	-10.8115
folge	-10.8115
▁mögen	-10.812
▁strict	-10.812
▁singular	-10.8121
▁committed	-10.8123
▁addressed	-10.8124
▁honey	-10.8125
▁whale	-10.8126
▁sleeping	-10.8131
uction	-10.8133
ori	-10.8138
▁tis	-10.8139
▁fing	-10.8142
▁museum	-10.8142
▁feared	-10.8146
▁distinguished	-10.816
▁joseph	-10.8164
▁vehicle	-10.8164
▁powder	-10.8164
keeper	-10.8167
▁poetry	-10.817
teilen	-10.8173
▁gather	-10.8182
▁expedition	-10.8186
▁curtain	-10.8186
▁expand	-10.8186
▁survey	-10.8186
▁condemn	-10.8186
▁generous	-10.8187
▁machten	-10.8199
▁rent	-10.8203
▁Or	-10.8205
▁stamp	-10.8205
▁Che	-10.8206
▁Jahrzehnt	-10.8208
▁sexual	-10.821
▁ziehen	-10.8212
▁ninety	-10.8216
▁Cha	-10.8218
▁cheek	-10.822
▁sk	-10.8221
geführt	-10.8222
▁extend	-10.8225
▁lighted	-10.8226
most	-10.8229
▁twist	-10.823
▁applied	-10.823
▁liberal	-10.823
▁carpet	-10.8231
▁Wieder	-10.8231
▁jean	-10.8231
▁Armut	-10.8235
▁weapons	-10.8238
▁guten	-10.8247
▁Nur	-10.8249
▁Zusammen	-10.8252
▁offensichtlich	-10.8253
▁phrase	-10.8253
▁spoil	-10.8253
▁meadow	-10.8253
▁concentrat	-10.8253
▁arbeitet	-10.8254
▁alternative	-10.8254
rüber	-10.8255
▁flush	-10.8261
▁hunter	-10.8263
▁germany	-10.8264
▁spell	-10.8266
▁til	-10.8267
▁unfortunate	-10.8272
▁diagnos	-10.8275
▁bon	-10.8278
▁Zahlen	-10.8279
▁election	-10.829
▁conceal	-10.8292
reif	-10.8292
▁Wachstum	-10.8297
▁Fortschritt	-10.8297
▁erlaubt	-10.8297
▁Papier	-10.8297
▁Strom	-10.8297
▁deeper	-10.831
wah	-10.8317
▁dared	-10.8318
▁celebrate	-10.8319
▁expensive	-10.8319
▁typical	-10.8319
▁erect	-10.832
▁mostly	-10.8322
▁Blick	-10.8322
ollen	-10.8324
▁fehl	-10.8325
▁passionate	-10.8327
netz	-10.8331
▁alten	-10.8335
ograph	-10.8338
▁helping	-10.8338
▁fal	-10.834
▁zeige	-10.8341
▁sovereign	-10.8342
▁provision	-10.8342
▁damage	-10.8342
▁stared	-10.8344
▁US	-10.8345
▁Mon	-10.8363
▁mont	-10.8363
▁invisible	-10.8364
▁cure	-10.8366
▁shaking	-10.8368
hlen	-10.8368
▁orange	-10.837
▁leaf	-10.8371
▁früher	-10.8372
▁riding	-10.8378
wende	-10.8379
▁setzt	-10.8381
▁nuclear	-10.8387
▁conceive	-10.8387
▁sozialen	-10.8388
position	-10.839
▁tie	-10.8392
▁pine	-10.8394
▁troubled	-10.84
▁construct	-10.8402
▁expectation	-10.8404
▁torn	-10.8407
▁specific	-10.8408
▁commercial	-10.8409
verse	-10.8411
▁Miss	-10.8414
▁Von	-10.8414
▁electricity	-10.8416
▁throwing	-10.8421
▁blau	-10.8424
▁visited	-10.8425
▁liegen	-10.8425
▁fourteen	-10.8432
▁losing	-10.8441
▁warning	-10.8447
point	-10.8447
▁enorm	-10.8453
▁Gruppen	-10.8455
▁interval	-10.8457
▁hielt	-10.8457
▁magnet	-10.8458
▁gegeben	-10.846
▁extended	-10.846
▁hiv	-10.8461
▁Entscheidung	-10.8466
▁wichtiger	-10.8474
▁admiration	-10.8477
▁confirm	-10.8477
nik	-10.8478
▁confusion	-10.8479
▁scheme	-10.8479
▁witch	-10.8479
▁recovered	-10.8481
band	-10.8484
▁dragon	-10.8486
▁Daher	-10.8489
▁Auch	-10.8498
▁weigh	-10.8499
▁fifth	-10.85
▁uniform	-10.85
▁monster	-10.8503
▁veil	-10.8516
▁debt	-10.8518
▁criminal	-10.8523
▁furniture	-10.8523
▁industrial	-10.8523
▁näher	-10.8523
▁passenger	-10.8523
▁prä	-10.8523
▁grain	-10.8525
▁decline	-10.8526
lio	-10.8526
ographic	-10.8535
▁sale	-10.8535
▁mehrere	-10.8542
▁behave	-10.8546
▁wretched	-10.855
▁erzählt	-10.8559
▁murmured	-10.8567
▁Schauen	-10.8568
▁forbid	-10.857
▁Geh	-10.8571
acious	-10.8573
▁Hoch	-10.8574
▁venture	-10.8576
▁Kosten	-10.8577
▁mounted	-10.8589
▁Ergebnis	-10.859
oid	-10.8591
▁Mathematik	-10.8591
▁disgust	-10.8591
▁composed	-10.8591
▁relieve	-10.8591
▁pool	-10.8592
▁shone	-10.8593
▁gazed	-10.8596
▁classes	-10.8599
▁accompanied	-10.8614
▁financial	-10.8614
▁herauszufinden	-10.8614
▁attached	-10.8614
▁Theorie	-10.8614
▁nennt	-10.8614
▁mono	-10.8617
▁imagined	-10.8623
▁molecule	-10.8637
▁Schüler	-10.8637
träge	-10.8638
▁qui	-10.8638
▁mix	-10.8639
fälle	-10.8641
▁genommen	-10.8646
▁Car	-10.8646
richtung	-10.8646
▁cord	-10.8646
▁repair	-10.866
▁convey	-10.8661
▁Revolution	-10.8661
▁entering	-10.8661
▁Staat	-10.8662
dimensional	-10.8665
▁engagement	-10.8668
▁unp	-10.8668
▁chu	-10.8671
▁Studien	-10.8686
▁painted	-10.8695
version	-10.8695
▁Masse	-10.8699
▁manche	-10.8701
▁european	-10.8701
▁inspired	-10.8702
▁california	-10.8707
▁software	-10.8707
▁creation	-10.8707
▁neat	-10.8707
seite	-10.8707
▁overcome	-10.8707
▁Zugang	-10.8709
▁summon	-10.8709
▁35	-10.8711
▁submit	-10.8711
▁lucy	-10.8712
▁russian	-10.8717
▁ty	-10.872
▁trained	-10.8728
▁intellect	-10.8729
▁context	-10.873
▁midnight	-10.873
▁retain	-10.873
▁trunk	-10.8732
print	-10.8733
▁setzen	-10.8735
▁invented	-10.8739
▁gesund	-10.8742
▁settle	-10.8742
▁exhibit	-10.8743
▁ließ	-10.8744
▁tragen	-10.8744
bon	-10.8746
▁drinking	-10.8748
finden	-10.8751
hir	-10.8752
▁commit	-10.8754
▁bake	-10.8756
▁ol	-10.8759
▁Sex	-10.8761
▁Min	-10.8763
▁assure	-10.8767
▁pound	-10.8768
▁philosopher	-10.8777
▁neuro	-10.878
▁anstatt	-10.8782
▁hook	-10.8782
▁zero	-10.8784
▁mistaken	-10.8785
▁traditional	-10.8787
▁bench	-10.8788
▁dachten	-10.879
▁modest	-10.8799
▁verbessern	-10.88
▁ambition	-10.88
▁annoy	-10.88
▁directed	-10.8801
▁Druck	-10.8801
▁quote	-10.8802
▁congress	-10.8803
▁addition	-10.8805
▁steep	-10.8805
▁rude	-10.8809
▁Wohn	-10.8809
länder	-10.8817
ora	-10.882
▁opera	-10.8822
▁Reaktion	-10.8823
▁expense	-10.8824
▁studied	-10.8824
▁außer	-10.8824
▁rh	-10.8824
▁departure	-10.8824
▁reference	-10.8825
▁Menschheit	-10.8826
▁Uhr	-10.8827
▁agreeable	-10.8831
▁perceive	-10.8831
tech	-10.8834
änder	-10.8835
▁sau	-10.8837
▁missing	-10.8838
▁suspect	-10.8844
▁plastic	-10.8847
▁responsibility	-10.8847
▁älter	-10.8847
▁clinic	-10.8852
zel	-10.8852
▁Fähigkeiten	-10.8854
▁pea	-10.8864
▁Google	-10.8871
▁gleichzeitig	-10.8871
▁schm	-10.8872
▁cease	-10.888
gri	-10.8883
▁merit	-10.8885
▁chop	-10.8888
▁snake	-10.8894
▁chicken	-10.8896
▁characteristic	-10.8896
▁japan	-10.8897
▁institution	-10.89
▁virus	-10.89
▁crop	-10.8902
▁arrive	-10.8903
▁humor	-10.8904
▁devoted	-10.8906
▁sending	-10.8908
▁blush	-10.891
▁burned	-10.8912
▁monte	-10.8913
ima	-10.8914
▁Wand	-10.8917
▁ignorant	-10.8918
▁swept	-10.8918
▁pad	-10.892
▁crawl	-10.8923
▁section	-10.8924
lai	-10.8936
▁fright	-10.8938
▁melancholy	-10.8942
▁Ärzte	-10.8942
▁sweep	-10.8942
▁indulge	-10.8942
▁Flugzeug	-10.8942
▁Mitgefühl	-10.8942
▁brook	-10.8942
▁patent	-10.8944
▁hay	-10.8955
▁surrounding	-10.8956
▁parent	-10.8957
▁leaning	-10.896
aktiv	-10.8962
▁erkannt	-10.8966
▁verbracht	-10.8966
▁kreativ	-10.8966
▁folk	-10.8972
▁mild	-10.8978
▁sahen	-10.8979
▁impatient	-10.8989
▁bacteria	-10.8989
▁granted	-10.8993
▁saddle	-10.8993
▁reaching	-10.8996
▁resumed	-10.9013
▁vergessen	-10.9013
▁deceive	-10.9013
▁plot	-10.9014
▁dirty	-10.9018
▁Ebene	-10.902
▁bade	-10.9021
▁Führung	-10.9037
▁tomorrow	-10.9037
▁spanish	-10.9037
▁target	-10.9037
▁restrain	-10.904
▁creep	-10.904
▁limited	-10.9041
▁geo	-10.9044
▁vorbei	-10.9047
▁gebe	-10.9059
▁Elektro	-10.9061
▁Telefon	-10.9061
▁neglect	-10.9061
▁afterward	-10.9062
▁begannen	-10.9062
▁silly	-10.9062
▁italian	-10.9063
▁regulat	-10.9066
▁nearest	-10.9067
▁reign	-10.9079
▁Herr	-10.9083
▁bestimmte	-10.9084
▁renew	-10.9086
▁bosom	-10.9087
▁kate	-10.9088
▁chin	-10.9089
yo	-10.9091
▁Akt	-10.9092
▁400	-10.9094
▁angle	-10.9094
▁nan	-10.9095
▁preach	-10.9099
▁whereas	-10.91
▁nonsense	-10.911
▁Religion	-10.911
▁eternal	-10.911
▁occasionally	-10.9113
pper	-10.9115
▁Vereinigte	-10.9134
▁thread	-10.9134
▁aloud	-10.9134
▁lodge	-10.9136
▁plunge	-10.9138
▁sitzen	-10.9139
ständig	-10.9148
▁accomplish	-10.9157
▁anna	-10.9158
▁catherine	-10.9158
▁identity	-10.9158
▁Büro	-10.9158
▁careless	-10.916
▁engage	-10.9163
▁zuerst	-10.9166
kor	-10.9168
▁tramp	-10.917
selben	-10.9171
▁refer	-10.9172
▁badly	-10.9175
▁inclined	-10.9182
▁qualities	-10.9182
▁reject	-10.9183
▁Zeug	-10.9184
▁frog	-10.9187
▁Abend	-10.9187
▁Traum	-10.9189
▁breed	-10.9194
Re	-10.9195
▁swim	-10.9198
▁geschieht	-10.9207
▁contrast	-10.9207
▁bedeuten	-10.9207
labor	-10.9207
▁sodass	-10.9207
▁chase	-10.921
▁pirate	-10.9216
▁intend	-10.9216
▁hörte	-10.9219
▁andrew	-10.9219
▁darling	-10.9219
▁contained	-10.9223
▁curl	-10.9225
▁Aufmerksamkeit	-10.9231
▁Evolution	-10.9231
▁conference	-10.9231
▁ermöglicht	-10.9231
▁Netz	-10.9235
▁sounded	-10.9236
wähl	-10.9237
▁invention	-10.9239
▁Geschäfts	-10.9245
▁collection	-10.9246
Ja	-10.9247
▁objection	-10.9247
grund	-10.9247
▁illness	-10.9254
▁numerous	-10.9256
▁alte	-10.9264
▁remove	-10.9266
▁speaker	-10.9267
▁separated	-10.9274
▁Bewusstsein	-10.928
▁literature	-10.928
▁estimate	-10.928
▁whirl	-10.928
▁ascend	-10.9282
▁Monaten	-10.9282
▁negro	-10.9282
▁torture	-10.9282
welt	-10.9287
▁tide	-10.9297
laufen	-10.9299
▁gown	-10.9299
▁prevail	-10.9305
▁rabbit	-10.9305
▁Partner	-10.9305
▁shirt	-10.9306
▁Ding	-10.931
▁hid	-10.931
▁branch	-10.9315
Be	-10.9318
▁sufficiently	-10.9329
▁bless	-10.933
▁supreme	-10.933
▁inhabitants	-10.933
▁column	-10.933
▁purple	-10.933
▁Pflanzen	-10.9343
▁großer	-10.9345
▁boot	-10.9351
▁Gespräch	-10.9354
▁basis	-10.9357
▁peak	-10.9367
▁paying	-10.9373
▁Kern	-10.9374
ella	-10.9378
é	-10.9379
▁philosophy	-10.9379
▁reputation	-10.9379
▁lokal	-10.938
Wie	-10.9381
▁radio	-10.9381
▁retired	-10.9383
▁duties	-10.9384
▁permit	-10.9387
▁fertig	-10.939
▁150	-10.9392
▁fühlte	-10.94
durch	-10.9401
▁concluded	-10.9403
▁magazine	-10.9404
▁Ergebnisse	-10.9405
▁cattle	-10.9407
▁Mehr	-10.9414
▁verlassen	-10.9414
▁eastern	-10.9414
▁wussten	-10.9415
▁climbed	-10.9417
programm	-10.9419
▁Seiten	-10.9423
▁bestimmt	-10.9426
▁sighed	-10.9428
ji	-10.9428
▁legislat	-10.9429
▁mankind	-10.9429
▁folgende	-10.9432
▁führte	-10.9446
▁voller	-10.9451
▁architect	-10.9453
schütz	-10.9455
▁slope	-10.9466
▁hack	-10.947
▁Flug	-10.9473
▁background	-10.9479
▁firmly	-10.948
▁martin	-10.9488
▁Will	-10.9492
▁intent	-10.9498
▁nein	-10.95
▁delivered	-10.95
▁studying	-10.9502
lick	-10.9502
▁handkerchief	-10.9504
▁bloom	-10.9504
▁pierre	-10.9505
▁slo	-10.9507
▁Monat	-10.9507
▁eaten	-10.9512
▁expos	-10.9515
▁prime	-10.9517
town	-10.9521
▁lane	-10.9523
▁kenne	-10.9525
▁Grenzen	-10.9526
▁appointed	-10.9529
▁sensitive	-10.9529
▁scratch	-10.9529
▁Klima	-10.9529
▁excess	-10.9529
cap	-10.953
▁ragged	-10.953
▁cheese	-10.953
▁Amerikaner	-10.9532
▁dramatic	-10.9536
▁precisely	-10.9543
zugehen	-10.9548
▁zweiten	-10.9553
▁narrative	-10.9555
▁perception	-10.9556
▁float	-10.9556
▁safely	-10.9556
▁Ehe	-10.9558
▁Krankheiten	-10.9559
leistung	-10.956
▁vent	-10.9564
▁tad	-10.9569
▁Schulen	-10.9571
▁math	-10.9575
▁Ok	-10.9578
▁impulse	-10.958
▁geschrieben	-10.958
ibility	-10.958
▁permitted	-10.9582
Musik	-10.9589
▁shooting	-10.9593
statt	-10.9595
▁passierte	-10.9597
▁goat	-10.96
▁represented	-10.9601
&	-10.9605
▁invitation	-10.9605
▁thirst	-10.9605
▁medizinische	-10.9605
▁facing	-10.9606
▁accomplished	-10.9607
▁pearl	-10.9609
chester	-10.961
▁urge	-10.9611
▁beaten	-10.9612
▁staring	-10.9612
▁difficulties	-10.9616
▁vol	-10.9623
▁wandering	-10.9624
▁trot	-10.9629
▁Nummer	-10.9631
▁betrachtet	-10.9631
▁bleibt	-10.9631
▁scholar	-10.9631
industrie	-10.9631
▁kaum	-10.964
▁Meeres	-10.9645
▁gang	-10.9645
▁Para	-10.9646
▁rail	-10.9649
wirtschaft	-10.965
▁leather	-10.9656
▁ändert	-10.9657
▁countess	-10.9659
▁reaction	-10.9666
▁plane	-10.967
▁lernte	-10.9677
▁lately	-10.968
▁Organ	-10.9682
▁switch	-10.9684
▁interfere	-10.9685
▁harder	-10.9688
▁echt	-10.9693
▁assume	-10.9694
▁flatter	-10.9695
▁45	-10.9698
▁astonishment	-10.9708
▁beobachten	-10.9708
▁province	-10.9708
▁pursuit	-10.9708
▁fearful	-10.9713
prüf	-10.9731
▁execution	-10.9733
▁utmost	-10.9733
▁Fälle	-10.9733
▁random	-10.9733
▁wirtschaftliche	-10.9733
▁bemerkt	-10.9734
▁Feuer	-10.9735
tail	-10.9737
ände	-10.9739
▁graph	-10.9741
▁wagon	-10.9749
▁fed	-10.9752
schrieb	-10.9753
▁häufig	-10.9759
▁mechanical	-10.9759
▁israel	-10.976
▁belonged	-10.9763
▁wander	-10.9773
▁improvement	-10.9774
▁rendered	-10.9775
avi	-10.9778
▁folgen	-10.9782
reichen	-10.9784
▁reflected	-10.9785
▁Kontrolle	-10.9785
▁gesprochen	-10.9785
▁uncertain	-10.9785
▁murmur	-10.9786
alität	-10.9791
▁haunt	-10.9793
▁weakness	-10.9798
load	-10.98
▁fence	-10.9807
energie	-10.9808
▁rod	-10.9809
▁horizon	-10.981
▁external	-10.9811
▁responsible	-10.9811
▁schafft	-10.9811
▁leisure	-10.9811
▁Region	-10.9811
▁defeat	-10.9811
▁Handy	-10.9822
▁egypt	-10.9829
erei	-10.9829
▁Vergangenheit	-10.9837
▁virtual	-10.9837
▁portrait	-10.9837
▁strongly	-10.9837
schrift	-10.9837
▁monk	-10.9837
▁frequent	-10.9841
▁upward	-10.9854
born	-10.9857
▁abroad	-10.9863
▁abuse	-10.9873
▁lean	-10.9875
foot	-10.9876
▁compare	-10.9876
gesetz	-10.9887
▁remaining	-10.989
▁komplexe	-10.989
▁induce	-10.989
▁citizen	-10.99
▁Rat	-10.9901
▁doubtless	-10.9905
vid	-10.991
▁blessing	-10.9911
▁Personen	-10.9912
▁prior	-10.9915
▁permanent	-10.9915
▁zumindest	-10.9915
▁gratitude	-10.9915
▁whistle	-10.9915
▁bilden	-10.9915
▁convert	-10.9916
▁chill	-10.9921
▁helpless	-10.9921
▁acting	-10.9924
▁commanded	-10.9936
▁astonished	-10.9941
▁Funktion	-10.9941
▁Himmel	-10.9942
▁insult	-10.9943
zzle	-10.9944
▁workers	-10.9945
▁Kreis	-10.9948
▁clay	-10.9948
▁gloom	-10.9951
▁virginia	-10.9952
▁ansehen	-10.9961
not	-10.9965
▁fantastisch	-10.9968
▁physics	-10.9968
▁Maß	-10.9974
▁katy	-10.9976
▁route	-10.9976
bahn	-10.9984
▁etc	-10.9992
▁Kollegen	-10.9994
▁Können	-10.9994
▁acquainted	-10.9994
▁ignorance	-10.9994
▁Freiheit	-10.9995
▁Sohn	-11.0004
teilung	-11.0006
typ	-11.0007
bank	-11.002
zeichnen	-11.002
▁definition	-11.002
▁gearbeitet	-11.002
▁thrill	-11.002
▁scorn	-11.0021
Pro	-11.0025
▁Geschäft	-11.0032
▁descended	-11.0034
▁killing	-11.0038
kreis	-11.0039
▁leaned	-11.0046
▁endeavour	-11.0047
▁Firmen	-11.0047
▁fossil	-11.0047
▁Höhe	-11.0047
▁verlieren	-11.0047
▁persist	-11.005
▁sauce	-11.0054
▁Inter	-11.0059
▁morgen	-11.0061
▁Erinnerung	-11.0074
▁catholic	-11.0074
▁kompliziert	-11.0074
▁muslim	-11.0074
▁sharply	-11.0074
▁beheld	-11.0074
▁mock	-11.0076
▁mobile	-11.0076
▁bestimmten	-11.0077
tritt	-11.0079
▁shy	-11.0088
▁Stelle	-11.0096
▁knocked	-11.0096
▁seeking	-11.0097
▁enjoyed	-11.0099
macht	-11.01
▁Einfluss	-11.01
▁lincoln	-11.01
▁depression	-11.01
▁täglich	-11.01
▁steady	-11.01
▁likewise	-11.01
▁raising	-11.01
▁clasp	-11.0101
rennen	-11.0102
▁needle	-11.0104
▁Haut	-11.0108
▁Regeln	-11.0111
▁selfish	-11.0113
▁assumed	-11.0114
▁reduce	-11.0115
▁handelt	-11.0121
▁Präsident	-11.0127
▁elephant	-11.0127
▁compelled	-11.0127
▁muttered	-11.0127
▁sample	-11.0128
▁biology	-11.0129
▁bun	-11.0129
▁furious	-11.0129
▁transfer	-11.013
▁mixed	-11.0132
gesehen	-11.0132
▁wann	-11.0132
▁Pla	-11.0138
▁erzählte	-11.0138
▁fern	-11.0141
▁italy	-11.0147
mobil	-11.0147
▁squire	-11.0154
setzung	-11.0154
▁clerk	-11.0154
▁Pu	-11.0156
▁curse	-11.0158
▁groan	-11.0166
▁tolle	-11.017
▁duck	-11.0174
▁vice	-11.0176
▁Konflikt	-11.0181
▁confused	-11.0181
▁smoking	-11.0181
▁sunshine	-11.0181
▁heavily	-11.0181
▁beschloss	-11.0181
▁nail	-11.0183
▁disposition	-11.0183
kommt	-11.0184
▁shark	-11.0187
▁lightning	-11.0194
▁stout	-11.0195
istische	-11.0197
▁kar	-11.0208
▁scattered	-11.0208
gruppe	-11.0208
▁threatened	-11.0208
▁Beweis	-11.0213
artige	-11.0214
▁App	-11.0215
▁chip	-11.0224
▁sadly	-11.0226
chung	-11.0228
▁bushes	-11.023
▁Spezies	-11.0235
▁opportunities	-11.0235
▁symptom	-11.0235
▁Kampf	-11.0235
▁miracle	-11.0235
▁Morgen	-11.0235
▁gern	-11.0243
▁traveller	-11.0244
▁mail	-11.0254
▁tissue	-11.0262
▁Regen	-11.0262
▁oliver	-11.0262
▁freely	-11.0263
▁representative	-11.0264
metri	-11.0265
▁adopt	-11.0266
▁conviction	-11.0269
▁musical	-11.0269
▁walter	-11.027
▁nenne	-11.0272
encies	-11.0275
▁dahin	-11.0279
▁Kommunikation	-11.0289
▁Risiko	-11.0289
▁centuries	-11.0289
▁nachzudenken	-11.0289
▁combination	-11.0289
▁traffic	-11.0289
▁hiding	-11.0291
▁John	-11.0291
▁irish	-11.0292
▁efficient	-11.0293
ession	-11.0299
uh	-11.0299
▁Vo	-11.03
▁poured	-11.0308
▁lung	-11.0312
▁Physik	-11.0316
▁artificial	-11.0316
▁disappointment	-11.0316
▁lecture	-11.0316
▁brig	-11.0317
▁debate	-11.0318
▁marble	-11.0322
▁komme	-11.0322
▁diana	-11.0325
▁goodness	-11.0332
▁relate	-11.0332
▁Tu	-11.0333
▁abandoned	-11.0333
▁kin	-11.0336
▁glimpse	-11.0343
▁speziell	-11.0343
▁glorious	-11.0344
▁Dorf	-11.0344
▁Beginn	-11.0344
▁email	-11.0344
▁Leistung	-11.0344
▁swear	-11.0344
▁naked	-11.0344
▁ornament	-11.0344
▁Har	-11.0347
▁era	-11.0347
uv	-11.0348
▁ruth	-11.0352
▁layer	-11.0361
▁1000	-11.0364
▁dollar	-11.0367
hold	-11.0368
▁contribute	-11.0371
▁spectacle	-11.0371
▁committee	-11.0371
▁vital	-11.0373
▁Einzel	-11.0375
▁collective	-11.0377
▁Baum	-11.0377
▁For	-11.0385
▁bind	-11.039
▁rolling	-11.0394
▁association	-11.0398
▁lieutenant	-11.0398
▁abstract	-11.0398
▁reproach	-11.0398
▁National	-11.0399
▁distinguish	-11.0403
komm	-11.0407
▁crowded	-11.041
▁barn	-11.0412
▁bowl	-11.0413
▁erfahren	-11.0419
▁gefährlich	-11.0426
▁graduate	-11.0426
▁Arzt	-11.0426
▁trotzdem	-11.0426
▁zeal	-11.0429
▁pump	-11.0434
Ko	-11.044
▁release	-11.0442
▁Nachricht	-11.0453
▁Gefängnis	-11.0454
▁societies	-11.0454
▁Terror	-11.0454
▁Wirklichkeit	-11.0454
▁quantity	-11.0454
▁schrecklich	-11.0454
▁website	-11.0454
stoß	-11.0457
▁exert	-11.0458
▁organism	-11.0459
▁slightest	-11.046
!"	-11.0463
▁retten	-11.0466
▁reduced	-11.0466
▁tempt	-11.0467
▁Sinne	-11.0468
0000	-11.0468
▁stem	-11.0468
▁Klasse	-11.0472
▁distinction	-11.0475
▁startled	-11.0478
▁deserted	-11.048
▁beloved	-11.0481
▁ralph	-11.0481
▁vanished	-11.0481
▁continually	-11.0492
▁brick	-11.0494
▁preserve	-11.0497
will	-11.0498
▁arbeite	-11.05
▁gloomy	-11.0501
leitet	-11.0505
▁circumstance	-11.0508
▁Spaß	-11.0509
▁ehrlich	-11.0509
▁anschauen	-11.0509
▁winzig	-11.051
▁regiment	-11.051
▁collar	-11.0515
minister	-11.052
▁rosa	-11.0523
itter	-11.0531
▁grade	-11.0532
▁eben	-11.0534
ography	-11.0535
person	-11.0536
▁nett	-11.0537
▁Software	-11.0537
▁seltsam	-11.0537
▁australia	-11.0537
▁erzeugen	-11.0537
▁polish	-11.0537
▁OK	-11.0543
▁madam	-11.0544
▁merri	-11.055
buch	-11.0555
▁Industrie	-11.0565
▁Wesen	-11.0566
▁Früh	-11.0569
▁eve	-11.0573
▁attended	-11.0577
breite	-11.0577
▁dwell	-11.058
▁wert	-11.0582
▁disappointed	-11.0593
▁michael	-11.0593
▁»	-11.0593
▁unmöglich	-11.0597
▁hoping	-11.0603
▁simon	-11.0608
▁starb	-11.0614
▁San	-11.0615
▁Bakterien	-11.0621
▁satisfy	-11.0621
▁bolt	-11.0621
▁ox	-11.0627
▁bang	-11.0627
▁Kor	-11.0627
▁drum	-11.0645
▁floating	-11.0646
▁gathering	-11.0651
▁Sein	-11.0652
▁sunlight	-11.0653
▁Wald	-11.0653
▁gotten	-11.0654
▁reveal	-11.0656
ado	-11.0664
sprach	-11.0667
▁peril	-11.0672
▁enthusiasm	-11.0677
▁«	-11.0677
▁einzelnen	-11.0682
▁romantic	-11.0682
▁egg	-11.0691
▁anymore	-11.0693
▁boxes	-11.0694
▁grab	-11.0704
▁aussieht	-11.0706
▁consequently	-11.0706
▁elegant	-11.0706
▁phenomenon	-11.0706
hängig	-11.0706
▁gewinnen	-11.0706
▁resign	-11.0706
Ver	-11.0712
▁drank	-11.0712
▁No	-11.0724
▁denkt	-11.0729
▁illegal	-11.0734
▁messenger	-11.0734
▁nutzt	-11.0736
▁crep	-11.0737
▁plac	-11.074
▁sooth	-11.0743
▁gehe	-11.0751
▁amid	-11.0753
▁Beziehungen	-11.0756
▁Medikamente	-11.0762
▁cooper	-11.0763
▁fragment	-11.0763
▁Schlaf	-11.0763
▁spear	-11.0763
▁Neuro	-11.0768
▁meantime	-11.0768
▁nannte	-11.0774
▁tele	-11.0778
▁determine	-11.0781
▁swell	-11.0783
▁comb	-11.0787
▁erklärt	-11.0791
▁thirteen	-11.0791
▁Schmerz	-11.0791
▁absent	-11.0791
▁rifle	-11.0791
▁resistance	-11.0794
▁permission	-11.0795
▁examined	-11.0796
▁Finger	-11.0797
▁Wal	-11.0797
▁jail	-11.08
▁extract	-11.0807
▁danke	-11.0807
▁Komm	-11.0819
▁tube	-11.0819
▁stomach	-11.082
▁verbinden	-11.082
▁saß	-11.0825
▁existiert	-11.0825
▁pursued	-11.0827
▁readily	-11.083
▁ensu	-11.0837
berry	-11.0841
▁breathing	-11.0841
▁jaw	-11.0846
▁cries	-11.0848
▁britain	-11.0849
▁brazil	-11.0849
▁jungen	-11.085
Er	-11.0853
▁slavery	-11.0854
▁mask	-11.0857
▁eure	-11.0858
▁Damit	-11.086
▁accord	-11.0861
▁clam	-11.0867
gegeben	-11.087
▁attribute	-11.0877
▁worried	-11.0877
▁opposition	-11.0877
fisch	-11.0885
▁hört	-11.0892
▁declare	-11.0896
▁insisted	-11.0898
zunehmen	-11.0904
▁volunteer	-11.0906
▁enchant	-11.0906
▁esteem	-11.0906
▁irgendeine	-11.0907
ologen	-11.0908
▁solchen	-11.0908
ifying	-11.0911
▁harsh	-11.0916
▁environmental	-11.0917
▁Landes	-11.0917
▁disturbed	-11.0918
▁flour	-11.0923
▁prepare	-11.0925
▁gebracht	-11.0929
▁minor	-11.0929
▁commander	-11.0932
▁operate	-11.0934
▁Molekül	-11.0935
▁pronounce	-11.0935
▁shudder	-11.0935
▁entdecken	-11.0935
▁worm	-11.0936
▁weird	-11.0941
▁collected	-11.0943
▁wandered	-11.0963
▁Ressourcen	-11.0964
▁endeavor	-11.0964
▁unpleasant	-11.0964
▁rachel	-11.0964
▁albert	-11.0965
▁CO	-11.0969
▁johnson	-11.0976
▁feature	-11.0977
wesen	-11.0984
▁plea	-11.0988
▁flies	-11.099
▁exposed	-11.0992
▁deliberate	-11.0993
▁florence	-11.0993
▁Lu	-11.1001
▁“	-11.1006
▁desto	-11.1006
▁latin	-11.101
▁ultimately	-11.1011
▁befinden	-11.1018
▁appreciate	-11.1019
▁raw	-11.1019
▁enterprise	-11.1023
▁heutzutage	-11.1023
▁ridiculous	-11.1023
▁Finanz	-11.1023
▁league	-11.1023
▁approve	-11.1023
▁gefragt	-11.1023
▁barrier	-11.1023
▁hitherto	-11.1024
▁hopeless	-11.1026
▁lace	-11.1041
▁tomb	-11.1043
▁Sterne	-11.1043
▁introduce	-11.1049
▁Glauben	-11.1052
▁struggling	-11.1052
▁veröffentlicht	-11.1052
▁emily	-11.106
▁capture	-11.1076
▁Stein	-11.1077
▁pulling	-11.1079
▁dragge	-11.1079
▁cultural	-11.1081
▁Wahrscheinlich	-11.1081
▁telephone	-11.1082
shire	-11.1087
▁click	-11.1089
▁departed	-11.1095
▁shine	-11.1096
▁insist	-11.1096
▁aufgrund	-11.1096
▁My	-11.1101
▁gekommen	-11.1106
▁HIV	-11.1111
▁dwarf	-11.1111
▁speculat	-11.1111
▁Text	-11.1112
▁marilla	-11.1112
▁leisten	-11.1121
▁bible	-11.1122
▁flock	-11.1127
gibt	-11.1127
▁performed	-11.1128
▁hesitated	-11.113
▁belonging	-11.1134
▁contradict	-11.114
▁multitude	-11.114
▁produzieren	-11.114
▁Bäume	-11.1141
▁compliment	-11.1141
▁opposed	-11.1156
▁gering	-11.1158
▁75	-11.1165
▁exhausted	-11.1168
▁accurate	-11.117
▁steadily	-11.117
▁elbow	-11.117
▁hilft	-11.117
▁Bühne	-11.117
▁tv	-11.1172
▁vivid	-11.1172
▁neun	-11.1173
▁hastened	-11.1175
▁Erwachsene	-11.1175
▁robe	-11.1178
mount	-11.1187
▁weapon	-11.1189
▁marsh	-11.1196
▁disposed	-11.12
▁liquid	-11.12
▁swimming	-11.12
▁verbreitet	-11.12
▁Stamm	-11.12
▁irgendwo	-11.12
▁studio	-11.1201
▁boston	-11.1201
▁chuck	-11.1203
▁rival	-11.1204
geschichte	-11.1205
seits	-11.1205
▁damn	-11.1207
▁dreht	-11.1208
▁versuche	-11.1214
sinn	-11.1215
▁washed	-11.1222
▁Hä	-11.1222
trägt	-11.123
▁appropriate	-11.123
▁editor	-11.123
▁Frieden	-11.123
▁niedrig	-11.123
▁dauert	-11.1231
▁susan	-11.1233
▁repent	-11.1234
▁fühlt	-11.1234
▁dadurch	-11.1235
▁eh	-11.1236
cop	-11.1237
fried	-11.1238
▁schwarze	-11.1244
▁bullet	-11.1246
▁democratic	-11.1248
▁dimension	-11.1253
▁polly	-11.1259
▁borrow	-11.126
▁ceremony	-11.126
▁oxygen	-11.126
▁depriv	-11.126
▁undertake	-11.1261
▁dismiss	-11.1261
▁fortunate	-11.1264
▁apparent	-11.1264
▁Vergleich	-11.1264
▁läuft	-11.1269
▁spur	-11.1271
agon	-11.1272
▁öffentlichen	-11.1273
20	-11.1277
▁fancied	-11.129
▁Andere	-11.129
▁management	-11.1296
▁Beruf	-11.1296
▁scarce	-11.1299
maker	-11.1299
▁dearest	-11.1304
▁prey	-11.1305
▁associated	-11.1315
▁Gelegenheit	-11.132
▁september	-11.132
▁tristram	-11.132
▁Artikel	-11.132
▁Botschaft	-11.132
▁thornton	-11.132
nisse	-11.1327
▁dining	-11.1331
▁blank	-11.1345
▁erinnert	-11.135
▁Manchmal	-11.135
▁glitter	-11.135
▁pistol	-11.135
▁japanese	-11.135
▁schützen	-11.135
▁verkauft	-11.135
krebs	-11.1351
▁differ	-11.1351
▁pepper	-11.1351
pack	-11.1356
▁gestellt	-11.1375
▁generate	-11.138
▁restaurant	-11.138
▁untersuchen	-11.138
▁unterstützen	-11.138
▁accuse	-11.138
▁bubble	-11.1381
▁frown	-11.1381
▁Letzt	-11.1384
▁crow	-11.1384
▁suspected	-11.1384
▁proceeding	-11.1385
▁quiver	-11.1386
▁laut	-11.14
▁Bank	-11.14
▁Reich	-11.1409
▁shield	-11.1411
▁Sekunden	-11.1412
▁balloon	-11.1413
▁Architektur	-11.1413
▁dislike	-11.1417
▁conception	-11.143
▁einander	-11.143
spann	-11.1432
▁murderer	-11.1433
▁hatred	-11.1436
▁Sorge	-11.1439
▁acquired	-11.1441
▁awkward	-11.1441
▁genuine	-11.1441
▁Aspekt	-11.1441
▁probable	-11.1441
▁besondere	-11.1441
▁sphere	-11.1442
▁dutch	-11.1442
▁hält	-11.1447
▁cream	-11.1449
▁secretary	-11.1451
nimm	-11.1455
▁coward	-11.146
▁Drei	-11.1461
▁ventured	-11.1463
▁critic	-11.1472
▁Schlüssel	-11.1472
▁appetite	-11.1472
▁erwartet	-11.1472
▁essence	-11.1481
▁factory	-11.1482
▁yell	-11.1482
▁sew	-11.1485
▁hinzu	-11.1486
▁versa	-11.1489
Sie	-11.1494
▁deposit	-11.1494
▁reasonable	-11.1496
lop	-11.1498
▁scientist	-11.15
▁benötigt	-11.1503
▁underneath	-11.1503
▁revenge	-11.1503
▁Hirn	-11.1503
▁mutual	-11.1504
▁hawk	-11.1507
handel	-11.1508
▁crystal	-11.1509
▁pony	-11.1509
▁norman	-11.1513
stadt	-11.1518
▁Ball	-11.1523
▁consume	-11.1526
▁außerhalb	-11.1533
▁suppress	-11.1533
▁vegetable	-11.1533
▁farewell	-11.1533
▁Fluss	-11.1534
▁cloak	-11.1537
▁burg	-11.1541
▁decorat	-11.1548
▁whit	-11.1548
▁lyn	-11.1557
▁journal	-11.1558
▁topic	-11.156
▁Krankenhaus	-11.1564
▁disgrace	-11.1564
▁occupation	-11.1564
▁Auswirkungen	-11.1564
▁memories	-11.1564
▁Spitze	-11.1564
▁biological	-11.1565
material	-11.1578
▁hydro	-11.158
▁charity	-11.1581
▁resemble	-11.1595
▁Aktivität	-11.1595
▁breeze	-11.1595
▁prophet	-11.1595
▁protein	-11.1595
▁scared	-11.1596
▁sensor	-11.1596
▁barrel	-11.1596
▁neurons	-11.1597
▁option	-11.1598
▁peep	-11.1603
▁abandon	-11.1607
▁released	-11.1608
▁divide	-11.1618
ografie	-11.162
▁pursue	-11.162
▁graceful	-11.1623
▁Ingenieur	-11.1626
▁Klimawandel	-11.1626
▁gravity	-11.1626
▁sowohl	-11.1626
▁Erstens	-11.1628
stimme	-11.1629
▁Zeitpunkt	-11.1633
▁globe	-11.1636
▁cri	-11.1642
power	-11.1648
▁combat	-11.165
▁Suche	-11.1652
▁adopted	-11.1653
▁shoe	-11.1657
▁Vertrauen	-11.1657
▁competition	-11.1657
▁nicholas	-11.1657
▁calculate	-11.1657
▁Forscher	-11.1657
▁verstanden	-11.1658
▁Unser	-11.1667
▁jealous	-11.1669
problem	-11.1672
▁mule	-11.1673
▁Vorteil	-11.1677
gewalt	-11.1677
▁slid	-11.1678
▁höchst	-11.1689
▁shepherd	-11.1689
▁gracious	-11.1689
▁procure	-11.1689
▁brutal	-11.1689
▁entreat	-11.1691
▁Feld	-11.1692
▁zone	-11.1697
▁sharing	-11.17
▁interrupt	-11.1701
wissenschaftlich	-11.1705
▁russia	-11.1706
schicht	-11.171
maschine	-11.1712
▁division	-11.172
▁parallel	-11.172
▁Wunder	-11.172
▁Schwester	-11.172
▁inherit	-11.1721
▁import	-11.1721
▁blessed	-11.1721
▁Wichtig	-11.1722
▁radical	-11.1722
▁plus	-11.1722
▁Maschinen	-11.1725
▁entschieden	-11.1731
▁öffentliche	-11.1737
▁waist	-11.1738
▁Galaxie	-11.1751
▁technical	-11.1751
▁Beste	-11.1752
▁wrapped	-11.1752
▁genome	-11.1753
▁reef	-11.1753
▁suck	-11.1754
▁bisher	-11.1767
ometer	-11.1768
ggle	-11.1776
▁combined	-11.1776
▁roughly	-11.178
▁refresh	-11.1783
▁Lernen	-11.1783
▁bedroom	-11.1787
gezogen	-11.1793
▁cash	-11.18
▁involve	-11.1807
▁Englisch	-11.1815
▁Polizei	-11.1815
▁cunning	-11.1815
▁nowhere	-11.1816
▁normalerweise	-11.1816
▁review	-11.1817
▁proposition	-11.1818
hilfe	-11.1824
▁construction	-11.1824
▁erleben	-11.1829
▁tau	-11.1831
▁marine	-11.1831
▁bestehen	-11.1834
▁distribut	-11.1841
▁spain	-11.1843
zogen	-11.1845
▁circuit	-11.1846
▁manufacture	-11.1846
▁sequence	-11.1846
▁sammeln	-11.1846
▁whisk	-11.1846
▁blew	-11.1847
▁herausfinden	-11.1848
▁weeping	-11.1849
▁Tisch	-11.187
▁monarch	-11.1878
▁receiving	-11.1878
▁geschehen	-11.1878
▁turkey	-11.1878
produkt	-11.1878
▁ignore	-11.1878
▁Tief	-11.188
ologische	-11.1881
▁vine	-11.1881
▁steve	-11.1881
▁fastened	-11.1881
▁runter	-11.1884
▁silently	-11.1885
▁concealed	-11.1886
▁Go	-11.1886
▁lass	-11.1894
▁zufällig	-11.1898
motiv	-11.1899
▁Verständnis	-11.191
▁diejenigen	-11.191
▁happily	-11.191
▁preparing	-11.191
▁Brust	-11.191
▁boast	-11.1911
▁split	-11.1911
▁ernst	-11.1918
▁Liste	-11.1918
▁slice	-11.1921
▁Gefahr	-11.1937
▁mechanism	-11.1942
▁shriek	-11.1942
▁Freude	-11.1942
▁gallery	-11.1942
▁disaster	-11.1942
▁confront	-11.1944
▁truck	-11.1948
▁stopping	-11.195
▁oath	-11.1956
bereit	-11.1963
▁Regel	-11.1971
▁Uni	-11.1972
▁fountain	-11.1974
▁indifferent	-11.1974
▁verursacht	-11.1974
▁Kar	-11.1979
▁Stand	-11.1984
schutz	-11.1985
▁Mond	-11.1986
▁rice	-11.1992
▁dwelling	-11.1994
▁electro	-11.2005
▁doctrine	-11.2007
▁erinnere	-11.2007
▁coll	-11.2011
▁medium	-11.2012
▁Auge	-11.2019
gebiet	-11.2023
▁puff	-11.2027
▁discipline	-11.2039
▁bloß	-11.2039
▁surgeon	-11.2039
▁feeble	-11.2039
▁22	-11.2039
▁pillow	-11.204
▁summit	-11.2042
▁Bezug	-11.2044
gebildet	-11.2047
▁Million	-11.2048
▁glasses	-11.2054
▁Designer	-11.2068
▁grove	-11.2075
▁Stunde	-11.2076
▁The	-11.2083
lief	-11.2095
▁Geräusch	-11.2104
▁cautious	-11.2104
▁metaphor	-11.2104
▁satellite	-11.2104
▁erlebt	-11.2104
▁erwarten	-11.2104
▁timid	-11.2104
▁wreck	-11.2104
▁antworte	-11.2104
▁geschah	-11.2107
▁selten	-11.2107
▁dusk	-11.2107
barkeit	-11.2109
▁captured	-11.2115
▁Chi	-11.212
▁purse	-11.2133
▁Ordnung	-11.2137
▁inclination	-11.2137
▁gazing	-11.2137
▁jest	-11.2141
▁Sand	-11.2146
▁Manche	-11.2153
▁formerly	-11.2155
▁interaction	-11.2165
▁wipe	-11.2166
▁elsewhere	-11.2169
▁obstacle	-11.2169
▁proposal	-11.2169
▁technisch	-11.2169
▁wunderschön	-11.2169
▁sultan	-11.217
▁wählen	-11.217
▁erzeugt	-11.217
▁bitterly	-11.2171
▁internal	-11.2173
▁Westen	-11.2184
führung	-11.2188
▁adjust	-11.2202
▁saturday	-11.2202
▁pilot	-11.2202
gesellschaft	-11.2218
Video	-11.2219
▁decent	-11.2224
▁perish	-11.2228
▁revealed	-11.2228
▁phenomena	-11.2235
▁bernard	-11.2235
▁Entdeckung	-11.2235
▁surgery	-11.2235
▁disguise	-11.2235
prozess	-11.2235
▁rebel	-11.2246
▁equality	-11.2252
▁lament	-11.226
▁Gu	-11.226
▁peaceful	-11.2262
▁fortunately	-11.2263
▁beeinflusst	-11.2268
▁diversity	-11.2268
▁behaupte	-11.2268
▁praktisch	-11.2269
▁Name	-11.227
▁wives	-11.227
▁Klein	-11.2273
▁dumb	-11.2274
karte	-11.228
▁tausende	-11.2281
nehmer	-11.2285
zubringen	-11.2285
▁reverse	-11.2285
▁Dienst	-11.229
▁Verantwortung	-11.2302
▁perplex	-11.2302
▁slain	-11.2302
▁precede	-11.2302
▁geschaffen	-11.2302
▁translate	-11.2303
▁Grad	-11.2324
▁propose	-11.2334
▁Geburt	-11.2335
X	-11.2335
▁autumn	-11.2335
▁beschäftigt	-11.2335
▁technique	-11.2335
▁rejoice	-11.2335
▁thumb	-11.2335
▁funeral	-11.2335
▁dasselbe	-11.2335
▁heutigen	-11.2335
▁outcome	-11.2338
▁ireland	-11.2338
▁Sommer	-11.2341
▁wax	-11.2347
▁fällt	-11.235
odo	-11.2359
▁chimney	-11.2368
▁mischief	-11.2368
▁scotland	-11.2368
▁shakespeare	-11.2368
▁berühmt	-11.2368
▁gedacht	-11.2368
▁Tochter	-11.2368
▁Kurz	-11.2369
▁Gold	-11.237
▁fiction	-11.2374
▁unver	-11.2375
gelegt	-11.2376
ago	-11.2378
▁cul	-11.2387
gerät	-11.2391
▁Junge	-11.2391
endung	-11.2393
▁examine	-11.2396
▁König	-11.2402
▁withdraw	-11.2402
▁ebenso	-11.2405
▁restless	-11.2405
▁assistant	-11.2406
▁shiver	-11.2408
▁perfection	-11.2411
▁axe	-11.2412
▁retire	-11.243
skop	-11.243
istisch	-11.2434
▁stake	-11.2435
▁envelope	-11.2436
▁television	-11.2436
▁vigorous	-11.2436
▁entweder	-11.2436
▁glacier	-11.2436
▁flutter	-11.2436
▁cotton	-11.2436
▁Detail	-11.2437
▁23	-11.244
▁absorbed	-11.2442
▁swiftly	-11.2444
▁theatre	-11.2448
▁fame	-11.2451
▁publish	-11.2453
▁Jungen	-11.2453
▁Sport	-11.2454
▁Lehr	-11.2456
izieren	-11.2461
▁fred	-11.2462
▁thither	-11.2469
▁ceiling	-11.247
▁Signal	-11.247
▁mingled	-11.247
▁idiot	-11.247
▁distract	-11.247
▁extinct	-11.247
wärts	-11.2471
▁anchor	-11.2471
▁Handel	-11.2475
▁spider	-11.2479
▁react	-11.248
▁selben	-11.2493
▁trembled	-11.2494
▁Lieblings	-11.2503
▁befindet	-11.2503
▁script	-11.2503
▁pupil	-11.2503
▁exceed	-11.2503
▁gallant	-11.2504
▁behandelt	-11.2504
▁recollect	-11.2525
▁depart	-11.2526
▁illusion	-11.2537
▁battery	-11.2537
▁Betracht	-11.2537
▁frozen	-11.254
▁herbert	-11.2542
▁meters	-11.2545
▁egyptian	-11.2548
▁ku	-11.2549
▁rarely	-11.2562
▁voraus	-11.2564
▁francis	-11.257
▁Kilometer	-11.2572
▁administration	-11.2572
▁algorithm	-11.2572
▁creativity	-11.2572
▁fascinating	-11.2572
▁fatigue	-11.2572
▁produziert	-11.2572
▁simplicity	-11.2572
▁uncomfortable	-11.2572
▁Sozial	-11.2572
▁amusement	-11.2572
▁pacific	-11.2572
mäßig	-11.2572
▁dunkle	-11.2572
▁Drogen	-11.2572
▁despise	-11.2573
face	-11.2575
▁damp	-11.2576
▁attendant	-11.2577
sphäre	-11.2579
▁acid	-11.2582
▁sunk	-11.2582
ttern	-11.2588
▁fury	-11.2594
▁semi	-11.2594
▁analysis	-11.2606
▁mächtig	-11.2606
▁perpetual	-11.2606
▁transparent	-11.2606
▁snatch	-11.2606
▁Nähe	-11.2606
▁übrigens	-11.2607
▁Überleben	-11.2607
▁Werk	-11.2611
modell	-11.2611
▁Schutz	-11.2613
▁amerikanischen	-11.2614
▁ladder	-11.2618
▁fulfill	-11.263
▁consumption	-11.264
▁getroffen	-11.264
▁London	-11.264
▁genutzt	-11.264
▁Opfer	-11.264
▁behandeln	-11.2641
▁Cent	-11.2641
▁resent	-11.2641
▁mach	-11.2641
▁dispute	-11.2642
▁sweat	-11.2644
▁Autor	-11.2644
▁grip	-11.2644
▁Noch	-11.2649
▁hedge	-11.2651
▁lust	-11.2661
▁enjoyment	-11.2664
▁Zelle	-11.267
struktur	-11.2675
▁Leidenschaft	-11.2675
▁convenient	-11.2675
▁notwithstanding	-11.2675
▁prejudice	-11.2675
▁Nehmen	-11.2675
▁schicken	-11.2675
▁vollständig	-11.2675
▁biologische	-11.2675
▁loyal	-11.2675
▁fragt	-11.2684
▁überleben	-11.2686
gelöst	-11.2687
▁preserved	-11.2697
▁Genom	-11.2706
▁masses	-11.2711
down	-11.2714
▁stephen	-11.2716
▁nav	-11.2718
▁verbringen	-11.2721
▁hail	-11.2732
▁psycho	-11.2732
▁investment	-11.2736
▁Charakter	-11.2744
▁konzentrieren	-11.2744
▁suspend	-11.2744
▁effektiv	-11.2744
▁contest	-11.275
▁establish	-11.2756
▁julie	-11.2756
▁tank	-11.2762
größe	-11.2777
▁Nerven	-11.2779
▁slender	-11.2779
▁spricht	-11.2779
▁knot	-11.2782
▁skirt	-11.2782
▁subtle	-11.2785
▁motionless	-11.2787
▁Quelle	-11.2793
▁fitted	-11.2794
▁ridge	-11.2797
tausch	-11.2799
▁couch	-11.2802
▁perch	-11.2804
schaftliche	-11.2808
▁examination	-11.2814
▁holiday	-11.2814
▁cristo	-11.2814
▁neighbourhood	-11.2815
▁authorities	-11.2816
▁Seit	-11.2824
▁riches	-11.2834
zählen	-11.2845
Mail	-11.2846
▁solitary	-11.2849
▁außergewöhnlich	-11.2849
▁accent	-11.2849
▁bug	-11.285
▁Version	-11.2852
▁tread	-11.2854
▁emma	-11.2856
▁dieselbe	-11.2859
▁Schiff	-11.286
▁Frei	-11.286
▁matt	-11.2881
▁exquisite	-11.2884
▁identify	-11.2884
▁cetera	-11.2884
▁verkaufen	-11.2884
zeichen	-11.2884
▁tumor	-11.2884
▁Japan	-11.2886
▁stirred	-11.2887
▁tag	-11.2888
▁jemandem	-11.2895
▁urged	-11.2903
▁evolved	-11.2903
▁Erkenntnis	-11.2919
▁sleeve	-11.2919
▁Plastik	-11.2919
▁duchess	-11.2919
▁eagle	-11.2919
▁moor	-11.2944
▁Atmosphäre	-11.2955
▁Identität	-11.2955
▁Schönheit	-11.2955
▁dynamic	-11.2955
▁sketch	-11.2955
▁surrender	-11.2955
▁inhabit	-11.2955
▁za	-11.2955
▁Fenster	-11.2955
▁canada	-11.2955
▁Biologie	-11.2956
▁Haben	-11.2967
▁2010	-11.299
▁occupy	-11.299
▁recognition	-11.299
▁aufregend	-11.299
forschung	-11.2991
▁harvest	-11.2991
▁Gewinn	-11.2991
gefühl	-11.2991
▁knit	-11.2991
▁historical	-11.2992
▁boom	-11.2994
▁copper	-11.2998
▁journalist	-11.2998
wirkung	-11.3004
Oh	-11.3006
▁alien	-11.3011
▁daylight	-11.3011
craft	-11.3013
▁doorway	-11.3013
▁deaf	-11.3014
▁persuaded	-11.3024
▁constitute	-11.3026
▁infrastructure	-11.3026
▁inspiration	-11.3026
▁collapse	-11.3026
▁allgemein	-11.3026
▁federal	-11.3026
▁injury	-11.3026
▁Etwa	-11.3026
▁pencil	-11.3026
▁inquiry	-11.3026
▁Bienen	-11.3028
cular	-11.3031
▁swung	-11.3033
Ein	-11.3034
▁consumer	-11.3035
▁agony	-11.3035
freund	-11.3038
▁tiger	-11.304
▁stabil	-11.3046
▁Pol	-11.3049
▁puzzled	-11.306
▁invite	-11.306
▁Stimm	-11.3061
▁Bedürfnis	-11.3062
▁accompany	-11.3062
▁magistrate	-11.3062
▁primitive	-11.3062
▁producing	-11.3062
▁Ereignis	-11.3062
▁location	-11.3062
▁deutlich	-11.3062
▁untersucht	-11.3062
▁cycle	-11.3063
▁99	-11.3064
▁manager	-11.3066
▁moderate	-11.3072
▁entertainment	-11.3073
▁tenderness	-11.3077
▁Gang	-11.3079
▁tha	-11.3087
design	-11.309
▁respectable	-11.309
atom	-11.3097
▁threshold	-11.3098
▁wrath	-11.3098
▁railway	-11.3099
▁leadership	-11.31
▁flourish	-11.31
▁blade	-11.3102
▁pill	-11.3104
▁Solar	-11.3105
▁paw	-11.311
▁endlich	-11.3119
▁Geschlecht	-11.3134
▁Perspektive	-11.3134
▁chicago	-11.3134
▁comparison	-11.3134
▁erhielt	-11.3134
▁Kontakt	-11.3134
▁Privat	-11.3134
▁francs	-11.3134
einhalb	-11.3135
▁mixture	-11.3135
▁bundle	-11.3135
▁concert	-11.3136
▁yonder	-11.3136
▁claw	-11.3137
▁frightful	-11.3146
▁Einkommen	-11.315
▁temptation	-11.3153
▁lifetime	-11.3155
▁convince	-11.3167
▁Journal	-11.317
▁Volk	-11.3171
▁steckt	-11.3171
▁file	-11.3172
▁gulf	-11.3173
▁lend	-11.3177
▁spät	-11.3178
▁insight	-11.3181
▁ego	-11.32
▁flee	-11.32
heben	-11.3206
▁Kapital	-11.3207
▁component	-11.3207
▁twitter	-11.3207
▁beobachtet	-11.3207
▁folgt	-11.3207
▁clergy	-11.3207
▁physisch	-11.3207
▁cluster	-11.3207
spruch	-11.3207
▁moonlight	-11.3209
▁2008	-11.3212
▁Web	-11.3217
▁owing	-11.3218
▁classic	-11.3234
▁trotz	-11.3235
▁10000	-11.324
bruch	-11.324
▁upstairs	-11.3243
▁defense	-11.3243
▁Karriere	-11.3243
▁solitude	-11.3243
liste	-11.3259
▁torment	-11.326
▁existieren	-11.3262
▁invent	-11.3263
▁Inhalt	-11.3272
verständlich	-11.328
▁erfunden	-11.328
▁natasha	-11.328
▁lodging	-11.328
▁wesentlich	-11.328
▁kämpfen	-11.328
▁array	-11.328
▁nigeria	-11.328
▁"(	-11.3281
▁humour	-11.3283
▁Bett	-11.3295
meister	-11.3299
▁resource	-11.33
▁ashes	-11.3305
▁institute	-11.3317
▁staircase	-11.3317
▁Ahnung	-11.3317
▁Schwarz	-11.3317
▁kostet	-11.3317
▁Öko	-11.3318
▁navigat	-11.3319
▁wrap	-11.3322
▁affectionate	-11.3324
▁theater	-11.3332
▁rig	-11.3334
▁entrepreneur	-11.3344
▁amerikanische	-11.3353
▁delicious	-11.3353
▁napoleon	-11.3353
▁april	-11.3354
▁analog	-11.3355
zusetzen	-11.3355
▁partial	-11.3359
▁detective	-11.3361
▁blog	-11.3366
möglich	-11.3368
Wenn	-11.3376
▁upset	-11.3376
source	-11.3376
▁lautet	-11.3378
▁Kreativität	-11.339
▁comprehend	-11.339
▁porthos	-11.3391
▁faded	-11.3392
▁scent	-11.3392
▁600	-11.3397
▁Begriff	-11.3399
▁Beine	-11.3416
▁tick	-11.3417
▁doubtful	-11.3423
▁discharge	-11.3428
▁mathematics	-11.3428
▁uneasy	-11.3428
▁wheat	-11.3428
Institut	-11.3428
▁Welche	-11.3428
▁composition	-11.3429
▁fuhr	-11.3432
sail	-11.3434
▁spreche	-11.3445
▁republic	-11.3455
Nein	-11.3458
▁toilet	-11.3465
▁obscure	-11.3465
▁prosperity	-11.3465
▁Knochen	-11.3465
▁fowl	-11.3465
▁illumin	-11.3465
▁appreciat	-11.347
hängen	-11.3471
▁Motor	-11.3474
▁blanket	-11.3479
▁jealousy	-11.3488
ulated	-11.3501
▁abruptly	-11.3502
▁avenue	-11.3502
▁cardinal	-11.3502
▁ebenfalls	-11.3502
▁anyhow	-11.3503
▁friday	-11.3503
▁Glas	-11.352
▁panel	-11.3531
fahrt	-11.3536
▁afghanistan	-11.354
▁nötig	-11.354
▁potato	-11.354
▁jones	-11.3544
La	-11.3549
▁porch	-11.3553
▁magician	-11.3554
fällt	-11.3561
▁heartily	-11.3565
▁woke	-11.3565
▁passive	-11.3577
▁advertise	-11.3578
▁equivalent	-11.3578
▁serpent	-11.3578
▁imperfect	-11.3578
▁folly	-11.3578
▁Dort	-11.3585
▁Zustand	-11.3585
▁lever	-11.3585
▁Tumor	-11.3591
▁machinery	-11.3598
▁Rede	-11.3604
strahl	-11.3614
▁einzigartig	-11.3616
▁unabhängig	-11.3616
▁vengeance	-11.3616
▁mexico	-11.3616
▁Geheimnis	-11.3616
▁Position	-11.3616
▁trifft	-11.3616
▁Tausende	-11.3616
▁whither	-11.3617
▁Kohle	-11.3619
▁rigid	-11.3621
▁hideous	-11.3622
▁Osten	-11.3636
▁peg	-11.3636
Warum	-11.3637
▁guardian	-11.3642
verbrauch	-11.3643
▁hush	-11.3649
▁Instrument	-11.3654
▁Strategie	-11.3654
▁anticipate	-11.3654
▁reconcil	-11.3654
▁Schlag	-11.3655
▁Titel	-11.3656
▁entstehen	-11.3657
lager	-11.3658
▁gender	-11.366
▁sustainable	-11.3662
▁director	-11.3666
▁Anti	-11.3673
▁beef	-11.3675
▁personality	-11.3685
▁Intelligenz	-11.3692
▁possibilities	-11.3692
▁öffnen	-11.3692
▁Einsatz	-11.3698
gänge	-11.3698
▁distribution	-11.3698
▁establishment	-11.37
▁believing	-11.373
▁january	-11.373
▁shrink	-11.373
▁tumble	-11.373
▁High	-11.373
▁ermöglichen	-11.373
▁promote	-11.3732
▁scarlet	-11.3732
▁sarah	-11.3732
▁nancy	-11.3733
▁respectful	-11.3734
▁jackson	-11.3736
front	-11.3739
▁Wandel	-11.3739
▁frost	-11.3741
▁Todes	-11.3765
▁assembly	-11.3769
▁sogenannte	-11.3769
▁terribly	-11.3769
▁ursprünglich	-11.3769
▁Steuer	-11.3769
▁dropping	-11.3772
▁weiterhin	-11.3774
▁hammer	-11.3776
▁fühle	-11.3782
▁sack	-11.3784
▁ripe	-11.3793
▁lip	-11.3797
▁Sauerstoff	-11.3807
▁affirm	-11.3807
▁determination	-11.3807
▁territory	-11.3807
▁twilight	-11.3807
▁überrascht	-11.3807
▁exceedingly	-11.3807
▁roast	-11.3808
▁trifle	-11.3808
▁classroom	-11.3809
gewicht	-11.3809
▁Träume	-11.3809
▁27	-11.3812
▁penny	-11.3814
▁darf	-11.3814
▁romance	-11.3816
fusion	-11.3819
▁mice	-11.3828
▁highway	-11.3829
▁Post	-11.3836
▁Geschwindigkeit	-11.3846
▁Korallen	-11.3846
▁tragedy	-11.3846
▁Müll	-11.3846
▁awoke	-11.3846
▁Protein	-11.3848
▁planning	-11.3852
▁employment	-11.3856
▁ticket	-11.3856
▁everyday	-11.3856
▁Ansicht	-11.3858
word	-11.386
▁lil	-11.3867
▁Lang	-11.387
Q	-11.3885
▁Bildschirm	-11.3885
▁corridor	-11.3885
▁relevant	-11.3885
▁wundervoll	-11.3885
▁lofty	-11.3885
▁gallop	-11.3886
▁turtle	-11.3887
▁wilson	-11.389
▁initial	-11.3894
▁salute	-11.3897
▁confession	-11.3907
▁goose	-11.391
▁genetische	-11.3914
▁West	-11.3916
▁enthusiast	-11.3924
▁kontrollieren	-11.3924
▁Anwendung	-11.3924
▁bargain	-11.3924
▁überzeugen	-11.3924
▁Standard	-11.3926
▁favourite	-11.3926
▁sector	-11.3928
▁kitty	-11.3929
▁fangen	-11.3933
▁zog	-11.3943
▁smot	-11.3952
▁vow	-11.3956
▁Afghanistan	-11.3963
▁vermutlich	-11.3963
▁sunset	-11.3965
▁slim	-11.3967
▁dried	-11.3968
▁polar	-11.3969
▁gegangen	-11.3978
▁settlement	-11.3982
▁Insel	-11.3984
körper	-11.4002
▁philosophi	-11.4003
▁Gewicht	-11.4003
▁afrikanische	-11.4003
▁agriculture	-11.4003
▁faszinierend	-11.4003
▁independence	-11.4003
▁inevitable	-11.4003
▁Zeichen	-11.4003
▁statue	-11.4003
fassung	-11.4003
▁drain	-11.4005
▁yu	-11.4008
spiegel	-11.401
▁vermi	-11.4023
▁brute	-11.4038
▁alyosha	-11.4042
▁amazement	-11.4042
▁strategy	-11.4042
▁tobacco	-11.4042
▁facebook	-11.4042
▁reagieren	-11.4042
▁Fremd	-11.4043
▁Vogel	-11.4043
▁Kunden	-11.4044
▁phase	-11.4044
▁canvas	-11.4047
bildung	-11.4048
▁glen	-11.4055
▁cosm	-11.4057
▁seize	-11.406
▁compete	-11.4061
▁convict	-11.4072
kräfte	-11.4082
▁Facebook	-11.4082
▁Großbritannien	-11.4082
▁assumption	-11.4082
▁beeinflussen	-11.4082
▁immortal	-11.4082
▁pluck	-11.4082
▁tranquil	-11.4082
▁beggar	-11.4085
▁preferred	-11.4086
▁Ausdruck	-11.4086
▁cannon	-11.409
▁clip	-11.4097
fertig	-11.4112
▁Infrastruktur	-11.4122
▁Vielfalt	-11.4122
▁begeistert	-11.4122
▁demonstrate	-11.4122
▁inferior	-11.4122
würdig	-11.4122
▁überzeugt	-11.4122
▁Ausbildung	-11.4123
▁Ansatz	-11.4127
▁thankful	-11.4138
▁kil	-11.4141
▁billig	-11.4146
▁Temperatur	-11.4162
▁equipment	-11.4162
▁Häuser	-11.4162
▁clutch	-11.4162
grenzt	-11.4162
▁birthday	-11.4162
▁francisco	-11.4164
▁Materialien	-11.4164
burn	-11.4164
▁Lebensmittel	-11.4165
zimmer	-11.4166
▁trend	-11.4166
▁Verkehr	-11.4169
▁ethic	-11.4178
▁Aufnahme	-11.4178
▁schien	-11.4179
▁complexity	-11.418
think	-11.4191
▁Phänomen	-11.4202
▁betrifft	-11.4202
▁october	-11.4202
▁yourselves	-11.4202
▁terrified	-11.4202
▁Operation	-11.4202
▁Schluss	-11.4202
▁defence	-11.4202
▁blieb	-11.4202
▁Zweitens	-11.4202
▁Richtig	-11.4202
▁kennedy	-11.4204
▁Landschaft	-11.4208
▁hither	-11.4211
▁blast	-11.422
thorpe	-11.4233
▁preserv	-11.4233
▁angefangen	-11.4242
▁begonnen	-11.4242
▁telescope	-11.4242
▁assurance	-11.4242
▁velvet	-11.4242
▁Mütter	-11.4242
▁jacob	-11.4242
▁dismay	-11.4242
▁coarse	-11.4242
The	-11.4244
▁tonight	-11.4244
▁repose	-11.4257
▁Port	-11.4265
technologie	-11.4273
▁devotion	-11.4283
▁Verfügung	-11.4283
▁december	-11.4283
▁economist	-11.4283
▁indignation	-11.4283
▁notwendig	-11.4283
▁Depression	-11.4283
▁literary	-11.4283
▁skull	-11.4283
▁corpse	-11.4283
▁Brief	-11.4283
▁Gedicht	-11.4283
jahr	-11.4288
▁Durchschnitt	-11.4299
▁suitable	-11.4304
▁virgin	-11.4306
▁hyper	-11.4315
▁succession	-11.4317
▁Unterstützung	-11.4323
▁commenced	-11.4323
▁marguerite	-11.4323
▁verdienen	-11.4323
▁champion	-11.4323
▁iraq	-11.4323
▁Holz	-11.4323
▁transmit	-11.4328
▁entlang	-11.4335
▁label	-11.4341
▁kalt	-11.4354
▁transformation	-11.4356
▁assent	-11.4357
▁Haar	-11.4362
▁Statistik	-11.4364
▁dorothy	-11.4364
▁erwähnt	-11.4364
▁monitor	-11.4364
▁dagegen	-11.4364
▁injured	-11.4364
▁Würde	-11.4364
▁roused	-11.4365
▁grundlegende	-11.4368
▁Psycho	-11.4371
▁recollection	-11.4379
▁uk	-11.4382
▁lustig	-11.4393
▁irgend	-11.4404
schleunig	-11.4405
▁attentive	-11.4405
▁nützlich	-11.4405
▁thief	-11.4405
▁quoth	-11.4405
▁atlantic	-11.4405
▁kulturelle	-11.4405
▁oyster	-11.4405
▁conclude	-11.4407
▁reception	-11.4409
▁grid	-11.4409
▁fiel	-11.4412
▁Boot	-11.4412
▁hopefully	-11.4415
gericht	-11.4418
fällig	-11.4421
▁davor	-11.4421
▁exhibition	-11.4423
▁erstellt	-11.443
▁benötigen	-11.4446
▁buchstäblich	-11.4446
▁cultivate	-11.4446
▁crimson	-11.4446
▁tendency	-11.4446
▁destiny	-11.4446
▁violet	-11.4446
▁impressed	-11.4446
▁naught	-11.4447
förder	-11.4447
▁electronic	-11.4447
▁tunnel	-11.4448
▁Ecke	-11.4449
▁transition	-11.4449
▁closing	-11.445
▁sorgen	-11.445
schule	-11.446
▁steigen	-11.4463
▁jerk	-11.4466
▁altar	-11.447
▁entschied	-11.4473
based	-11.4482
▁Effekt	-11.4487
▁exploit	-11.4487
▁gossip	-11.4488
▁penetrate	-11.4488
▁Wohl	-11.449
wirken	-11.4492
▁Produktion	-11.4496
▁cellar	-11.4508
stream	-11.4517
▁continuous	-11.4529
▁indignant	-11.4529
▁matthew	-11.4529
▁november	-11.4529
▁sculpture	-11.4529
▁specimen	-11.4529
▁probability	-11.4529
▁coffin	-11.4529
▁venus	-11.4529
borough	-11.453
▁klingt	-11.4531
▁persuade	-11.4531
▁dorthin	-11.4535
▁Link	-11.454
▁Zusammenhang	-11.4571
▁activities	-11.4571
▁danglars	-11.4571
▁retorted	-11.4571
▁hypno	-11.4571
▁hesitation	-11.4571
▁Unternehmer	-11.4571
▁Neuronen	-11.4573
▁cordial	-11.4573
▁puzzle	-11.4574
▁creek	-11.4574
▁johnny	-11.4577
▁rattle	-11.4578
▁steward	-11.4579
▁Grün	-11.4603
▁drake	-11.4606
▁nehme	-11.4608
▁additional	-11.4609
▁supplies	-11.4612
▁Hinter	-11.4612
▁investigation	-11.4612
▁chinesische	-11.4613
▁typisch	-11.4613
bewegung	-11.4616
▁durchgeführt	-11.4618
▁Drittel	-11.4621
▁tragic	-11.4623
wunder	-11.463
▁moralische	-11.4643
ündig	-11.4644
▁wretch	-11.4646
▁Wahrnehmung	-11.4654
▁timber	-11.4655
▁basin	-11.4657
▁Pflege	-11.4658
▁envy	-11.4658
▁attractive	-11.4665
▁wohin	-11.4671
piece	-11.468
▁absorb	-11.4689
schluss	-11.4696
▁elektrische	-11.4697
▁entsteht	-11.4697
▁illustrate	-11.4697
▁observing	-11.4697
▁constrain	-11.4697
▁trumpet	-11.4697
▁implement	-11.4697
▁pulse	-11.4697
▁monday	-11.4697
▁Basis	-11.4697
▁Großteil	-11.4698
▁operating	-11.4701
▁mould	-11.4701
▁holland	-11.4704
▁republican	-11.4708
▁agreement	-11.4717
▁Band	-11.4728
dienst	-11.4737
▁Militär	-11.4739
▁candidate	-11.4739
▁erforschen	-11.4739
▁railroad	-11.4739
▁Diskussion	-11.4739
▁overlook	-11.4739
▁relax	-11.4739
▁colony	-11.4739
▁devour	-11.4739
▁eldest	-11.4739
▁stolz	-11.4739
▁Zusammenarbeit	-11.474
▁outrage	-11.474
▁awakened	-11.4742
▁corruption	-11.4743
▁basiert	-11.4746
▁planned	-11.4748
▁roger	-11.4752
länge	-11.4753
▁brandon	-11.4755
▁jacket	-11.4764
held	-11.4769
hurst	-11.4781
▁Zentrum	-11.4782
▁blossom	-11.4782
▁indifference	-11.4782
▁luxury	-11.4782
▁unbedingt	-11.4782
▁Untersuchung	-11.4782
▁gestalten	-11.4782
wünscht	-11.4782
▁wrist	-11.4782
▁Verlust	-11.4782
▁Qualität	-11.4782
ordnung	-11.4785
▁Virus	-11.4786
▁investieren	-11.4791
▁raft	-11.4805
▁Loch	-11.4806
▁guilt	-11.4809
▁Niemand	-11.4824
▁residence	-11.4824
▁Bedingungen	-11.4824
▁abraham	-11.4824
▁teenage	-11.4824
▁Satz	-11.4831
▁Bauern	-11.4834
▁niece	-11.4848
▁Mach	-11.4849
quelle	-11.4853
▁canoe	-11.4855
▁65	-11.4857
Ö	-11.4865
▁earthquake	-11.4867
▁inspiriert	-11.4867
▁filter	-11.4868
▁margin	-11.4868
▁wuchs	-11.4868
▁Vision	-11.4868
▁multiple	-11.4869
▁Weiß	-11.487
▁stecken	-11.4874
▁schwarz	-11.489
▁Rand	-11.4903
▁cheat	-11.4907
▁Hai	-11.4908
kunft	-11.491
staat	-11.491
▁amazon	-11.491
▁frederick	-11.491
▁innocence	-11.491
▁kommunizieren	-11.491
▁ribbon	-11.491
▁Faktor	-11.491
▁revenue	-11.491
▁edith	-11.4911
▁inquire	-11.4917
▁travelling	-11.4929
▁patron	-11.4933
zusehen	-11.4942
▁Museum	-11.4954
▁appointment	-11.4954
▁dinosaur	-11.4954
▁rhythm	-11.4954
▁grieve	-11.4954
▁unwilling	-11.4954
▁empower	-11.4955
▁dependent	-11.4956
▁David	-11.4957
▁stalk	-11.4961
▁orient	-11.4964
▁conventional	-11.4975
kunde	-11.4982
Erzähl	-11.4992
▁Institutionen	-11.4997
▁Komplexität	-11.4997
▁alexander	-11.4997
▁ingredient	-11.4997
▁injustice	-11.4997
▁kümmern	-11.4997
▁obedience	-11.4997
▁telegraph	-11.4997
▁verfügbar	-11.4997
▁solomon	-11.4997
▁krank	-11.4999
▁relativ	-11.4999
▁bezahlt	-11.5002
▁2007	-11.5003
▁Mode	-11.5003
▁bump	-11.5008
▁ultimate	-11.5015
zwischen	-11.5024
▁Sekunde	-11.504
▁apprehension	-11.5041
▁happier	-11.5041
▁mathematical	-11.5041
▁survival	-11.5041
▁suspicious	-11.5041
▁ultra	-11.5041
▁sancho	-11.5042
▁cartoon	-11.5042
▁Stoff	-11.5046
▁rural	-11.5051
günstig	-11.5085
▁1980	-11.5085
▁ecosystem	-11.5085
▁efficiency	-11.5085
▁resolute	-11.5085
▁slaughter	-11.5085
▁bemerkenswert	-11.5085
▁cigar	-11.5086
▁Gegenteil	-11.5087
▁session	-11.5095
▁flick	-11.5101
quo	-11.5125
▁Konferenz	-11.5129
▁assault	-11.5129
▁erlauben	-11.5129
▁rejoined	-11.5129
▁Wunsch	-11.5129
▁monument	-11.5129
▁wilderness	-11.5129
▁behalf	-11.5129
▁Zuerst	-11.5129
▁disagreeable	-11.5132
▁36	-11.5137
treffen	-11.5156
▁Vögel	-11.5173
▁zerstört	-11.5173
▁diminish	-11.5173
▁discourse	-11.5173
▁lantern	-11.5173
▁neutral	-11.5173
▁carlyle	-11.5173
▁wherefore	-11.5173
▁chatter	-11.5173
▁stärker	-11.5174
▁jimmy	-11.5174
▁potent	-11.5201
▁extensive	-11.5217
▁plague	-11.5217
▁license	-11.5217
▁visuelle	-11.5217
▁Bruder	-11.5217
▁primary	-11.5217
▁throng	-11.5217
▁Gewebe	-11.5217
▁earliest	-11.5217
▁Stärke	-11.5218
▁client	-11.5218
▁screw	-11.5218
▁rubbed	-11.5219
▁darwin	-11.5221
kultur	-11.5224
▁spoon	-11.5224
▁gegenseitig	-11.5228
▁converse	-11.523
▁Experten	-11.5262
▁Kontinent	-11.5262
▁advancing	-11.5262
▁nephew	-11.5262
▁underground	-11.5262
häuser	-11.5262
▁airplane	-11.5262
▁senator	-11.5262
▁sauber	-11.5268
▁mike	-11.527
▁convention	-11.5293
▁growl	-11.5297
▁Architekt	-11.5303
▁downstairs	-11.5307
▁dürfen	-11.5307
▁exclusive	-11.5307
▁getötet	-11.5307
▁hängt	-11.5307
▁wächst	-11.5307
▁Professor	-11.5307
▁causing	-11.5307
▁Medikament	-11.5307
▁bestimmen	-11.5307
▁Brot	-11.5322
bewusst	-11.5335
▁solch	-11.5338
gegangen	-11.5339
▁inventor	-11.5344
▁Mitglied	-11.5352
▁geschafft	-11.5352
▁fortnight	-11.5352
▁whereupon	-11.5352
▁Materie	-11.5352
rechnung	-11.5352
▁bezahlen	-11.5353
▁swamp	-11.5355
▁triumphant	-11.5357
▁drama	-11.5364
▁Radio	-11.5373
stimmt	-11.5383
▁hump	-11.5395
▁ascertain	-11.5397
▁valjean	-11.5397
▁versteckt	-11.5397
▁überraschend	-11.5397
▁1990	-11.5397
▁reckless	-11.5397
▁shilling	-11.5397
▁ashore	-11.54
▁brisk	-11.54
▁drill	-11.5403
▁Krise	-11.5409
reibung	-11.5409
kämpfe	-11.5443
▁explosion	-11.5443
▁casual	-11.5443
▁Jungs	-11.5443
▁Golf	-11.5444
▁properties	-11.5444
erfolg	-11.5444
▁lernt	-11.5453
▁hurl	-11.5458
▁precise	-11.5463
▁announc	-11.5484
▁avail	-11.5485
▁Außerdem	-11.5488
▁Resultat	-11.5488
▁bicycle	-11.5488
▁effizient	-11.5488
▁verantwortlich	-11.5488
▁Tradition	-11.5488
▁senior	-11.5488
▁Irak	-11.5488
▁scheinen	-11.5489
▁Ökosystem	-11.5489
▁syria	-11.5491
▁adorn	-11.5495
▁solicit	-11.5507
fläche	-11.5526
▁College	-11.5534
▁amazed	-11.5534
▁excellency	-11.5534
▁gewonnen	-11.5534
▁herausgefunden	-11.5534
▁mademoiselle	-11.5534
▁gilbert	-11.5534
▁torrent	-11.5534
▁außerdem	-11.5535
▁referred	-11.5537
▁aroused	-11.5537
▁Zucker	-11.5538
▁joyful	-11.5542
funktion	-11.556
▁tipp	-11.5567
▁Symbol	-11.558
▁calculation	-11.558
▁commerce	-11.558
▁politicians	-11.558
▁skeleton	-11.558
▁Online	-11.558
▁gewaltig	-11.5581
▁bieten	-11.5583
▁hostile	-11.5584
▁rosy	-11.5587
▁clue	-11.5587
▁Kindheit	-11.5588
▁Tasche	-11.5609
ologe	-11.5613
▁Flüchtling	-11.5625
▁Fünf	-11.5627
▁footsteps	-11.5627
▁psychology	-11.5627
▁simultaneous	-11.5627
▁Heimat	-11.5627
▁unjust	-11.5627
▁gelangen	-11.5627
▁cigarette	-11.5627
speicher	-11.5627
tauchen	-11.5658
▁Soldaten	-11.5673
▁demonstration	-11.5673
▁undoubtedly	-11.5673
▁Erfindung	-11.5673
▁compound	-11.5673
▁obligation	-11.5673
▁practise	-11.5673
▁pavement	-11.5673
▁Hintergrund	-11.5673
▁letztendlich	-11.5673
▁jolly	-11.5673
▁presume	-11.5673
▁costume	-11.5674
▁Grundlage	-11.5677
▁swarm	-11.5677
▁Einfach	-11.5679
schritt	-11.568
▁Kurs	-11.5684
▁Kräfte	-11.572
▁substantial	-11.572
▁abundant	-11.572
gebrochen	-11.572
projekt	-11.572
▁anguish	-11.572
▁angrily	-11.572
▁consistent	-11.5721
▁kenya	-11.5723
ception	-11.5756
▁admiral	-11.5767
▁february	-11.5767
▁pyramid	-11.5767
▁besitzen	-11.5767
▁enlighten	-11.5767
▁harbor	-11.5767
▁introduction	-11.5767
▁Fläche	-11.5767
▁threatening	-11.5767
▁defect	-11.5768
▁Küste	-11.5768
▁Milliarde	-11.5768
▁formula	-11.5769
▁richmond	-11.5769
▁rief	-11.577
▁titan	-11.5771
▁manipulat	-11.5773
▁associate	-11.5775
▁harris	-11.5777
▁grape	-11.5778
▁Bitte	-11.5792
▁harp	-11.5795
▁wartet	-11.5807
▁Obwohl	-11.5814
▁harvard	-11.5814
▁satisfactory	-11.5814
▁temporary	-11.5814
▁verbessert	-11.5814
▁vulgar	-11.5814
▁drehen	-11.5814
fähigkeit	-11.5815
▁vollkommen	-11.5816
▁oven	-11.5817
▁status	-11.5818
▁derived	-11.5821
▁Gericht	-11.5845
▁Kontext	-11.5861
▁interagieren	-11.5861
▁kürzlich	-11.5861
▁psychological	-11.5861
▁spaniard	-11.5861
▁supposing	-11.5861
▁separation	-11.5861
▁Nutzen	-11.5861
▁identical	-11.5861
▁budget	-11.5861
▁franz	-11.5861
▁interface	-11.5862
▁sitzt	-11.5863
maß	-11.5878
▁invade	-11.5898
▁quixote	-11.5909
▁verwandeln	-11.5909
▁zukünftige	-11.5909
▁Interaktion	-11.5909
▁töten	-11.5909
▁Folgendes	-11.5909
▁caution	-11.5909
▁waving	-11.5909
▁gäbe	-11.5909
▁traurig	-11.5909
▁carved	-11.591
▁Augenblick	-11.591
lösung	-11.5912
▁stirring	-11.5914
▁graham	-11.5915
▁intensiv	-11.5915
▁addict	-11.5916
▁resolve	-11.5917
▁Kalifornien	-11.5957
▁Kohlenstoff	-11.5957
▁guarantee	-11.5957
▁horrid	-11.5957
▁konzentriert	-11.5957
▁proclaim	-11.5957
▁sozusagen	-11.5957
▁villain	-11.5957
▁mindestens	-11.5957
▁Außen	-11.5957
▁unsichtbar	-11.5957
▁spray	-11.5957
▁Prä	-11.5957
▁malaria	-11.5957
▁Konsum	-11.5958
▁fanny	-11.5961
▁2005	-11.5963
▁recess	-11.5985
gelassen	-11.5989
▁AIDS	-11.6005
▁embroider	-11.6005
▁enforce	-11.6005
▁entwerfen	-11.6005
▁hauptsächlich	-11.6005
▁irregular	-11.6005
▁precaution	-11.6005
▁welfare	-11.6005
▁Quadrat	-11.6005
▁trillion	-11.6005
▁vertraut	-11.6005
▁punch	-11.6006
▁Wüste	-11.6006
▁horizontal	-11.6006
▁Themen	-11.6008
▁pillar	-11.601
▁sichtbar	-11.601
Gesundheitswesen	-11.6021
leuchten	-11.6035
gewinn	-11.6039
▁Kenn	-11.6043
▁Patient	-11.6045
▁Kaffee	-11.6053
▁prudence	-11.6053
▁suffice	-11.6053
▁Zweck	-11.6053
▁Affen	-11.6054
▁jelly	-11.6054
▁oxford	-11.6054
▁erzähle	-11.6055
▁morgan	-11.6057
▁flora	-11.6059
▁26	-11.6059
▁2009	-11.606
▁inspire	-11.6063
▁strand	-11.6068
▁westliche	-11.6075
unternehmen	-11.6085
▁übrig	-11.61
▁1960	-11.6102
▁Erklärung	-11.6102
▁interessieren	-11.6102
▁sprinkle	-11.6102
▁statistics	-11.6102
▁Schrift	-11.6102
▁Rahmen	-11.6102
▁inspector	-11.6102
▁brood	-11.6104
▁juice	-11.6108
▁foam	-11.6116
rechnen	-11.6148
▁September	-11.615
▁ambassador	-11.615
▁epidemic	-11.615
▁erhöht	-11.615
▁gigantic	-11.615
▁irgendwann	-11.615
▁manuscript	-11.615
▁significance	-11.615
▁Philosoph	-11.615
▁Malaria	-11.6151
▁depressed	-11.6151
▁smash	-11.6151
▁annual	-11.6151
▁specifically	-11.6152
▁bulk	-11.6153
▁dwelt	-11.6154
rolle	-11.6173
sätzlich	-11.6188
▁dumm	-11.6192
▁Satelliten	-11.6199
▁faculty	-11.6199
▁individuell	-11.6199
▁tumult	-11.6199
▁verhindern	-11.6199
▁wrinkle	-11.6199
▁fabric	-11.6199
▁paradise	-11.62
▁stammt	-11.62
▁resort	-11.62
▁chemische	-11.6202
▁schließen	-11.6205
▁versus	-11.6207
▁foster	-11.6211
year	-11.6216
▁blaze	-11.6227
▁patriot	-11.6249
▁Emotionen	-11.6249
▁Twitter	-11.6249
▁circular	-11.6249
▁confound	-11.6249
▁pilgrim	-11.6249
▁supplied	-11.6249
▁Öffentlichkeit	-11.6249
▁Änderung	-11.6249
▁register	-11.6249
▁vorhanden	-11.6249
schläge	-11.6249
▁bonnet	-11.625
▁laboratory	-11.625
▁Stift	-11.625
▁trigger	-11.6251
üssig	-11.6253
eilen	-11.6254
▁finance	-11.6255
▁banner	-11.6256
▁hinweg	-11.6256
▁thorough	-11.6273
▁Fabrik	-11.6298
▁philadelphia	-11.6298
volving	-11.6298
▁1970	-11.6298
▁sledge	-11.6298
▁regain	-11.63
▁decay	-11.6301
▁combine	-11.6313
▁Bericht	-11.6319
▁Rätsel	-11.6348
▁exploration	-11.6348
▁launcelot	-11.6348
▁umbrella	-11.6348
▁slumber	-11.6348
▁cushion	-11.6348
▁Mitarbeiter	-11.6348
▁verfolgen	-11.6348
▁circulat	-11.6348
▁orchard	-11.6348
▁Hunger	-11.6348
▁Gedanke	-11.635
▁compass	-11.6356
therapie	-11.6398
▁Zivilisation	-11.6398
▁phoenix	-11.6398
▁sergeant	-11.6398
▁Zuhause	-11.6398
▁abundance	-11.6398
▁eminent	-11.6398
▁shaggy	-11.6398
▁prairie	-11.6398
▁hercules	-11.6398
▁isolated	-11.6398
▁Landwirtschaft	-11.64
unterricht	-11.641
▁verschieden	-11.6423
▁95	-11.6438
▁komplex	-11.6446
▁cognitive	-11.6448
▁subsequent	-11.6448
▁Ernährung	-11.6448
▁verwandelt	-11.6448
▁rascal	-11.6448
▁wertvoll	-11.6449
▁Brücke	-11.6458
▁Sprach	-11.6463
mouth	-11.6482
▁Brasilien	-11.6499
▁fascinated	-11.6499
▁suicide	-11.6499
▁dolphin	-11.6499
▁infection	-11.6499
▁erscheinen	-11.6499
▁captive	-11.6499
▁Fahrzeug	-11.6499
▁stump	-11.6499
▁robust	-11.65
▁Abschluss	-11.65
▁eingesetzt	-11.6501
▁fawn	-11.6502
▁Wild	-11.6503
▁Katze	-11.6508
gründe	-11.6538
▁advocate	-11.655
▁galaxy	-11.655
▁impatience	-11.655
▁rebecca	-11.655
▁agitation	-11.655
▁hoffentlich	-11.655
▁entitled	-11.655
▁providing	-11.655
▁disdain	-11.655
▁selber	-11.655
▁fördern	-11.655
▁waking	-11.6558
know	-11.657
▁equation	-11.6601
▁Website	-11.6601
▁pledge	-11.6601
▁jungle	-11.6601
▁studiert	-11.6601
▁möglicherweise	-11.6603
▁melted	-11.6603
▁digging	-11.6603
▁bidding	-11.6604
▁1950	-11.6604
▁diverse	-11.6606
▁korea	-11.662
▁Washington	-11.6652
▁astonishing	-11.6652
▁unterstützt	-11.6652
▁valentine	-11.6652
▁signature	-11.6652
▁Figur	-11.6652
▁Höhle	-11.6652
▁teuer	-11.6657
▁winning	-11.6657
▁Grafik	-11.6703
▁Zimmer	-11.6703
▁beantworten	-11.6703
▁cathedral	-11.6703
▁chocolate	-11.6703
▁conspicuous	-11.6703
zeichnung	-11.6703
▁Trotz	-11.6703
▁trauma	-11.6705
hütte	-11.6724
▁conservative	-11.6755
▁participate	-11.6755
▁religiöse	-11.6755
▁reluctant	-11.6755
▁finanziell	-11.6755
▁routine	-11.6755
▁elaborate	-11.6755
▁muscular	-11.6755
▁Muskel	-11.6755
▁Fleisch	-11.6755
▁detain	-11.6755
▁Meilen	-11.6757
organisation	-11.6758
rechnet	-11.6759
▁restrict	-11.6759
▁lebendig	-11.676
▁hugh	-11.6762
▁anfing	-11.6765
▁acute	-11.6766
▁privacy	-11.6807
▁compromise	-11.6807
▁divorce	-11.6807
▁executed	-11.6807
▁moscow	-11.6807
▁engaging	-11.6807
▁withdrew	-11.6807
anstalt	-11.6807
▁sheriff	-11.6808
▁verteilt	-11.6809
▁Handlung	-11.6811
▁wireless	-11.6811
▁Stufe	-11.6813
lösen	-11.6813
▁Grenze	-11.6814
stärke	-11.6818
▁profess	-11.6842
▁ambitious	-11.686
▁exclamation	-11.686
▁irgendetwas	-11.686
▁unterscheiden	-11.686
▁wolves	-11.686
▁julius	-11.686
▁reverence	-11.686
▁abode	-11.6862
▁theories	-11.6868
▁Norm	-11.6869
▁corrupt	-11.6907
▁gemein	-11.6907
▁Unterhaltung	-11.6912
▁emphasis	-11.6912
▁entspricht	-11.6912
▁vertrauen	-11.6912
▁landlord	-11.6912
▁bronze	-11.6912
▁tyrant	-11.6912
▁revelation	-11.6912
▁nightingale	-11.6912
▁cavern	-11.6913
▁amiable	-11.6913
▁criticism	-11.6914
▁organisiert	-11.6915
lässig	-11.6918
pflanzen	-11.6965
▁Gedächtnis	-11.6965
▁intercourse	-11.6965
▁öffnet	-11.6965
▁trivial	-11.6965
▁cosette	-11.6965
▁orphan	-11.6966
▁laptop	-11.6966
preis	-11.7006
▁declaration	-11.7018
▁generosity	-11.7018
▁remembrance	-11.7018
▁substitute	-11.7018
▁chronic	-11.7018
glück	-11.7018
▁Schnitt	-11.7018
▁remedy	-11.7018
▁intensity	-11.7018
▁pleasing	-11.7021
▁tremble	-11.7033
▁alternat	-11.7047
läuft	-11.7055
▁Investition	-11.7072
▁Restaurant	-11.7072
▁Wettbewerb	-11.7072
▁chemistry	-11.7072
▁intimacy	-11.7072
▁mexican	-11.7072
stimmung	-11.7072
▁academic	-11.7072
▁Fakten	-11.7072
▁ernsthaft	-11.7073
▁interven	-11.7074
▁warrant	-11.7075
getrieben	-11.7101
leigh	-11.7115
▁Eigentlich	-11.7126
▁gorgeous	-11.7126
▁opponent	-11.7126
▁reduzieren	-11.7126
▁emergency	-11.7126
▁gehabt	-11.7126
▁stricken	-11.7126
▁indication	-11.7126
▁dissolv	-11.7126
▁gelesen	-11.7126
▁twas	-11.7126
▁besieg	-11.7126
▁Ausmaß	-11.7127
▁Zitat	-11.7127
▁exhaust	-11.713
schalten	-11.7155
theorie	-11.7179
▁Spiegel	-11.718
▁Dokument	-11.718
▁England	-11.718
▁Schimpansen	-11.718
▁monstrous	-11.718
▁resemblance	-11.718
▁squeeze	-11.718
▁zugänglich	-11.718
▁glancing	-11.718
▁attorney	-11.718
▁caesar	-11.718
▁scold	-11.718
▁sullen	-11.718
▁plato	-11.7182
erkennung	-11.7184
▁Steve	-11.7185
▁Minute	-11.719
▁vulnerable	-11.7234
▁zunächst	-11.7234
▁Partei	-11.7234
▁kostenlos	-11.7234
▁perfume	-11.7234
▁quantum	-11.7234
▁Nachbarn	-11.7234
▁vergleichen	-11.7234
▁jerry	-11.7234
▁suburb	-11.7235
▁crisp	-11.7237
▁könnt	-11.7278
krankheit	-11.7287
▁Dinosaurier	-11.7289
▁bewildered	-11.7289
▁eleanor	-11.7289
▁mosquito	-11.7289
bücher	-11.7289
▁scandal	-11.7289
▁donkey	-11.7289
▁besagt	-11.7289
▁schlau	-11.7289
▁senate	-11.729
▁Euro	-11.7316
vermögen	-11.7344
▁embarrassment	-11.7344
▁entworfen	-11.7344
▁nautilus	-11.7344
▁prohibit	-11.7344
▁remorse	-11.7344
▁brethren	-11.7344
▁Alternative	-11.7344
▁harbour	-11.7344
▁parlour	-11.7344
▁Toilette	-11.7344
▁emerging	-11.7344
▁verbreiten	-11.7344
▁concrete	-11.7344
▁ardent	-11.7344
▁verdient	-11.7344
▁Streit	-11.7344
▁incentive	-11.7344
▁destined	-11.7344
zentrum	-11.7345
▁Atem	-11.7349
grenze	-11.7356
▁secur	-11.7362
▁inspirieren	-11.7399
▁mushroom	-11.7399
▁prominent	-11.7399
▁squirrel	-11.7399
▁Doktor	-11.7399
▁analyze	-11.7399
▁Trend	-11.7399
▁martian	-11.74
▁Hinweis	-11.74
▁feedback	-11.74
▁Wirkung	-11.7401
▁Kerl	-11.7415
effekt	-11.7451
agged	-11.7454
▁Metapher	-11.7454
▁vaccine	-11.7454
▁Definition	-11.7454
▁Katastrophe	-11.7454
▁definieren	-11.7454
▁kilometers	-11.7454
▁situated	-11.7454
▁Nigeria	-11.7454
▁buzz	-11.7454
▁raoul	-11.7454
▁ritual	-11.7454
▁gewählt	-11.7455
▁marquis	-11.7455
▁intervention	-11.7455
▁escort	-11.7456
▁robbed	-11.7457
▁Feind	-11.7459
▁vertical	-11.7471
▁replica	-11.7499
▁fasziniert	-11.751
▁jerusalem	-11.751
▁colonies	-11.751
▁consolation	-11.751
▁penguin	-11.751
▁trousers	-11.751
▁erkennt	-11.751
▁arctic	-11.751
▁Jemand	-11.751
▁goddess	-11.7511
strategie	-11.7511
▁eliminat	-11.7511
▁owl	-11.7511
▁excite	-11.7523
▁assassin	-11.7566
▁galaxies	-11.7566
▁preceding	-11.7566
▁uncommon	-11.7566
▁entgegen	-11.7566
▁embark	-11.7566
▁imperial	-11.7567
▁geändert	-11.7567
▁greece	-11.7567
▁Null	-11.7567
▁allerdings	-11.7567
▁alliance	-11.7567
positiv	-11.7567
▁vault	-11.7567
▁blink	-11.7567
▁Wohlstand	-11.7568
▁frantic	-11.7569
heiratet	-11.758
▁Chirurg	-11.7623
▁authentic	-11.7623
▁continuing	-11.7623
▁illustration	-11.7623
▁phantom	-11.7623
▁Klinik	-11.7623
▁empathy	-11.7623
▁recruit	-11.7623
▁automatisch	-11.7623
▁musket	-11.7623
▁Haufen	-11.7623
▁watson	-11.7623
▁Gegensatz	-11.7624
▁brauche	-11.7633
▁Summe	-11.7646
▁grundlegend	-11.7675
▁Australien	-11.768
▁Existenz	-11.768
▁prototype	-11.768
▁unnecessary	-11.768
▁tempest	-11.768
▁Gestalt	-11.768
▁Hinsicht	-11.768
▁impressive	-11.768
▁whatsoever	-11.768
▁formidable	-11.768
▁desirable	-11.768
▁sermon	-11.768
▁tackle	-11.768
▁Kirche	-11.7681
möglichkeiten	-11.7737
▁Kreuz	-11.7737
▁academy	-11.7737
▁admirable	-11.7737
▁verschwinden	-11.7737
▁zentrale	-11.7737
▁Dimension	-11.7737
▁cavalry	-11.7737
▁festival	-11.7737
▁occurrence	-11.7737
▁Verhältnis	-11.7737
▁Schatten	-11.7737
▁Viertel	-11.7737
▁hypothesis	-11.7737
▁rubbing	-11.7737
▁martha	-11.7737
▁revolt	-11.7737
▁Riesen	-11.7737
▁daniel	-11.7738
▁schickte	-11.7738
▁tangle	-11.7738
▁Küche	-11.7739
▁Pferd	-11.774
▁Phase	-11.7741
▁vermute	-11.7746
▁Schalt	-11.7756
▁adore	-11.778
▁nowadays	-11.7794
▁testimony	-11.7794
▁automobile	-11.7794
zufügen	-11.7794
▁promising	-11.7794
▁knelt	-11.7794
▁inquiries	-11.7794
▁körperlich	-11.7795
▁Straf	-11.7796
vocation	-11.7804
view	-11.7832
▁Argument	-11.7852
▁Diagramm	-11.7852
▁Laptop	-11.7852
▁berührt	-11.7852
▁charlotte	-11.7852
▁examining	-11.7852
▁Helden	-11.7852
▁fisherman	-11.7852
▁inflict	-11.7852
▁guinea	-11.7852
▁employees	-11.7852
▁zahlen	-11.7853
▁animation	-11.7853
▁weibliche	-11.7857
▁zunehmend	-11.7862
bird	-11.7896
stamm	-11.7904
Ü	-11.791
▁Schwierigkeiten	-11.791
▁contemplate	-11.791
▁contribution	-11.791
▁encouraging	-11.791
▁feminine	-11.791
▁manufacturing	-11.791
▁overwhelmed	-11.791
▁wrought	-11.791
▁decrease	-11.791
▁shrill	-11.791
▁worldwide	-11.791
▁Geschenk	-11.791
▁George	-11.791
▁bildet	-11.7911
technik	-11.7911
▁Hunderte	-11.7914
▁dramatisch	-11.7938
▁virtuelle	-11.7948
▁disagree	-11.7965
▁Individuen	-11.7969
▁Kleidung	-11.7969
▁Märkte	-11.7969
▁studieren	-11.7969
▁eternity	-11.7969
▁resident	-11.7969
▁provoke	-11.7969
▁dominant	-11.7969
▁Gesamt	-11.7969
▁slew	-11.7969
▁amelia	-11.7969
▁anwenden	-11.7969
▁sneer	-11.797
▁seemingly	-11.797
▁liebte	-11.7973
▁conjecture	-11.8028
▁embarrassed	-11.8028
▁perceiving	-11.8028
▁physicist	-11.8028
▁tuesday	-11.8028
▁Köpfe	-11.8028
▁spargo	-11.8028
▁bodily	-11.8028
▁deswegen	-11.8028
▁pigeon	-11.8028
▁Auswahl	-11.8028
▁predator	-11.8031
▁zusätzliche	-11.8041
holz	-11.8065
durchschnittlich	-11.808
▁Erlebnis	-11.8087
▁Korruption	-11.8087
▁discourage	-11.8087
▁recognised	-11.8087
▁translation	-11.8087
▁sublime	-11.8087
▁helmet	-11.8087
▁desolate	-11.8088
▁gründete	-11.8089
aufnahme	-11.81
▁nigh	-11.8138
versorgung	-11.8146
▁Stattdessen	-11.8146
▁fängt	-11.8146
▁gebraucht	-11.8146
▁psmith	-11.8146
▁äußerst	-11.8146
▁jährlich	-11.8146
▁radikal	-11.8146
▁pudding	-11.8146
▁geschickt	-11.8146
▁beinahe	-11.8146
▁Ursache	-11.8146
▁incapable	-11.8146
▁ninth	-11.8147
▁longterm	-11.8147
▁raven	-11.8148
▁glide	-11.8148
▁Besuch	-11.8149
▁canyon	-11.815
▁hesitate	-11.8167
▁dye	-11.8172
▁Harvard	-11.8206
▁Kombination	-11.8206
▁Persönlichkeit	-11.8206
▁episode	-11.8206
▁flexible	-11.8206
▁Organismen	-11.8206
▁erscheint	-11.8206
▁agency	-11.8207
▁agnes	-11.8207
▁bliss	-11.8207
▁Wälder	-11.8266
▁akzeptieren	-11.8266
▁apparatus	-11.8266
▁beinhaltet	-11.8266
▁eindeutig	-11.8266
▁gestorben	-11.8266
▁molecular	-11.8266
▁Zwischen	-11.8266
▁hazard	-11.8266
▁Zuschauer	-11.8266
▁healthcare	-11.8266
▁stooped	-11.8266
▁beliebt	-11.8267
▁spannend	-11.8267
▁canadian	-11.8267
▁bureau	-11.8267
▁gdp	-11.8267
▁historian	-11.8267
▁Güte	-11.8277
artikel	-11.8282
▁Elektrizität	-11.8327
▁Lebewesen	-11.8327
▁admiring	-11.8327
▁eustace	-11.8327
▁legitimate	-11.8327
▁overwhelming	-11.8327
schlüssel	-11.8327
▁Kanada	-11.8327
▁Prototyp	-11.8327
▁texas	-11.8327
▁choosing	-11.8327
▁vacant	-11.8327
▁Islam	-11.8327
▁reagiert	-11.8327
▁athenian	-11.8328
▁dauern	-11.8328
▁Kenia	-11.8329
fahrer	-11.833
▁calamit	-11.8334
schneiden	-11.8343
▁Israel	-11.8388
▁Räume	-11.8388
▁agitated	-11.8388
▁chimpanzee	-11.8388
▁delicacy	-11.8388
▁grundsätzlich	-11.8388
▁waistcoat	-11.8388
▁Zauber	-11.8388
▁üblich	-11.8388
▁definiert	-11.8388
▁Hilfs	-11.8388
▁intuition	-11.8388
▁nourish	-11.8388
▁emissions	-11.8388
▁Webseite	-11.8388
▁kritisch	-11.8388
▁refrain	-11.8389
▁Multi	-11.8389
▁kaufte	-11.8391
▁Patent	-11.8393
▁Aussage	-11.8401
▁advent	-11.8447
▁Gerechtigkeit	-11.8449
▁arriving	-11.8449
▁entfernen	-11.8449
▁liquor	-11.8449
▁pinocchio	-11.8449
▁shrewd	-11.8449
▁versteht	-11.8449
▁zerstören	-11.8449
schränkung	-11.8449
▁hebrew	-11.8449
▁pioneer	-11.8449
▁doppelt	-11.845
▁skilful	-11.845
▁besorgt	-11.845
▁refined	-11.845
▁serene	-11.845
▁abyss	-11.8452
streit	-11.8496
▁Füße	-11.8511
▁beschäftigen	-11.8511
▁corporal	-11.8511
▁diplomat	-11.8511
▁thyself	-11.8511
▁verbindet	-11.8511
▁aufzubauen	-11.8511
▁transaction	-11.8511
▁plough	-11.8511
▁scotch	-11.8511
▁schätzen	-11.8511
▁transplant	-11.8511
▁Show	-11.8511
▁abilities	-11.8511
▁thereupon	-11.8511
▁persistent	-11.8512
▁acres	-11.8512
▁adhere	-11.8518
graphie	-11.8539
züglich	-11.8573
▁Buchstaben	-11.8573
▁Deutschland	-11.8573
▁Entfernung	-11.8573
▁comparatively	-11.8573
▁marvellous	-11.8573
▁terrace	-11.8573
▁carpenter	-11.8573
▁samuel	-11.8573
▁Darstellung	-11.8573
▁chariot	-11.8573
▁dexter	-11.8573
▁Milch	-11.8573
▁imposed	-11.8573
▁ruhig	-11.8574
ermaßen	-11.8612
▁MIT	-11.8636
▁executive	-11.8636
▁identified	-11.8636
▁intuitive	-11.8636
▁plunder	-11.8636
▁scarecrow	-11.8636
▁carolina	-11.8636
▁stattdessen	-11.8636
▁rainbow	-11.8636
▁orchestra	-11.8636
▁School	-11.8636
▁steigt	-11.8636
▁microbes	-11.8636
▁Szene	-11.8651
▁Irgendw	-11.8699
▁explode	-11.8699
▁inevitably	-11.8699
▁pakistan	-11.8699
▁reinforce	-11.8699
▁thieves	-11.8699
▁paradox	-11.8699
▁Theater	-11.8699
▁Chemie	-11.8699
▁destination	-11.8699
▁vermitteln	-11.8699
▁Leider	-11.8699
▁transcend	-11.8699
▁proverb	-11.8699
bringt	-11.8705
Bahn	-11.8717
streben	-11.8725
▁disadvantage	-11.8762
▁pregnant	-11.8762
▁sympathetic	-11.8762
▁nobility	-11.8762
▁kontrolliert	-11.8762
▁damsel	-11.8762
▁kettle	-11.8762
▁Interview	-11.8762
▁Kurve	-11.8762
▁strive	-11.8762
▁Damals	-11.8763
schaltet	-11.8765
▁mittlere	-11.8766
illiard	-11.878
▁Großmutter	-11.8826
▁Löcher	-11.8826
▁Plattform	-11.8826
▁Richard	-11.8826
▁Risiken	-11.8826
▁agricultural	-11.8826
▁priscilla	-11.8826
▁humming	-11.8826
▁Lunge	-11.884
▁terminat	-11.8845
▁imitate	-11.8854
▁convent	-11.8877
▁regime	-11.8889
$	-11.889
▁aggressive	-11.889
▁bachelor	-11.889
▁langfristig	-11.889
▁magnitude	-11.889
oberfläche	-11.889
▁instinctively	-11.889
▁verfolgt	-11.889
▁butterfly	-11.889
▁hoarse	-11.889
▁commend	-11.889
▁schlafen	-11.889
▁mysteries	-11.889
▁edison	-11.889
▁Schaden	-11.889
▁quaint	-11.889
▁foresee	-11.8929
▁Maßstab	-11.8954
▁distrust	-11.8954
▁energetic	-11.8954
▁estralla	-11.8954
▁tötet	-11.8954
▁unbekannt	-11.8954
▁fiddle	-11.8954
▁pleaded	-11.8955
▁jasper	-11.8955
▁omni	-11.8955
▁unendlich	-11.8955
▁domain	-11.8955
▁antibiotic	-11.9019
▁exclude	-11.9019
▁incessant	-11.9019
▁prudent	-11.9019
▁psychologist	-11.9019
▁vermeiden	-11.9019
▁Debatte	-11.9019
▁cricket	-11.9019
▁dignified	-11.9019
▁assigned	-11.9019
▁Zahn	-11.9019
▁parcel	-11.9019
▁Wetter	-11.9019
▁animated	-11.9019
▁freak	-11.902
▁gratify	-11.902
▁klinische	-11.9021
ürzt	-11.9022
▁Blau	-11.9031
urchschnittliche	-11.9041
▁continual	-11.9059
dolph	-11.9065
▁2011	-11.9084
▁Allgemein	-11.9084
▁Komponente	-11.9084
▁Südafrika	-11.9084
▁despatch	-11.9084
▁negotiation	-11.9084
▁pollution	-11.9084
▁terrific	-11.9084
▁radiant	-11.9085
▁überwinden	-11.9085
▁chateau	-11.9085
▁jimmie	-11.9085
▁draught	-11.9085
▁ounce	-11.9085
▁sunrise	-11.9085
▁Winter	-11.9085
▁overtake	-11.9088
▁zusammenarbeite	-11.9095
▁höre	-11.9099
seitige	-11.9109
▁Wechsel	-11.915
▁drüben	-11.915
▁temperament	-11.915
▁measuring	-11.915
▁gelebt	-11.915
▁undertaking	-11.915
▁martyr	-11.915
▁courtesy	-11.9151
▁dictate	-11.9151
▁autism	-11.9151
▁volcano	-11.9152
▁contend	-11.9154
schieben	-11.9155
▁fringe	-11.9174
dreht	-11.9201
▁Diagnose	-11.9217
▁Teenager	-11.9217
▁challenging	-11.9217
▁inequality	-11.9217
▁rejoicing	-11.9217
▁sophisticated	-11.9217
▁spontaneous	-11.9217
▁Darwin	-11.9217
▁fancies	-11.9217
▁technological	-11.9217
▁unworthy	-11.9217
▁klassische	-11.9217
▁recipe	-11.9217
▁zieht	-11.9217
▁incense	-11.9217
▁plug	-11.9217
▁console	-11.9219
▁slap	-11.9238
▁Unterricht	-11.9253
▁automatically	-11.9283
▁bizarre	-11.9283
▁cambridge	-11.9283
▁dedicated	-11.9283
▁mathematische	-11.9283
▁villefort	-11.9283
▁buffalo	-11.9283
▁crooked	-11.9283
▁barbara	-11.9283
▁sandwich	-11.9283
▁scheinbar	-11.9283
▁granite	-11.9283
▁steuern	-11.9283
▁parlor	-11.9283
▁streak	-11.9283
▁investigate	-11.9283
▁dominion	-11.9284
biologi	-11.9298
midst	-11.9331
▁Spezial	-11.935
gegenwärtig	-11.935
▁2012	-11.935
▁Könnte	-11.935
▁accumulate	-11.935
▁erweitern	-11.935
▁facility	-11.935
▁faculties	-11.935
▁invariably	-11.935
▁quantities	-11.935
▁scramble	-11.935
geworfen	-11.935
▁Echtzeit	-11.935
▁inspiring	-11.935
▁disrupt	-11.935
▁computation	-11.935
▁empfinde	-11.9351
▁trench	-11.9351
▁grocer	-11.9351
technolog	-11.937
▁Francisco	-11.9418
▁advertising	-11.9418
▁catastrophe	-11.9418
▁dialogue	-11.9418
▁disposal	-11.9418
▁extension	-11.9418
▁jünger	-11.9418
▁obstinate	-11.9418
▁twentieth	-11.9418
▁virtuous	-11.9418
▁wednesday	-11.9418
▁Option	-11.9418
▁aufgebaut	-11.9418
▁bietet	-11.9418
▁conquest	-11.9418
▁gegründet	-11.9418
▁anthea	-11.9418
▁Flasche	-11.9419
▁verstehe	-11.944
▁NASA	-11.9486
▁apprehend	-11.9486
▁corporation	-11.9486
▁exploring	-11.9486
▁gewann	-11.9486
▁erfuhr	-11.9486
▁glimmer	-11.9486
▁Dutzend	-11.9486
▁erschien	-11.9486
▁Training	-11.9486
▁profile	-11.9486
▁audio	-11.9486
▁sammelt	-11.9486
▁durfte	-11.9509
▁Amazon	-11.9554
▁Bedrohung	-11.9554
▁Billionen	-11.9554
▁Gemälde	-11.9554
▁Literatur	-11.9554
▁Potential	-11.9554
▁Präsentation	-11.9554
▁Respekt	-11.9554
▁excursion	-11.9554
▁langweilig	-11.9554
▁Überraschung	-11.9554
▁Übung	-11.9554
▁Therapie	-11.9554
▁interposed	-11.9554
▁Wesentlichen	-11.9554
▁verletzt	-11.9554
▁cyril	-11.9554
▁hieß	-11.9554
▁plaster	-11.9554
▁Werbung	-11.9554
▁chancellor	-11.9554
▁vexed	-11.9555
▁pitiful	-11.9555
▁Rakete	-11.9557
▁Bombe	-11.956
▁Student	-11.9567
▁austria	-11.957
bindung	-11.9622
▁microscope	-11.9623
▁proprietor	-11.9623
▁unnatural	-11.9623
▁whistling	-11.9623
▁Batterie	-11.9623
▁salvation	-11.9623
▁bleeding	-11.9623
▁Kommentar	-11.9623
▁Zweifel	-11.9623
▁legacy	-11.9623
▁subdued	-11.9623
▁wiederholt	-11.9623
▁englische	-11.9624
▁hymn	-11.9624
▁soviet	-11.9624
▁Blase	-11.9627
▁systematic	-11.9634
▁Ehre	-11.9641
▁Mexiko	-11.9693
▁collaboration	-11.9693
▁cylinder	-11.9693
▁elevation	-11.9693
▁hamilton	-11.9693
▁intelligible	-11.9693
▁kollektive	-11.9693
▁defiance	-11.9693
▁nelson	-11.9693
▁wondrous	-11.9693
▁insurance	-11.9693
▁announcement	-11.9693
▁conseil	-11.9693
▁violin	-11.9693
▁kreieren	-11.9693
▁youtube	-11.9693
▁Kredit	-11.9694
▁geteilt	-11.9695
▁expir	-11.9696
▁Anreiz	-11.9698
▁Völker	-11.9763
▁Kampagne	-11.9763
▁Schließlich	-11.9763
▁Wurzel	-11.9763
▁beeindruckend	-11.9763
▁eyebrows	-11.9763
▁pharaoh	-11.9763
▁prescribe	-11.9763
▁berichtet	-11.9763
▁aspiration	-11.9763
▁Metall	-11.9763
▁integrate	-11.9763
kontroll	-11.9763
▁Fliegen	-11.9775
gerufen	-11.9804
▁inject	-11.9804
▁Dritte	-11.9832
▁hypothe	-11.9833
▁Infektion	-11.9833
▁Magazin	-11.9833
▁Nächste	-11.9833
▁Verbesserung	-11.9833
▁columbia	-11.9833
▁eröffnet	-11.9833
▁happiest	-11.9833
▁pursuing	-11.9833
▁shattered	-11.9833
Epidemie	-11.9833
▁Charles	-11.9833
▁Rezept	-11.9833
▁pierced	-11.9833
▁disciple	-11.9833
▁gratification	-11.9833
▁Anführer	-11.9833
▁sinister	-11.9833
▁veteran	-11.9833
▁shrub	-11.9833
▁stimulate	-11.9833
▁infected	-11.9833
▁inherent	-11.9833
▁gespielt	-11.9834
▁Lücke	-11.9834
▁aramis	-11.9834
▁Ähnlich	-11.9835
▁Haushalt	-11.9847
▁devise	-11.9858
orientiert	-11.9891
▁DNS	-11.9904
▁Spektrum	-11.9904
▁aladdin	-11.9904
▁alphabet	-11.9904
▁beteiligt	-11.9904
▁rebuild	-11.9904
▁wütend	-11.9904
▁glamour	-11.9904
▁Stuhl	-11.9904
▁fragile	-11.9904
▁located	-11.9904
▁Angestellte	-11.9917
▁barricade	-11.9975
▁describing	-11.9975
▁Gegenwart	-11.9976
▁crumbs	-11.9976
▁flavor	-11.9976
▁bemerken	-11.9976
▁desirous	-11.9976
▁constance	-11.9976
▁ghastl	-11.9976
medizin	-11.9976
▁Flagge	-11.9976
gewiesen	-11.9976
▁vigil	-11.9976
straße	-11.9976
▁premise	-11.9976
▁löst	-11.9977
▁confide	-12.0044
▁awhile	-12.0047
▁irresistible	-12.0047
▁procedure	-12.0047
▁Belohnung	-12.0047
▁betroffen	-12.0047
▁reduziert	-12.0047
▁wünsche	-12.0047
▁furchtbar	-12.0047
▁basierend	-12.0047
▁dixon	-12.0047
▁meditation	-12.0047
▁sinnvoll	-12.0047
▁garrison	-12.0047
▁petersburg	-12.0048
▁awesome	-12.0048
▁blazing	-12.0048
▁intrigue	-12.0048
▁sniff	-12.0048
▁unkind	-12.0048
▁Klassenzimmer	-12.012
▁adequate	-12.012
▁approval	-12.012
▁indefinite	-12.012
▁innumerable	-12.012
▁psychische	-12.012
▁tulliver	-12.012
▁tyranny	-12.012
▁Nutzung	-12.012
▁decisive	-12.012
▁humility	-12.012
▁jupiter	-12.012
▁delusion	-12.012
▁grunt	-12.012
▁assuming	-12.012
▁courteous	-12.012
▁mimic	-12.0122
▁clair	-12.0122
▁verloc	-12.0128
▁dominate	-12.0132
studie	-12.0144
▁Algorithmen	-12.0193
▁Zunächst	-12.0193
▁chauvelin	-12.0193
▁felicity	-12.0193
▁striving	-12.0193
▁SMS	-12.0193
▁lediglich	-12.0193
▁enhance	-12.0193
▁unfair	-12.0193
▁rugged	-12.0193
▁orleans	-12.0193
▁erneut	-12.0193
▁Schlange	-12.0211
▁evolve	-12.0227
▁oppose	-12.0227
▁necessit	-12.0247
sammlung	-12.0266
▁dictionary	-12.0266
▁emphatic	-12.0266
▁kümmert	-12.0266
▁leonora	-12.0266
▁mathematician	-12.0266
▁mississippi	-12.0266
▁splendor	-12.0266
▁furnace	-12.0266
▁Magnet	-12.0266
▁dünn	-12.0266
▁Überzeugung	-12.0266
▁Blatt	-12.0267
▁Hindernis	-12.0267
▁fremd	-12.0267
▁initiative	-12.0267
▁trinken	-12.0267
▁choked	-12.0267
ländische	-12.0267
▁Störung	-12.0267
▁geistige	-12.0271
läufe	-12.0275
▁Chemikalien	-12.034
▁Chicago	-12.034
▁commonplace	-12.034
▁extinguish	-12.034
▁reconstruct	-12.034
▁suffrage	-12.034
▁tödlich	-12.034
▁junior	-12.0341
▁Geburtstag	-12.0341
▁trifling	-12.0341
▁venice	-12.0341
▁wüsste	-12.0341
▁überlebt	-12.0341
▁vacation	-12.0341
▁georgia	-12.0341
▁conceit	-12.0341
▁getrennt	-12.0341
▁stieg	-12.0342
▁fulfil	-12.0362
▁Photo	-12.0387
▁Alzheimer	-12.0415
▁Deswegen	-12.0415
▁confederate	-12.0415
▁contemporary	-12.0415
▁deploy	-12.0415
▁fireplace	-12.0415
▁policies	-12.0415
▁uneasiness	-12.0415
▁erforscht	-12.0415
▁solving	-12.0415
▁World	-12.0415
▁industrielle	-12.0415
▁kaputt	-12.0415
▁lumber	-12.0415
▁schlug	-12.0415
▁stride	-12.0417
▁democrat	-12.0444
▁Potenzial	-12.049
▁Schicksal	-12.049
▁behaviour	-12.049
▁florida	-12.049
▁regelmäßig	-12.049
▁Teufel	-12.049
▁necklace	-12.049
▁venerable	-12.049
▁alzheimer	-12.049
▁tribute	-12.049
▁imperative	-12.049
▁twig	-12.049
▁Presse	-12.0491
▁platt	-12.0491
▁Schuhe	-12.0492
amerikanische	-12.0522
▁Michael	-12.0566
▁Nachbarschaft	-12.0566
▁convenience	-12.0566
▁corporate	-12.0566
▁dispatch	-12.0566
▁equipped	-12.0566
▁majestic	-12.0566
▁scrooge	-12.0566
▁thursday	-12.0566
▁Beobachtung	-12.0566
▁censor	-12.0566
▁athlete	-12.0566
▁fishermen	-12.0566
▁asteroid	-12.0566
▁knapp	-12.0566
▁dreary	-12.0566
▁surround	-12.0623
▁Führer	-12.0642
▁accuracy	-12.0642
▁dioxide	-12.0642
▁erhöhen	-12.0642
▁geholfen	-12.0642
▁scoundrel	-12.0642
▁Analyse	-12.0642
▁Autismus	-12.0642
▁Bibliothek	-12.0642
▁Pinguin	-12.0642
▁bumble	-12.0642
▁luncheon	-12.0643
▁Hallo	-12.0643
cloth	-12.0703
control	-12.0718
▁Antibiotika	-12.0719
▁ansieht	-12.0719
▁beispielsweise	-12.0719
▁contemplation	-12.0719
▁shrugged	-12.0719
▁survivor	-12.0719
▁treasury	-12.0719
▁biscuit	-12.0719
▁dynamisch	-12.0719
▁ridicule	-12.0719
▁vibration	-12.0719
▁vicious	-12.0719
▁invasion	-12.0719
▁cortex	-12.0719
▁snuff	-12.0719
▁vorsichtig	-12.0719
▁drücken	-12.0719
▁Zähne	-12.072
▁BIP	-12.0797
▁demokratische	-12.0797
▁iPhone	-12.0797
▁imagining	-12.0797
▁participant	-12.0797
▁precipice	-12.0797
▁secrecy	-12.0797
▁Rettung	-12.0797
▁gabriel	-12.0797
▁Talent	-12.0798
▁Spinne	-12.0827
▁devote	-12.0836
▁Kopie	-12.0836
▁Inspiration	-12.0875
▁Zeichnung	-12.0875
▁congratulate	-12.0875
▁discontent	-12.0875
▁mediterranean	-12.0875
▁neugierig	-12.0875
▁olympic	-12.0875
▁repetition	-12.0875
▁sydney	-12.0875
▁universities	-12.0875
▁Extrem	-12.0875
▁rebellion	-12.0875
▁superstition	-12.0875
▁vorbereitet	-12.0875
sequenz	-12.0875
▁enlarge	-12.0875
▁spüren	-12.0875
▁shuffl	-12.0875
▁avenge	-12.0879
▁Kapitel	-12.0954
▁abnormal	-12.0954
▁almighty	-12.0954
▁dilemma	-12.0954
▁marcella	-12.0954
▁primarily	-12.0954
▁propriety	-12.0954
▁removing	-12.0954
▁reproduce	-12.0954
▁superintendent	-12.0954
▁surveillance	-12.0954
▁verursachen	-12.0954
▁socrates	-12.0954
▁douglas	-12.0954
▁Angeles	-12.0954
▁Fokus	-12.0954
„	-12.1016
Y	-12.159
”	-12.2306
á	-12.2769
í	-12.535
›	-12.7088
‘	-12.7536
β	-12.8166
=	-12.9192
è	-13.0749
⁄	-13.1628
Ä	-13.2082
(	-13.392
#	-13.4856
à	-13.5512
‚	-13.7785
‒	-13.8675
^	-13.9651
@	-14.0733
–	-14.2596
—	-14.4913
ê	-14.5839
­	-14.5839
ø	-14.5839
ù	-14.5839
♫	-14.6822
ā	-14.6839
â	-14.92
ô	-15.2295
	-15.4295
	-15.4295
	-15.4295
♪	-15.6778
ú	-15.6795
•	-15.6795
»	-16.0112
É	-16.0128
~	-16.0128
®	-16.0128
×	-16.0128
©	-16.5128
ý	-16.5128
你	-16.5128
葱	-16.5128
送	-16.5128
Á	-16.5128
š	-16.5128
्	-17.5091
े	-17.5092
र	-17.5093
म	-17.5094
प	-17.5095
ū	-17.5096
ě	-17.5097
ć	-17.5098
û	-17.5099
¶	-17.51
่	-17.5101
ร	-17.5102
ย	-17.5103
œ	-17.5104
Ç	-17.5105
Å	-17.5106
¥	-17.5107
£	-17.5108
¡	-17.5109
*	-17.511
ë	-17.5111
อ	-17.5112
«	-17.5113
ī	-17.5113
ï	-17.5114
€	-17.5115
‟	-17.5116
́	-17.5117
_	-17.5118
+	-17.5119
ñ	-17.512
ã	-17.5121
°	-17.5122
ó	-17.5123
ç	-17.5124
‹	-17.5125
/	-17.5126
[	-17.5127
ò	-17.5128
Ō	-17.5128
Ű	-17.5128
	-17.5128
	-17.5128
¿	-17.5128
å	-17.5128
ă	-17.5128
Č	-17.5128
č	-17.5128
ō	-17.5128
Œ	-17.5128
ť	-17.5128
’	-17.5128
