, 630360
. 498022
s 273361
▁the 200186
▁and 142871
▁in 138816
▁to 123582
' 117216
▁of 112749
▁a 111586
▁die 107159
en 99092
▁und 93718
▁that 90745
t 83856
▁i 81762
e 79383
▁it 74655
n 68871
▁der 68259
▁we 67383
▁you 66989
▁is 61414
▁ist 61056
▁zu 56704
▁so 54338
▁das 54294
▁ich 48000
▁wir 47785
▁this 47015
▁was 44651
- 44329
▁es 43255
er 41472
▁" 39928
▁an 39084
▁ein 38808
▁Sie 38566
? 38218
▁sie 36735
: 35934
m 34604
▁— 34247
▁nicht 34153
d 33687
▁von 33634
▁dass 33437
▁be 32182
▁eine 31891
▁they 31696
ing 31539
▁for 30329
▁ 30285
re 30077
▁den 29306
r 29274
▁mit 28228
▁auf 27620
ed 27537
▁are 27334
▁Und 27003
) 26474
▁have 26244
▁but 25891
▁( 25855
▁on 25340
▁what 24807
▁with 24085
▁Ich 23542
▁can 23119
▁wie 22882
▁sich 22659
▁sind 21706
▁all 21370
▁für 20789
▁as 20539
▁about 20443
▁man 20167
▁war 20143
▁haben 20096
▁there 20087
▁at 19262
▁not 18738
▁do 18543
▁um 18313
▁my 17602
▁als 17462
▁one 16900
▁Das 16870
y 16670
▁people 16316
▁er 16164
es 16072
▁im 16072
▁aus 15916
▁Es 15869
▁like 15815
▁he 15362
▁dem 15327
▁if 15238
▁Wir 15220
▁diese 15044
▁from 15016
▁uns 14399
▁our 14337
▁or 14181
▁me 14054
ly 14011
▁über 13752
▁also 13687
▁wenn 13682
▁now 13663
▁just 13447
▁these 13389
▁einen 13380
st 13230
▁when 13219
ve 13182
g 12597
▁können 12499
▁oder 12478
▁because 12405
▁out 12400
▁werden 12348
al 11952
▁des 11908
▁hat 11760
▁by 11695
▁up 11673
▁very 11581
▁them 11399
▁know 11358
▁aber 11244
." 11146
▁how 11072
▁auch 11041
c 10999
▁einer 10888
▁going 10739
▁more 10737
▁had 10685
▁kann 10651
▁Die 10581
▁Aber 10514
▁who 10495
▁nur 10450
▁see 10424
▁einem 10414
ä 10405
te 10346
▁think 10293
▁your 9971
k 9970
▁Menschen 9969
ll 9963
▁their 9949
in 9938
▁wird 9817
▁were 9756
▁mich 9709
▁will 9695
ung 9631
▁which 9628
▁sehr 9599
▁here 9456
▁would 9420
▁us 9383
▁ver 9350
▁really 9292
▁hier 9215
b 9147
▁get 9124
h 9035
▁vor 8826
▁gibt 8805
▁world 8795
▁then 8787
f 8666
▁nach 8644
▁time 8635
▁ge 8576
▁some 8528
▁sein 8528
i 8485
▁has 8437
▁dann 8380
▁etwas 8144
ten 8091
▁don 8088
▁– 8026
laughter 8016
z 7946
▁noch 7933
" 7784
▁mir 7783
▁into 7752
w 7670
▁Welt 7606
▁Er 7594
▁re 7581
▁actually 7535
▁go 7526
▁where 7519
▁way 7517
▁sehen 7482
▁habe 7470
▁bei 7431
▁no 7407
▁dieser 7315
▁want 7282
▁things 7264
▁years 7264
▁mehr 7231
▁am 7109
▁other 7098
ü 7087
▁could 6995
an 6890
▁Wenn 6888
▁durch 6837
; 6824
▁she 6804
▁been 6771
▁s 6738
▁In 6680
▁make 6657
▁right 6634
▁alle 6625
le 6599
il 6550
ur 6540
it 6482
ig 6398
l 6268
▁well 6262
▁wurde 6249
or 6248
u 6235
be 6189
sch 6174
▁over 6168
▁first 6096
▁said 6057
ge 6054
▁two 6041
ter 6034
▁something 6031
▁those 6002
▁Ihnen 5885
▁zum 5813
▁than 5801
▁da 5790
▁meine 5745
▁immer 5726
▁wo 5688
▁Zeit 5678
▁machen 5666
▁much 5659
de 5628
▁wirklich 5627
▁new 5616
p 5598
ic 5530
▁her 5503
▁weil 5488
▁tun 5463
▁back 5461
ation 5420
ieren 5403
▁unsere 5402
▁look 5400
▁viel 5398
▁even 5394
▁little 5345
▁got 5271
▁thing 5267
▁hatte 5218
▁most 5214
▁life 5205
▁work 5192
▁his 5183
▁Be 5069
▁keine 5066
o 5062
▁only 5022
▁say 5013
a 5012
▁un 4991
ro 4936
ar 4935
▁many 4896
▁ihre 4896
▁need 4879
li 4859
▁Also 4840
▁dieses 4825
ul 4802
▁S 4795
▁zwei 4784
den 4760
▁B 4749
▁take 4746
▁viele 4738
et 4720
▁A 4695
▁müssen 4693
▁Leute 4685
ch 4679
▁Ein 4669
▁bin 4647
▁Leben 4638
ö 4617
▁du 4592
▁einfach 4591
▁ab 4580
▁waren 4539
▁wissen 4530
▁kind 4522
th 4518
▁did 4488
▁good 4485
▁lot 4459
▁Dinge 4453
▁Was 4440
▁diesem 4412
▁sagte 4390
▁E 4376
▁andere 4345
▁Jahren 4340
▁every 4338
▁sagen 4334
us 4308
▁around 4304
▁diesen 4282
ri 4280
▁let 4270
is 4226
▁different 4214
▁K 4205
▁- 4200
▁eines 4181
der 4157
▁down 4145
▁why 4128
Lachen 4123
▁T 4107
▁Ver 4087
▁anderen 4085
ver 4063
▁Art 4055
▁würde 4034
▁ihr 4031
el 4015
ern 4015
?" 3989
▁through 3988
S 3970
▁jetzt 3968
mp 3959
▁selbst 3943
▁zur 3942
ist 3941
ive 3940
▁come 3914
▁use 3910
ion 3908
▁same 3900
ra 3899
la 3894
ers 3893
▁alles 3874
ne 3824
▁Der 3791
▁An 3766
▁being 3750
Gelächter 3749
gen 3739
sten 3727
▁bis 3724
▁day 3691
▁de 3679
▁damit 3674
applause 3667
ut 3662
▁put 3649
im 3643
ie 3632
▁three 3628
▁10 3622
▁wieder 3583
▁geht 3581
▁muss 3575
▁Diese 3571
▁Jahre 3568
iert 3552
on 3548
▁Wie 3533
▁doing 3528
▁So 3526
▁ob 3516
▁Man 3500
▁seine 3496
▁mein 3486
ia 3481
! 3472
▁fact 3470
▁unter 3468
at 3456
to 3435
▁♫ 3427
▁gut 3400
▁co 3396
ol 3365
▁e 3354
lich 3351
▁any 3337
▁zurück 3330
▁k 3323
▁human 3318
▁20 3315
ma 3282
zu 3280
ste 3269
▁pro 3263
▁denn 3257
ity 3254
ce 3241
Applaus 3230
▁after 3229
▁schon 3229
▁called 3224
▁Kinder 3223
ate 3222
▁Sch 3221
," 3204
▁percent 3187
▁today 3172
▁Vor 3167
▁made 3152
ha 3151
igen 3148
ment 3128
▁find 3127
▁own 3121
▁ihnen 3121
▁möchte 3116
▁tell 3111
▁should 3086
▁c 3084
▁great 3078
▁vielleicht 3069
ta 3060
▁talk 3054
able 3048
me 3043
▁sch 3040
▁Da 3032
▁part 2993
▁drei 2991
▁weiter 2983
▁year 2950
▁didn 2938
▁zusammen 2932
▁end 2922
▁change 2915
the 2901
▁einige 2901
▁hatten 2900
▁Re 2897
▁last 2889
▁thought 2883
▁real 2883
▁thank 2881
▁davon 2866
▁genau 2848
▁idea 2842
ant 2830
ische 2829
▁heute 2808
A 2807
as 2804
▁ganz 2801
▁another 2791
▁started 2789
▁big 2775
▁Geschichte 2773
▁before 2772
ungen 2766
▁never 2762
▁meiner 2760
id 2738
▁ihn 2734
▁Problem 2725
▁Jahr 2725
▁start 2720
▁still 2719
un 2713
▁' 2711
um 2709
▁könnte 2699
▁Hier 2699
x 2680
▁might 2667
▁Ge 2663
▁give 2658
▁better 2631
em 2631
and 2630
▁Ihre 2626
▁went 2625
▁weiß 2622
ischen 2616
▁wollen 2615
▁dort 2614
▁off 2605
▁sondern 2601
▁Als 2599
▁con 2598
▁wurden 2589
▁bit 2585
▁problem 2582
min 2573
▁Nun 2573
ft 2572
▁important 2569
▁able 2561
pf 2560
▁Le 2550
ster 2546
we 2541
▁darüber 2541
▁long 2529
▁unserer 2526
▁gehen 2520
▁course 2515
ein 2514
▁together 2510
ab 2510
▁paar 2508
lt 2506
chen 2505
▁each 2503
▁story 2496
▁nun 2486
▁hin 2486
nen 2483
▁Arbeit 2483
ir 2482
▁came 2480
▁P 2477
▁again 2476
▁few 2474
ad 2470
▁werde 2466
▁next 2459
▁C 2451
her 2450
▁place 2448
ler 2446
▁water 2444
▁19 2442
▁him 2441
▁ja 2441
▁system 2439
▁does 2439
und 2437
▁love 2436
ber 2436
▁brain 2429
▁gab 2418
▁st 2416
▁show 2406
▁Aus 2406
▁ent 2395
▁wäre 2395
▁Beispiel 2395
▁Teil 2389
▁ago 2387
▁tatsächlich 2386
▁call 2379
2 2376
▁neue 2375
v 2368
tra 2366
men 2365
ian 2364
▁Ab 2359
▁found 2357
B 2347
▁too 2343
▁mal 2341
▁car 2292
▁women 2289
if 2287
▁feel 2285
▁Wasser 2285
▁sogar 2280
▁help 2274
▁vom 2273
po 2268
▁denken 2266
▁finden 2259
go 2257
di 2256
est 2251
ci 2251
zen 2247
▁dazu 2247
▁St 2244
▁point 2239
lo 2238
▁kommen 2235
fe 2232
▁Frauen 2232
▁live 2230
▁used 2229
he 2227
▁kein 2226
kt 2223
▁Tag 2216
▁erste 2212
isch 2206
mo 2205
mal 2204
▁denen 2202
▁between 2198
▁question 2194
dem 2194
▁nie 2187
▁Auf 2185
ien 2182
▁maybe 2180
ke 2176
▁home 2175
▁denke 2171
▁technology 2170
▁30 2170
▁mean 2167
▁Mal 2164
▁Land 2154
▁ohne 2148
▁Frage 2144
▁zwischen 2135
▁gerade 2132
▁einmal 2131
ff 2130
son 2129
▁macht 2122
ag 2119
▁heraus 2119
▁unser 2114
▁50 2112
ck 2102
▁Im 2102
ze 2100
▁may 2099
▁data 2094
▁understand 2089
ige 2089
▁example 2080
▁f 2080
▁looking 2079
▁konnte 2076
▁geben 2074
ru 2069
▁ihren 2067
▁school 2066
▁nichts 2053
▁space 2051
iv 2047
▁W 2047
lu 2046
▁gemacht 2046
▁M 2040
ik 2036
no 2036
D 2036
▁würden 2032
▁ca 2026
är 2023
man 2022
▁Z 2022
▁jeder 2021
ness 2020
▁light 2020
▁doesn 2020
▁per 2020
▁done 2015
▁wanted 2014
ies 2009
▁design 2009
▁kommt 2003
▁Gehirn 2003
▁b 2001
▁ersten 1995
co 1993
▁ever 1993
▁zeigen 1992
▁leben 1991
▁believe 1990
▁besser 1988
▁glaube 1988
ner 1983
▁O 1982
▁children 1981
age 1981
T 1980
▁Daten 1979
bar 1976
land 1976
▁dafür 1973
ho 1971
▁daran 1966
▁four 1965
hr 1965
▁create 1965
▁Dies 1965
heit 1963
▁play 1961
▁person 1960
ry 1959
▁verstehen 1955
bi 1954
am 1953
▁je 1951
ren 1944
▁passiert 1943
▁meisten 1943
▁Lebens 1942
▁whole 1935
▁Grund 1934
▁always 1933
▁100 1932
per 1931
▁Eine 1928
ben 1926
▁working 1923
ton 1920
▁z 1917
▁fast 1917
▁second 1914
▁sieht 1913
▁sort 1910
▁high 1907
M 1906
▁le 1903
▁während 1903
▁ganze 1895
▁trying 1883
▁country 1882
P 1880
▁away 1874
ier 1874
▁Geld 1873
▁Weg 1872
▁million 1868
na 1867
▁etwa 1865
ert 1863
ip 1862
▁Ha 1861
▁moment 1860
▁wichtig 1858
▁Millionen 1854
▁power 1851
▁sollte 1850
▁meinen 1850
▁meinem 1849
▁best 1848
▁Bild 1848
▁form 1847
▁cr 1844
▁sollten 1843
pi 1842
▁everything 1838
so 1837
▁try 1833
op 1832
▁warum 1827
ex 1821
liche 1815
▁five 1813
up 1808
▁Prozent 1806
▁wollte 1802
▁natürlich 1802
zeit 1801
▁Ma 1796
▁könnten 1795
tion 1794
os 1793
▁lassen 1793
▁Idee 1792
iz 1787
▁15 1783
▁große 1781
▁number 1779
▁old 1778
▁using 1777
hi 1776
bo 1768
▁ihrer 1766
K 1763
▁kids 1762
▁letzten 1752
sp 1751
ling 1751
▁ex 1750
pe 1744
▁information 1740
▁ging 1738
▁3 1736
tic 1736
▁Raum 1734
▁means 1733
ub 1730
1 1729
ger 1728
▁small 1726
▁welche 1726
▁mo 1724
▁times 1724
▁thinking 1723
va 1720
8 1716
ating 1716
▁t 1716
▁sicher 1714
▁u 1711
ance 1709
] 1708
▁hard 1706
▁kam 1703
▁social 1700
▁dis 1699
▁money 1697
▁Um 1695
▁sense 1694
▁took 1693
▁sprechen 1693
▁Ende 1688
▁arbeiten 1686
▁r 1683
▁dabei 1683
▁m 1681
los 1680
▁under 1679
▁sp 1677
5 1676
▁bo 1671
▁half 1670
▁bedeutet 1663
end 1661
". 1659
▁future 1657
▁left 1656
▁such 1656
ken 1652
▁br 1650
▁ziemlich 1650
▁Un 1649
▁Ja 1649
ator 1646
▁Sp 1641
3 1639
▁Ka 1639
do 1638
▁Körper 1637
▁unseren 1636
▁become 1632
▁hand 1631
▁bring 1631
▁di 1630
▁gr 1624
zi 1622
vi 1618
▁F 1618
ine 1617
▁Mit 1616
▁ra 1615
▁ask 1615
F 1615
▁ma 1613
4 1613
▁sagt 1613
▁men 1611
▁enough 1609
form 1609
▁weniger 1607
▁getting 1606
▁bekommen 1606
7 1605
▁food 1604
▁darauf 1601
▁vier 1599
C 1594
au 1592
ty 1586
äh 1584
▁dr 1583
aus 1583
▁wenig 1583
▁head 1580
gel 1575
▁less 1570
▁pre 1570
mit 1566
▁Pro 1566
▁Zu 1564
▁global 1558
▁probably 1553
▁dachte 1552
▁interesting 1549
▁Computer 1548
ard 1547
▁Mann 1547
E 1547
▁doch 1546
ated 1543
▁quite 1542
▁eigentlich 1542
▁comes 1541
▁side 1539
pro 1539
▁Dann 1537
▁without 1536
ng 1534
▁lives 1531
ör 1526
▁Dank 1524
▁imagine 1523
▁Mo 1523
lei 1520
▁I 1520
▁Ko 1518
▁[ 1515
▁nehmen 1514
▁energy 1513
▁city 1510
▁planet 1509
▁brauchen 1508
ting 1506
▁simple 1505
▁richtig 1501
▁science 1496
G 1496
% 1495
cht 1495
▁talking 1492
▁kleinen 1490
▁move 1489
▁body 1488
▁happened 1485
6 1480
▁health 1477
ot 1477
ür 1475
▁making 1474
lichen 1474
▁young 1472
▁room 1472
▁Fall 1472
▁N 1469
Ich 1469
▁told 1463
hen 1463
▁face 1462
ko 1457
▁Energie 1457
art 1456
▁He 1455
ekt 1453
▁pretty 1452
▁Technologie 1450
▁Dollar 1450
▁process 1444
", 1443
▁jeden 1443
less 1442
gehen 1442
▁earth 1439
▁open 1437
▁gegen 1436
▁se 1435
▁matter 1435
stand 1434
▁bringen 1431
▁build 1429
I 1429
▁stuff 1424
▁else 1423
▁anything 1422
ium 1422
▁Sache 1422
▁art 1421
▁bad 1420
▁jemand 1419
▁Ihr 1417
▁ihm 1417
▁Moment 1416
▁across 1414
▁keep 1414
▁care 1414
W 1414
▁remember 1413
▁building 1413
ial 1412
ted 1410
▁kleine 1410
▁schnell 1409
▁Zukunft 1409
tri 1408
▁40 1408
▁set 1408
R 1406
▁far 1405
ary 1405
all 1404
▁Stadt 1404
▁hätte 1402
▁Person 1399
▁while 1397
ick 1396
ca 1394
▁coming 1394
ah 1394
▁großen 1393
▁ba 1391
ous 1390
▁Bei 1388
ap 1387
▁funktioniert 1386
▁gesehen 1384
▁family 1383
▁Wo 1383
▁project 1382
ach 1380
▁Kind 1380
▁once 1377
▁reason 1377
▁Frau 1377
.000 1376
▁Denn 1373
0 1372
▁möglich 1372
ure 1370
du 1370
▁vi 1367
▁p 1367
▁Menge 1365
hal 1362
H 1362
▁2 1360
▁having 1358
▁Weise 1357
pp 1356
▁asked 1355
▁18 1355
▁Erde 1355
▁Al 1354
▁experience 1353
▁later 1350
▁mind 1350
▁la 1349
ence 1348
ring 1347
▁land 1346
▁später 1344
▁billion 1339
▁makes 1339
▁living 1338
▁countries 1336
pl 1336
▁Über 1336
▁keinen 1336
tu 1335
▁hope 1334
▁ways 1332
▁learn 1331
▁ganzen 1331
▁L 1329
▁happen 1327
▁dollars 1325
▁Licht 1325
▁d 1324
ende 1324
que 1323
▁seit 1322
▁Sa 1322
▁Ort 1322
▁yet 1321
▁saw 1321
▁beim 1320
▁ko 1319
sh 1318
▁lang 1317
▁Seite 1313
00 1312
▁both 1311
▁g 1310
▁R 1310
fi 1301
▁w 1300
▁4 1300
▁test 1299
▁stand 1298
▁seen 1298
▁six 1297
▁glauben 1297
▁days 1294
▁Danke 1294
ize 1292
▁po 1292
▁inside 1292
rs 1291
▁says 1291
▁almost 1291
▁gesagt 1291
▁na 1284
▁sure 1284
ord 1283
▁konnten 1280
kommen 1277
▁single 1275
▁hoch 1275
▁eigenen 1274
▁fünf 1273
▁Hand 1271
9 1270
▁System 1266
▁Di 1266
▁Warum 1266
▁public 1265
▁age 1265
▁weit 1263
▁Auto 1262
▁La 1260
▁answer 1259
▁vielen 1259
▁goes 1258
ism 1258
▁Mutter 1257
▁africa 1255
ka 1255
▁happens 1253
▁often 1253
che 1251
da 1251
▁lernen 1251
▁picture 1250
wa 1250
▁nothing 1249
▁sei 1249
▁read 1247
od 1246
iger 1245
▁ti 1244
ak 1244
▁De 1242
▁Li 1242
▁schwer 1241
▁case 1238
▁versuchen 1238
▁cancer 1235
▁nutzen 1235
auf 1234
acht 1234
▁zeigt 1234
cken 1233
▁Vielen 1233
L 1232
▁stellen 1232
▁helfen 1231
ß 1231
old 1230
▁whether 1229
N 1229
ized 1228
ität 1228
▁someone 1227
vo 1226
▁5 1224
▁Du 1223
▁name 1222
rück 1222
▁okay 1219
▁Co 1219
▁Natur 1219
▁computer 1218
▁„ 1218
eln 1217
▁problems 1216
▁Se 1216
ative 1211
tor 1210
sche 1207
▁Probleme 1207
▁business 1206
▁run 1205
pa 1205
▁sah 1205
▁schaffen 1204
▁control 1202
▁Pa 1200
▁fest 1199
▁Am 1197
▁jedes 1197
▁saying 1196
les 1196
▁gar 1194
▁Nach 1194
ors 1192
sa 1191
nd 1191
con 1188
▁top 1186
▁already 1185
▁research 1185
▁myself 1184
▁basically 1184
▁states 1183
▁gute 1183
▁wrong 1182
▁book 1181
▁video 1180
▁anders 1179
▁12 1178
uch 1178
▁market 1177
▁stop 1177
▁language 1177
▁Ho 1176
cu 1175
▁community 1174
▁lange 1174
▁ok 1173
recht 1173
▁within 1172
▁heißt 1169
ell 1168
▁self 1166
▁allen 1164
▁wahrscheinlich 1164
▁cells 1163
▁amazing 1162
igkeit 1162
▁instead 1161
dy 1161
ron 1159
▁seiner 1159
▁possible 1157
cy 1156
ful 1156
▁unserem 1156
▁Ro 1156
▁heart 1155
▁looked 1154
▁history 1152
ud 1150
▁klar 1150
▁G 1148
ug 1147
▁arm 1146
▁o 1145
▁1 1143
▁child 1143
▁USA 1143
▁D 1141
▁Jetzt 1140
▁ro 1139
,000 1138
▁sometimes 1138
▁mother 1137
▁begann 1134
▁Buch 1134
▁genug 1133
▁neuen 1133
▁Wissen 1130
gt 1129
elle 1128
▁beautiful 1127
sam 1125
▁nächsten 1125
▁Internet 1125
▁ideas 1124
▁words 1123
▁em 1122
▁li 1121
▁erst 1121
▁kennen 1121
lang 1119
keit 1119
▁order 1118
▁Me 1118
▁music 1116
▁Form 1116
▁guy 1115
▁true 1111
schaft 1111
▁night 1110
wand 1108
vers 1107
▁erzählen 1107
O 1107
▁everybody 1105
▁Kon 1105
tz 1104
▁Projekt 1104
▁dich 1103
▁since 1102
red 1101
mon 1097
▁weg 1097
ue 1096
▁house 1095
▁sub 1095
▁ho 1095
▁looks 1094
fen 1094
▁couple 1093
tern 1093
▁until 1091
mi 1091
oc 1090
ich 1090
▁job 1089
▁ange 1089
ib 1088
▁ausge 1085
▁ha 1084
▁bevor 1083
▁large 1082
▁qu 1082
bu 1080
ucht 1080
▁al 1078
▁Mädchen 1078
ja 1076
▁jede 1076
▁gleich 1075
des 1074
▁months 1074
▁heard 1073
ierung 1072
▁Nicht 1071
▁entwickelt 1070
ierte 1070
▁Musik 1070
▁stories 1069
io 1068
▁herum 1067
com 1066
▁Für 1064
▁New 1063
lä 1063
▁wasn 1061
▁alt 1060
▁group 1059
▁el 1059
▁free 1059
▁liegt 1057
▁woman 1056
▁ted 1055
well 1055
bel 1055
▁species 1054
▁education 1053
app 1053
▁Geschichten 1052
ba 1050
len 1048
▁line 1045
▁bauen 1045
▁nature 1044
▁wahr 1044
▁Planeten 1043
▁verändern 1043
▁government 1042
▁isn 1040
▁Augen 1038
▁united 1037
▁learned 1036
line 1035
▁close 1033
▁gehört 1033
▁Punkt 1032
▁fish 1031
▁braucht 1030
▁personal 1029
▁turn 1029
▁Meine 1029
ging 1028
▁step 1027
hin 1027
▁musste 1027
▁Informationen 1026
▁seinen 1026
▁Schule 1025
▁ocean 1024
▁middle 1023
▁air 1023
▁built 1023
▁past 1023
▁Kunst 1023
way 1021
ang 1021
ish 1021
port 1021
▁must 1019
▁Angst 1017
▁Selbst 1016
▁Ideen 1015
▁front 1014
▁normal 1014
legen 1013
▁Fragen 1013
▁tra 1012
▁60 1012
▁environment 1010
▁Familie 1010
▁Fa 1010
▁knew 1008
▁Leuten 1008
▁places 1007
ations 1006
▁works 1006
net 1005
▁friends 1004
▁Ta 1004
▁ungefähr 1004
log 1003
▁study 1003
▁lo 1003
▁Afrika 1003
▁Männer 1003
▁letzte 1003
▁god 1001
▁Kopf 1001
▁Ent 1000
▁stehen 999
▁Unternehmen 998
▁though 997
▁decided 997
▁verschiedene 996
▁menschliche 994
▁sta 993
▁25 992
▁Fr 992
▁share 991
▁verändert 990
nder 989
▁word 988
▁exactly 988
▁sagten 987
▁V 985
▁everyone 984
▁♪ 984
oh 983
▁Mein 982
▁Antwort 981
▁Haus 980
▁internet 979
▁view 979
▁schwierig 979
▁Arten 979
▁ourselves 978
▁black 978
halten 976
▁piece 975
▁überall 975
▁ihrem 975
▁cool 973
▁Krieg 973
▁J 972
▁model 971
▁universe 971
chte 971
▁fragen 970
▁somebody 969
▁Fl 969
▁company 968
tes 967
ran 967
▁si 967
ga 967
▁kurz 967
ally 966
▁america 963
▁ga 962
▁Weil 962
▁Video 962
▁nennen 962
▁erkennen 960
▁darum 960
▁11 959
nde 958
geben 958
▁completely 957
ett 956
▁state 955
▁society 955
▁became 955
▁Eltern 955
▁culture 954
▁animals 953
▁fl 952
▁hear 951
▁sound 951
org 951
▁wer 951
▁Design 951
ide 950
▁leave 950
▁bereits 950
▁turns 949
▁economic 949
▁taking 949
▁Gesellschaft 949
ual 947
▁huge 947
▁Milliarden 946
▁against 945
om 945
schen 945
▁schön 945
▁act 944
▁Unter 944
▁figure 943
▁questions 943
lin 943
hol 943
▁Wissenschaft 943
▁80 942
ku 939
▁bisschen 939
ere 937
▁neu 936
▁Ra 936
▁einzige 935
▁team 934
▁Bo 934
▁Dieses 934
▁ju 933
ite 933
fall 933
▁anderes 933
▁Gefühl 933
▁hours 932
▁rather 931
▁national 931
▁besonders 931
▁Vielleicht 930
wer 929
▁send 927
ac 927
▁gets 926
▁fa 926
▁reden 926
▁Doch 926
ious 925
▁halten 925
▁risk 924
▁sc 923
lan 922
ical 920
▁news 918
▁walk 918
▁machte 918
▁Regierung 918
▁others 917
▁themselves 916
▁third 916
rie 916
▁aller 916
▁digital 915
▁ta 914
▁sea 912
▁6 912
▁soll 911
▁phone 910
▁itself 910
▁along 909
▁yes 908
▁kinds 908
▁behavior 908
▁Sta 908
▁rest 907
lf 907
▁happening 906
▁dir 906
▁erreichen 904
▁Lo 902
▁Minuten 901
igung 900
▁bar 899
▁disease 899
▁weitere 899
▁minutes 898
▁hätten 898
▁cell 897
met 897
▁unglaublich 897
▁Spiel 896
▁Krebs 896
▁couldn 895
▁learning 895
fa 895
ities 893
▁Bu 893
▁students 892
▁7 892
▁Gebäude 891
▁namens 890
ain 889
▁met 888
teil 886
▁exist 884
▁created 884
▁Ba 883
▁difficult 882
▁Gruppe 882
act 881
▁hören 881
▁mag 880
during 879
▁super 879
bt 879
▁’ 879
ort 878
▁los 878
▁steht 877
tell 876
▁map 875
bei 875
ise 874
▁worked 873
▁recht 873
▁Film 873
▁nächste 873
ral 872
▁ne 872
▁perhaps 872
▁seven 871
▁Oder 871
▁level 870
▁ones 869
▁color 869
▁200 869
▁Macht 869
▁jedem 869
▁hinter 868
▁thousands 867
▁euch 867
▁darin 867
▁Na 866
▁U 865
ismus 865
▁comp 864
▁india 864
▁outside 864
▁TED 864
▁red 862
▁early 862
▁Vater 862
▁Entwicklung 861
▁ändern 861
▁international 860
▁spielen 860
bra 859
▁Gott 859
xi 858
rei 858
▁Patienten 858
▁machine 857
▁game 855
bild 855
▁Hause 855
▁sechs 855
▁population 854
▁image 854
▁Bilder 854
nehmen 854
▁least 853
▁Kultur 853
bl 852
weg 852
▁Ziel 852
ile 851
▁experiment 851
ale 851
isten 851
lichkeit 851
▁inter 850
▁versch 850
▁Universum 850
▁Herz 849
▁gerne 849
“ 847
▁Verhalten 847
▁pay 846
▁won 846
▁Glück 846
▁short 845
kon 845
▁behind 844
▁Stunden 843
▁structure 842
▁entire 841
▁manchmal 841
▁buy 839
▁poor 838
▁sun 838
▁Stück 838
spiel 837
ep 836
▁app 836
▁mu 836
▁benutzen 836
▁full 835
▁death 835
▁frei 834
▁Luft 834
▁field 833
pri 833
▁fear 833
▁cost 832
▁finally 832
▁bekannt 832
▁voice 830
tzt 830
▁gesamte 830
▁Wort 829
▁york 828
▁90 828
▁common 827
hl 826
▁center 825
▁Indien 825
▁gave 824
▁oben 823
▁spend 822
▁natural 822
▁wohl 822
▁cl 821
▁vorstellen 821
▁local 820
▁deine 820
▁friend 819
▁non 819
tik 818
▁grow 817
ble 817
▁kon 817
▁plan 815
▁Bewegung 815
▁8 814
▁particular 814
war 814
▁amount 813
side 813
▁pl 813
▁entwickeln 813
▁support 812
▁happy 811
▁yeah 811
bau 811
▁wollten 811
▁lots 810
▁begin 810
▁erhalten 810
▁Liebe 810
ric 808
▁besten 808
▁china 807
king 807
elt 807
▁paper 806
▁changed 806
ose 806
sel 806
▁York 806
ack 805
▁beiden 805
▁einigen 805
reich 805
▁führen 804
▁feeling 803
▁falsch 802
use 800
▁american 800
▁systems 800
tel 800
▁anzu 800
▁record 799
▁bereit 799
▁deal 798
▁given 798
tag 798
▁14 796
par 796
▁Roboter 795
▁Ga 795
yn 794
▁Dr 794
▁began 793
▁fe 793
▁program 793
ding 792
▁fand 792
▁verschiedenen 792
▁Recht 792
▁China 792
▁guys 791
▁online 791
▁Möglichkeit 791
▁film 790
ward 790
▁interessant 790
▁week 789
▁scale 788
ok 788
top 788
▁Kindern 788
▁media 785
▁taken 785
▁easy 784
▁eight 784
▁felt 782
▁wall 782
▁needs 781
▁Sprache 781
▁yourself 780
▁groß 779
werk 779
lic 778
▁16 778
▁Gr 777
qui 776
sicht 776
▁irgendwie 776
▁niemand 776
nis 775
▁direkt 775
▁takes 774
▁parents 774
▁green 773
▁post 773
▁oh 773
nden 773
▁wegen 772
gang 772
▁sage 771
▁bewegen 771
▁Rück 770
▁9 769
by 769
▁hands 769
V 769
▁shape 768
enden 768
▁Do 768
for 767
▁Wer 767
tlich 766
▁op 765
enz 765
mmer 764
what 763
▁Ne 762
▁realized 761
▁reality 761
leg 761
▁Bereich 761
▁Prozess 761
▁difference 760
rat 760
▁political 759
▁companies 759
▁rate 759
sehen 759
▁cities 758
▁modern 758
▁lu 758
nte 757
U 757
▁vorher 757
▁key 756
▁seeing 756
▁getan 756
▁eyes 755
▁powerful 755
icht 755
▁Lass 755
▁cut 754
hu 753
j 753
vor 753
dig 752
cher 752
treten 752
▁wusste 752
▁certain 751
rate 750
▁abge 750
▁führt 750
▁area 749
▁century 749
▁th 748
▁blue 748
▁beginning 748
▁reach 747
schau 747
▁Herausforderung 747
▁stay 746
▁needed 746
▁fühlen 746
▁kid 745
ons 745
▁che 745
▁Wahl 745
▁Anfang 745
▁glücklich 743
▁Ar 743
▁drive 742
▁weltweit 742
einander 742
▁su 741
▁photograph 741
▁turned 740
year 740
kl 740
▁Je 740
▁eher 740
▁Mensch 739
▁Lehrer 738
▁nämlich 737
▁Erfahrung 736
ny 735
rin 735
▁mar 735
▁moving 734
▁explain 734
▁unterschiedlich 734
▁oil 733
▁simply 733
ow 733
▁white 732
▁size 732
▁Stellen 732
▁ten 731
▁san 731
ions 731
▁audience 730
ker 730
▁Freunde 730
▁beginnen 729
▁treffen 729
▁Schritt 729
▁low 728
▁eigene 728
▁sign 727
rus 727
dr 727
ob 727
▁wonderful 726
you 726
▁father 726
▁Sinn 726
▁H 726
▁solche 725
▁fo 723
▁überhaupt 722
▁whatever 721
▁menschlichen 721
▁longer 720
▁l 720
▁h 720
▁Arbeits 720
ana 718
▁Mittel 718
▁meines 717
▁cannot 716
▁special 716
ef 716
▁hit 716
▁schauen 716
▁jene 716
ration 715
▁70 715
bb 715
ock 714
▁y 712
qua 712
▁win 712
▁17 712
lk 711
▁tut 711
▁Tiere 711
▁Gemeinschaft 711
ris 709
▁kamen 709
▁Lage 709
zahl 709
▁/ 708
▁south 708
▁allem 708
▁positive 707
▁blood 707
▁zwar 707
▁Wochen 707
▁gleichen 707
▁represent 706
mittel 706
▁Wissenschaftler 706
▁fi 705
plan 705
▁challenge 704
ept 704
ete 704
unk 703
▁verwenden 703
wert 703
▁solve 701
▁deep 701
▁parts 701
▁offen 701
▁Sachen 701
▁Technik 701
▁measure 700
▁break 700
▁eat 699
▁pe 699
▁bl 699
ei 699
▁stark 699
▁Umwelt 699
▁Tages 699
ization 698
▁generation 698
▁tief 698
lock 697
hm 697
▁Zum 697
▁terms 696
▁humans 696
ziehen 696
nom 695
chten 695
▁Nacht 695
▁versucht 695
▁innerhalb 695
ierten 695
▁speak 694
▁völlig 694
▁bio 693
▁ground 693
▁mi 693
ellen 693
▁Team 693
▁bekam 691
▁Erfolg 691
▁Hilfe 691
▁sw 690
leb 690
wi 690
▁fragte 690
▁value 689
ther 689
▁dark 689
▁nu 688
stein 688
▁Vi 688
▁te 687
ped 687
▁revolution 687
▁fun 685
▁movement 685
▁mussten 683
▁present 682
uck 682
▁fr 682
▁surface 681
▁Bildung 680
▁jedoch 680
▁girl 679
▁Länder 679
▁Alter 679
▁interested 678
▁class 678
▁Viele 677
▁schlecht 677
▁Tage 676
▁tried 675
aff 675
▁Po 675
▁Ca 675
▁office 674
▁ka 674
▁park 673
▁protect 671
sse 671
▁Gedanken 671
▁Schw 671
▁gone 670
▁vo 670
cent 670
▁stage 669
▁Essen 669
stellen 669
▁Haupt 669
▁soziale 669
▁travel 668
▁patients 668
▁quickly 667
▁Arm 667
▁Denken 667
ists 666
▁Blut 666
▁ability 665
▁13 665
atur 665
▁All 665
▁Möglichkeiten 664
▁climate 663
▁lost 663
▁either 663
ular 663
haft 662
▁kleiner 662
trieb 662
▁known 661
▁gu 661
▁Sicherheit 661
Ge 661
▁spent 660
▁Okay 660
▁benutzt 660
▁lead 659
ay 659
▁complex 659
▁Vorstellung 659
▁star 658
▁Ä 658
ov 657
ek 657
▁rein 657
rank 657
▁Job 657
▁Eis 656
▁write 655
▁va 655
▁zweite 655
▁allow 653
▁genauso 653
ible 652
▁essen 652
▁Versuch 652
▁To 652
stoff 652
▁damals 652
▁Dingen 652
▁Familien 650
▁schrieb 650
▁Grunde 650
▁weeks 649
oren 649
fang 649
▁Thema 649
fin 648
▁result 648
upp 648
ome 648
▁Bi 648
▁leicht 648
▁hol 647
▁box 647
▁pi 647
▁Boden 647
▁fire 646
▁strong 646
▁hu 646
▁sl 646
▁lösen 646
▁message 645
▁born 645
▁bleiben 645
▁Unterschied 645
▁shows 644
▁dna 644
▁north 644
kraft 644
Das 644
▁situation 643
eck 643
pol 643
▁21 643
▁ve 643
▁bed 643
▁sitting 643
▁wären 643
▁El 643
▁approach 642
▁Wert 642
one 641
voll 641
▁Pe 641
▁Gen 641
▁obwohl 641
▁opportunity 640
▁pick 640
▁access 640
▁hold 640
▁individual 640
▁ice 640
▁Bio 640
▁based 639
▁wouldn 639
▁worden 638
▁Generation 638
▁morning 637
tische 637
▁Namen 637
▁clear 636
ni 636
▁zer 636
▁suchen 636
▁Zellen 636
▁produce 635
▁character 635
ping 635
▁Lösung 635
▁Unsere 635
!" 634
▁rich 634
▁focus 633
▁mass 633
▁law 633
ika 633
▁anderer 633
▁ni 632
▁increase 632
▁scientists 632
punkt 632
▁growth 631
▁main 631
▁größte 631
▁bringt 630
▁schreiben 630
▁realize 629
▁Reise 629
▁sollen 629
▁gleiche 629
ability 628
▁Woche 628
▁Situation 628
isiert 628
▁lab 627
ments 627
▁books 627
▁sal 627
▁gl 627
▁Ozean 627
▁j 626
▁spa 626
ischer 626
▁Meinung 626
▁pa 625
bare 625
▁unseres 625
▁connect 624
▁bitte 624
▁hi 624
▁gemeinsam 624
▁continue 623
ition 623
▁las 623
sie 623
▁Gesicht 623
▁Richtung 623
▁watch 622
▁Monate 622
▁incredible 621
cr 621
fo 621
▁growing 620
▁Jahrhundert 620
▁ph 619
▁street 619
▁nice 618
▁provide 618
▁emotional 618
▁Bau 618
▁path 617
führen 617
gestellt 617
▁n 616
▁Publikum 616
erung 616
▁impact 615
▁attention 615
oo 615
greifen 615
▁entfernt 615
▁anyone 614
▁Nein 614
▁Wirtschaft 614
▁Amerika 614
▁Wahrheit 614
▁Tier 614
▁average 613
▁sex 613
rang 613
▁Gra 613
▁changes 612
▁literally 612
▁miss 612
▁seem 612
tung 612
▁fall 611
pass 611
▁Gesundheit 611
raum 611
▁visual 610
▁sing 610
▁Zwei 610
vis 609
▁Rolle 608
▁Alle 607
▁action 606
▁chance 606
ries 606
▁junge 606
▁größten 606
▁teilen 606
▁komplett 606
▁Foto 606
▁economy 605
van 605
lö 605
▁betrachten 605
▁lässt 605
▁wi 604
▁cha 604
wo 604
▁numbers 603
▁unten 603
▁Information 603
▁bewusst 603
▁girls 602
▁region 602
▁bottom 602
grün 602
ühl 602
▁nahm 601
▁CA 601
▁Ri 601
▁feet 600
ged 600
sta 600
▁statt 600
▁funktionieren 600
▁train 599
day 599
▁Ex 599
▁Markt 599
▁auszu 599
▁Programm 599
time 598
▁gene 598
▁alone 598
ins 598
▁animal 598
▁besteht 598
▁Ihren 598
nie 597
▁Autos 597
▁Labor 596
▁dessen 596
▁Gebiet 596
ey 595
▁areas 595
▁giving 595
▁hundreds 594
setzen 594
änge 594
▁Ku 594
▁liebe 593
sum 592
▁soon 591
▁brought 591
▁development 591
▁physical 591
▁wrote 591
▁road 590
af 590
izing 590
▁Heute 590
▁Ist 590
▁late 589
▁truth 589
meter 589
row 589
▁hospital 589
kan 589
▁Jo 589
▁cars 588
▁knowledge 588
▁sprach 588
nung 588
▁seems 587
▁similar 587
gi 587
sprech 587
Was 587
▁gelernt 587
ship 586
▁artist 586
▁camera 586
▁forest 585
▁pass 585
▁Hu 585
▁erinnern 585
▁safe 584
ade 584
mut 584
▁dead 584
▁langsam 584
▁entdeckt 584
▁telling 583
▁forward 583
▁understanding 583
usch 583
▁Fähigkeit 583
▁sterben 583
▁expect 582
▁starting 582
druck 582
▁Freund 582
▁Größe 582
▁function 581
▁trust 581
ograph 581
put 580
▁unbe 580
griff 580
ktion 580
arbeit 580
▁Modell 580
▁beide 579
▁voll 578
▁zuvor 578
▁images 577
▁sit 577
▁Muster 577
▁scheint 577
istic 576
val 576
pen 575
▁innovation 575
▁potential 575
▁jo 575
▁smart 575
▁aufge 575
▁Durch 575
▁material 574
▁conversation 574
fu 574
rich 574
tisch 574
Und 574
▁verbunden 574
▁type 573
▁goal 573
▁block 573
ruf 573
satz 573
▁Staaten 573
▁micro 572
led 572
▁mine 572
▁dream 572
isieren 572
▁einfache 572
▁Neu 572
▁Realität 572
▁erschaffen 572
tten 571
setzt 571
▁Fisch 571
▁network 570
genommen 570
▁Netzwerk 570
▁movie 569
▁absolutely 569
▁fanden 569
▁Ländern 569
▁Tat 569
▁Öl 569
off 568
▁wa 568
▁einge 568
▁erreicht 568
zug 568
Sch 568
▁report 567
▁force 567
del 567
fahren 567
▁verwendet 567
▁Zahl 567
hand 566
spect 566
▁invest 565
▁issue 565
▁millions 565
▁medical 565
eten 565
▁Krankheit 565
▁tools 564
▁recently 564
▁Qu 564
▁gefunden 564
▁lesen 564
▁tend 563
▁24 563
▁stellt 563
▁Tatsache 563
▁genannt 563
▁running 562
▁wild 562
▁developed 561
▁bank 561
car 561
▁"( 561
▁Einige 561
▁worth 560
▁Sehen 560
▁multi 559
▁schließlich 559
▁Umgebung 559
▁sleep 558
lte 558
▁rot 557
▁bessere 557
▁draußen 557
▁relationship 556
eh 556
▁spread 555
▁Kraft 555
ctor 554
▁save 553
▁trans 553
ank 553
▁Reihe 553
▁Jeder 553
▁Groß 553
▁großartig 553
wal 552
▁cat 552
richten 552
tät 552
▁meet 551
rop 551
▁creating 550
▁discovered 550
▁evolution 550
▁fundamental 550
▁spielt 550
▁teach 549
▁choice 549
▁guess 549
▁transform 549
▁eye 549
lage 549
▁plötzlich 549
Die 549
▁Bevölkerung 548
▁teil 548
▁bi 546
▁extra 546
▁among 546
▁dec 546
licht 546
▁kaufen 546
▁hervor 546
▁gewesen 546
▁Medien 546
▁tr 545
ew 545
▁african 545
cke 545
▁cal 544
▁Verbindung 544
▁Gewalt 544
▁Süd 544
▁theory 543
▁länger 543
▁sehe 543
▁miles 542
▁especially 542
▁source 542
gab 542
▁hast 542
▁tat 542
▁Bedeutung 542
▁Natürlich 542
▁baby 541
out 541
▁Test 541
▁recognize 540
ase 540
▁reich 540
fach 540
weisen 540
▁fly 539
chan 539
& 539
▁str 539
gesetzt 539
▁passieren 539
▁Preis 539
▁erklären 539
▁solar 538
▁europe 538
üge 538
zellen 538
▁miteinander 538
▁allein 538
▁listen 537
lon 537
kel 537
▁Konzept 537
▁perfect 536
are 536
▁bat 536
▁blind 536
▁Chris 536
▁aufzu 536
:" 535
▁Tod 535
▁treat 534
▁moral 534
gleich 534
leben 534
ären 534
▁Kl 534
▁kill 533
press 533
essen 533
light 533
ehr 533
▁aussehen 533
▁Mar 533
▁door 532
ice 532
▁asking 532
▁Deshalb 532
▁Fe 532
laden 531
▁fort 531
blick 531
▁Not 531
▁suggest 530
▁anti 530
find 530
▁mache 530
▁gegenüber 530
▁technologies 529
▁page 529
▁gas 529
▁Aufgabe 529
▁Hoffnung 529
▁likely 528
▁touch 528
▁wind 528
▁follow 528
▁hinaus 528
▁sieben 528
▁Bücher 528
▁private 527
▁nobody 527
▁plant 527
ki 527
rig 527
▁web 526
ham 526
viel 526
▁jemals 526
▁Fehler 526
▁sat 525
▁progress 525
▁concept 525
▁site 525
▁500 525
▁hinein 525
▁add 524
▁gives 524
▁total 524
▁mental 524
▁nine 524
ake 524
▁pen 524
lass 524
▁gesch 524
▁Während 524
▁000 523
erweise 523
▁ran 522
▁Genau 522
▁beginnt 522
▁stimmt 522
▁Y 522
▁verloren 522
▁erfolgreich 522
▁carbon 521
test 521
▁require 521
▁showed 521
▁table 521
za 521
▁Stimme 521
▁gebaut 521
▁Ihrer 520
▁Studie 520
▁sounds 519
roll 519
▁raus 519
▁welches 519
▁Alles 519
▁interessiert 519
▁nor 518
▁industry 518
▁clean 517
▁general 517
uit 517
ney 517
lassen 517
▁Meter 517
▁ähnlich 517
▁wonder 516
▁ki 516
▁patient 516
über 516
▁gewisse 516
eckt 516
▁incredibly 515
▁push 515
wir 515
▁sofort 515
▁genetic 514
▁toll 514
▁klein 514
▁hart 514
▁gezeigt 514
▁Platz 514
Wir 514
▁period 513
▁search 513
▁changing 513
bot 513
fallen 513
▁Straßen 513
▁Kan 513
▁major 512
▁tiny 512
▁sha 512
▁designed 511
▁mark 511
▁daraus 511
▁Tatsächlich 511
▁möchten 511
▁haven 510
lose 510
▁zehn 510
▁Anzahl 510
▁Kr 510
▁solution 509
▁english 509
▁deshalb 509
▁nachdem 509
▁Innovation 509
▁War 509
▁success 508
▁issues 508
▁card 508
raten 508
▁acht 508
▁resources 507
▁event 507
▁pack 507
▁traf 507
ziel 507
▁neben 507
▁offer 506
▁Entscheidungen 506
▁Forschung 506
▁stellte 506
▁Hi 506
▁join 505
▁Hälfte 505
▁Städte 505
▁vision 504
▁flu 504
▁consider 503
▁evidence 503
In 503
▁bewegt 503
▁university 502
▁egal 502
▁geworden 502
Beifall 502
weit 502
▁beyond 501
lung 501
▁Fi 501
▁beste 501
▁kleines 500
▁Oberfläche 500
▁village 499
▁sell 499
▁nahe 499
▁Meer 499
▁reasons 498
▁basic 498
▁fix 498
▁secret 498
bringen 498
▁höher 498
▁glaubt 498
▁falls 497
▁extrem 497
▁nimmt 497
right 496
▁interest 496
▁attack 496
▁track 496
▁treatment 496
▁playing 496
system 496
fassen 496
▁danach 496
ind 495
chi 495
than 495
▁auto 495
▁Studenten 495
▁anfangen 495
Z 495
▁tu 494
▁Beziehung 494
stück 494
▁Schul 494
let 493
schlag 493
schrei 493
▁wait 492
▁subject 492
▁collect 492
je 492
▁Technologien 492
▁riesige 492
▁Berg 492
▁slow 491
▁Tu 491
band 490
▁several 490
▁jemanden 490
ned 489
▁fund 489
▁bekommt 489
▁ständig 489
▁available 488
ley 488
▁300 488
▁groups 488
nk 488
▁Wörter 488
▁anybody 487
▁becomes 487
▁role 487
▁list 487
▁screen 487
▁bist 487
arten 487
▁Wei 487
▁Chance 487
▁größer 487
▁lag 486
▁developing 486
ight 486
▁practice 486
▁interact 486
nten 486
▁Universität 486
▁Europa 486
▁Wa 486
▁college 485
▁text 485
▁cap 485
▁Experiment 485
▁Kamera 485
▁writing 484
▁fit 484
▁neuro 484
mark 484
▁Künstler 484
▁Wind 484
▁favorite 483
▁led 483
▁product 483
▁mis 483
▁Ur 483
platz 483
qual 482
▁dog 482
heim 482
▁aktiv 482
mission 481
▁peace 481
▁develop 481
▁aren 481
▁laufen 481
▁Nachrichten 481
▁Interesse 481
▁wichtige 481
▁geboren 481
▁computers 480
▁scientific 480
▁chinese 480
ffer 480
▁nachdenken 480
ssystem 480
▁niemals 480
▁count 479
▁absolut 479
▁guten 479
sagen 479
▁findet 479
▁schneller 479
▁Rest 479
▁einzu 479
▁Nahrung 479
▁towards 478
▁appear 478
machen 478
geht 478
wasser 478
▁sh 477
▁compassion 477
▁verrückt 477
▁Teile 477
▁sent 476
ica 476
▁gingen 476
▁effect 475
asse 475
▁hundred 475
▁mars 475
▁Mars 475
▁lived 474
▁robot 474
mat 474
▁erzählt 474
▁Material 474
▁einzelne 474
▁lieben 474
▁Hund 474
▁fing 474
▁Atom 474
▁cu 473
alen 473
akt 473
▁fahren 472
▁daher 472
▁Vortrag 472
▁komplexe 472
▁farm 471
▁check 471
▁talked 471
▁obviously 471
vin 471
▁putting 471
▁pictures 471
▁object 471
▁boy 471
selben 471
▁agree 470
▁google 470
ology 470
▁please 470
▁para 470
▁wider 470
▁fliegen 470
▁machten 470
▁Produkt 470
▁DNA 470
▁Veränderung 470
▁drug 469
▁rules 469
▁pal 469
▁Gene 469
Ma 469
▁involved 468
low 468
▁store 468
stelle 468
teilen 468
gebracht 468
▁meaning 467
▁wish 467
kal 467
▁Or 467
▁brachte 467
▁Ki 467
▁feed 466
▁near 466
▁stick 466
▁intelligent 466
▁west 466
▁medicine 466
▁massive 466
▁hoffe 466
▁Ru 466
iti 465
▁bigger 465
arm 465
mus 465
▁Mitte 465
▁Oh 465
▁Behandlung 465
lig 464
▁pr 464
ford 464
▁Demokratie 464
denken 464
▁poverty 463
▁fight 463
▁sonst 463
ably 462
▁flow 462
▁predict 462
▁walking 462
▁journey 462
▁alten 462
▁Rat 462
▁speed 461
▁v 461
▁connection 461
▁Park 461
▁fu 460
▁Firma 460
▁Super 460
rain 459
▁standard 459
▁drugs 459
iff 459
▁tri 459
▁schools 459
ball 459
▁Straße 459
▁perspective 458
▁har 458
▁creative 458
▁deliver 458
▁Medizin 458
▁security 457
▁pull 457
▁response 457
kehr 457
▁mögen 457
▁Fo 457
▁Min 457
▁Maschine 457
ulation 456
▁account 456
▁violence 456
med 456
▁wichtiger 456
▁visit 455
berg 455
ssen 455
acy 454
▁ziehen 454
▁month 453
▁notice 453
▁x 453
▁sold 453
haus 453
▁neues 453
▁Jahrzehnt 453
stehen 453
▁Struktur 453
▁Zahlen 453
▁eventually 452
▁indeed 452
▁Armut 452
▁Nur 452
▁finding 451
▁verb 451
erin 451
isierung 451
▁Zusammen 451
▁offensichtlich 451
ationen 451
▁chris 450
▁pan 450
ina 450
▁suddenly 449
▁schw 449
▁Papier 449
▁Strom 449
▁erlaubt 449
▁Fortschritt 449
▁Wachstum 449
▁particularly 448
▁certainly 448
▁hell 448
▁lose 448
▁moved 448
▁früher 448
▁Ju 448
▁sozialen 448
▁Blick 448
but 447
▁achieve 447
eb 447
▁setzt 447
▁US 447
▁mehrere 447
▁Gruppen 447
part 446
▁urban 446
q 446
▁Von 446
innen 446
▁hot 445
▁position 445
▁code 445
▁links 445
▁further 445
▁mountain 445
▁zeige 445
J 445
mate 444
▁benefit 444
of 444
▁successful 444
▁price 443
▁draw 443
▁sa 443
▁manche 443
▁gegeben 443
▁east 442
ory 442
▁ball 442
▁hielt 442
wende 442
folge 442
▁print 441
▁ready 441
▁rock 441
las 441
▁Auch 441
▁Daher 441
typ 440
▁nuclear 440
üsse 440
uß 440
▁throw 439
▁student 439
lly 439
kam 439
Be 439
▁Entscheidung 439
▁näher 439
how 438
▁device 438
▁mom 438
▁organization 438
▁skin 438
räum 438
ände 438
▁Sonne 438
▁biggest 437
▁depend 437
▁hole 437
▁Kosten 437
▁Orte 437
▁Schauen 437
▁abzu 437
▁lernte 437
▁roll 436
ju 436
dimensional 436
▁Studien 436
▁Mathematik 436
▁breath 435
▁detail 435
▁genommen 435
▁dachten 435
▁Bar 435
▁herauszufinden 435
▁liegen 435
seite 435
▁nennt 435
▁Theorie 435
▁threat 434
ession 434
▁magic 434
▁gold 434
▁For 434
fälle 434
▁Schüler 434
hören 434
stände 434
▁Pi 434
▁Ergebnis 434
▁cross 433
▁ch 433
▁interessante 433
▁Sy 433
▁Revolution 433
▁democracy 432
▁minds 432
▁wave 432
▁Staat 432
▁setzen 432
▁discover 431
arch 431
▁blau 431
▁Worte 431
▁Zugang 431
▁software 430
bit 430
▁memory 430
▁Plan 430
▁tragen 430
▁Sex 430
▁Karte 430
▁showing 429
▁bur 429
die 429
▁anstatt 429
zeichnet 429
▁Wand 429
▁link 428
▁accept 428
▁rede 428
▁Fähigkeiten 428
▁sky 427
▁jobs 427
▁1. 427
bert 427
▁brains 427
▁cover 427
▁hundert 427
▁Druck 427
▁verbessern 427
▁sahen 427
▁supposed 426
bin 426
▁choose 426
▁everywhere 426
ified 426
▁außer 426
▁Menschheit 426
brechen 426
▁Uhr 426
▁Gi 426
▁Reaktion 426
get 425
▁square 425
▁gross 425
▁bald 425
▁Geschäfts 425
▁älter 425
▁doctor 424
▁alte 424
▁Google 424
▁gleichzeitig 424
▁enter 423
bor 423
▁higher 423
ari 423
▁police 423
▁inner 423
bald 423
▁Ph 423
▁begannen 423
▁Herr 423
▁totally 422
▁communities 422
▁anyway 422
▁song 422
▁onto 422
▁largest 422
▁Bürger 422
▁waste 421
▁examples 421
rot 421
ray 421
▁Flugzeug 421
stellt 421
alität 421
▁Mitgefühl 421
▁Ärzte 421
▁crazy 420
▁dance 420
flu 420
nach 420
▁kreativ 420
▁exciting 419
▁quality 419
▁context 419
▁results 419
mmel 419
▁remain 418
▁meeting 418
last 418
sinn 418
▁Ebene 418
▁vergessen 418
ever 417
▁scan 417
my 417
▁schwarze 417
▁vorbei 417
▁Gut 417
▁Führung 417
ban 416
▁religion 416
▁named 416
▁starts 416
▁organ 416
▁schlechte 416
wohn 416
▁Telefon 416
▁gesund 416
▁chemical 415
▁bacteria 414
Ja 414
▁Tür 414
▁Religion 414
laufen 414
▁leaders 413
▁hum 413
▁hour 413
hy 413
rb 413
bahn 413
▁folgende 413
▁sitzen 413
▁Vereinigte 413
▁projects 412
ically 412
board 412
▁male 412
▁zuerst 412
▁Monaten 412
▁Büro 412
▁connected 411
ami 411
▁dar 411
▁grew 411
▁finde 411
▁Zeug 411
▁großer 411
▁baut 411
▁Traum 411
▁families 410
▁games 410
rum 410
▁geschieht 410
▁sodass 410
▁Objekt 410
▁trees 409
▁pet 409
▁watching 409
▁conflict 409
▁Mikro 409
▁ermöglicht 409
▁Aufmerksamkeit 409
▁Seiten 409
zugehen 409
▁Evolution 409
▁Netz 409
▁Jede 409
▁hört 409
our 408
▁amp 408
▁worse 408
▁interview 408
▁individuals 408
▁argument 408
▁president 407
▁fuel 407
▁bomb 407
▁cold 407
▁tro 407
ologie 407
▁Politik 407
▁bestimmt 407
sicher 407
▁Bewusstsein 407
▁Partner 406
▁bestimmte 406
schließen 406
▁prop 405
▁detect 405
▁signal 405
ram 405
▁Pflanzen 405
▁Ding 405
▁wussten 405
▁Kern 405
▁Schulen 405
▁cause 404
▁river 404
▁materials 404
▁essentially 404
▁drop 404
▁Gespräch 404
▁richtige 404
▁Ergebnisse 404
▁extremely 403
▁affect 403
hop 403
0,000 403
▁ship 403
▁pattern 403
▁plastic 403
é 403
▁fertig 403
Wie 403
organism 402
music 402
▁direction 402
welt 402
▁Schl 402
▁verlassen 402
▁passierte 402
▁voller 402
▁zweiten 402
▁return 401
▁including 401
pre 401
▁bra 401
▁Ton 401
▁versuchte 401
▁Sicht 401
▁pain 400
work 400
mann 400
▁base 400
▁nein 400
▁ihres 400
▁brother 399
▁Krankheiten 399
▁sad 398
▁meant 398
yo 398
▁usually 398
▁persönlich 398
▁Grenzen 398
▁Medikamente 398
▁früh 398
▁rep 397
pan 397
cho 397
▁freedom 397
▁shift 397
lau 397
▁Klima 397
▁Amerikaner 397
▁erstaunlich 397
▁version 396
▁improve 396
wort 396
▁Gesundheits 396
▁Gerät 396
artige 396
▁island 395
▁decision 395
▁task 395
ash 395
▁shot 395
▁arbeitete 395
▁geschrieben 395
▁Para 395
▁letter 394
▁somewhere 394
▁fine 394
bro 394
▁45 394
▁shown 394
▁carry 394
▁bodies 394
wirtschaft 394
▁Nord 394
▁medizinische 394
Musik 394
▁traditional 393
▁term 393
ette 393
▁window 393
▁Monat 393
▁Nummer 393
▁betrachtet 393
schnitt 393
▁kaum 393
▁Meeres 393
▁bill 392
▁board 392
▁fan 392
yp 392
zieren 392
▁bleibt 392
▁ändert 392
▁explore 391
gas 391
▁somehow 391
▁unge 391
▁Her 391
▁Wieder 391
zo 390
▁plants 390
▁conditions 390
▁allowed 390
▁loved 390
▁Personen 390
▁beobachten 390
grund 390
▁address 389
▁char 389
▁hiv 389
▁camp 389
▁teachers 389
▁prison 389
▁Eines 389
▁wirtschaftliche 389
tritt 389
▁großes 389
▁bemerkt 389
▁critical 388
▁survive 388
▁net 388
▁tool 388
tum 388
gegeben 388
▁Handy 388
▁häufig 388
▁models 387
▁taught 387
▁career 387
▁gesprochen 387
netz 387
▁prevent 386
▁killed 386
stitution 386
▁older 386
▁doctors 386
▁tells 386
stellung 386
▁schafft 386
▁Kontrolle 386
▁Region 386
▁john 385
▁spring 385
▁burn 385
▁original 385
lla 385
▁happiness 385
lop 385
▁fat 385
schrift 385
▁Vergangenheit 385
▁lit 384
geschlossen 384
▁fühlt 384
teilung 384
▁truly 383
▁trade 383
▁extraordinary 383
▁eng 383
buch 383
▁Tagen 383
ständig 383
▁Geist 383
▁faster 382
rad 382
▁town 382
▁Go 382
▁zumindest 382
▁ansehen 382
▁bilden 382
▁Tra 382
▁negative 381
▁tree 381
phone 381
▁math 381
feld 381
kle 381
▁Funktion 381
▁Himmel 381
▁Wi 381
▁range 380
▁however 380
▁stress 380
▁central 380
rennen 380
▁fantastisch 380
▁komme 380
▁Fahr 380
▁entscheiden 380
▁bestimmten 380
▁thousand 379
ogen 379
▁gi 379
▁leg 379
▁above 379
▁Kollegen 379
▁Können 379
▁großartige 379
▁Typ 379
▁Freiheit 379
Er 379
▁Sohn 379
▁bunch 378
▁buildings 378
▁excited 378
▁disc 378
oid 378
▁daughter 378
cker 378
▁kl 378
▁Gründe 378
▁gearbeitet 378
zeichnen 378
▁standing 377
▁strange 377
▁Firmen 377
▁verlieren 377
▁lower 376
▁zero 376
▁objects 376
▁humanity 376
▁starb 376
▁muslim 376
▁Regeln 376
▁Haut 376
▁Erinnerung 376
▁kompliziert 376
▁Gesetz 376
▁perform 375
▁morgen 375
▁Einfluss 375
▁Beispiele 375
ßt 375
▁folgen 375
▁handelt 375
▁täglich 375
▁manage 374
▁legal 374
▁rise 374
tat 374
▁wachsen 374
▁Stelle 374
▁Präsident 374
▁Wal 374
▁cook 373
▁pop 373
▁pieces 373
▁principle 373
▁trial 373
wie 373
▁rund 373
▁Kor 373
lauf 373
▁Klasse 373
▁remind 372
▁shi 372
lit 372
▁floor 372
▁foot 372
lies 372
▁wann 372
kommt 372
▁Erd 372
▁Konflikt 372
kreis 372
▁etc 371
▁none 371
▁reading 371
▁2000 371
▁expert 371
▁ended 371
▁teacher 371
hab 371
▁Mu 371
füll 371
▁Pf 371
▁Hände 371
▁except 370
▁training 370
▁rat 370
▁gern 370
▁Spezies 370
gruppe 370
▁echte 370
▁Morgen 370
▁Kampf 370
▁slide 369
▁profit 369
▁architecture 369
▁fair 369
▁studies 369
▁sum 369
frei 369
zeug 369
jährige 369
▁Trans 369
▁hohe 369
▁female 368
▁poll 368
hung 368
hor 368
▁John 368
▁Risiko 368
tischen 368
zustellen 368
▁Kommunikation 368
▁nachzudenken 368
Re 367
▁Orten 367
▁Geb 367
▁Pla 367
▁Physik 367
▁crisis 366
▁radio 366
▁photo 366
▁lines 366
▁respond 366
▁Beginn 366
▁Baum 366
▁Dorf 366
▁Leistung 366
▁speziell 366
path 365
▁minute 365
▁race 365
▁alive 365
▁limit 365
▁impossible 365
▁afford 365
▁Jahres 365
▁Sinne 365
can 364
▁clearly 364
▁service 364
▁finger 364
▁unique 364
▁paint 364
▁erfahren 364
▁National 364
▁complete 363
cle 363
▁policy 363
star 363
▁beings 363
▁points 363
unter 363
uten 363
▁trotzdem 363
▁Arzt 363
▁gefährlich 363
▁San 363
▁wife 362
▁products 362
▁activity 362
▁website 362
mic 362
bed 362
▁schrecklich 362
▁Gefängnis 362
▁Wirklichkeit 362
▁retten 362
▁current 361
▁press 361
▁port 361
▁jump 361
like 361
▁serious 361
▁hero 361
lam 361
▁Geschäft 361
▁Ob 361
uel 360
▁allows 360
▁communication 360
▁kept 360
▁biology 360
▁glass 360
▁dad 360
▁ehrlich 360
▁Spaß 360
▁dritte 360
▁winzig 360
licher 360
▁Nachricht 360
▁anschauen 360
▁reduce 359
▁400 359
▁complicated 359
▁bla 359
▁famous 359
▁content 359
▁Wald 359
▁erzeugen 359
▁möglichen 359
▁OK 359
▁Software 359
▁seltsam 359
▁Früh 358
▁politische 358
▁Sam 358
▁keiner 358
▁Industrie 358
▁Wesen 358
rry 357
▁rain 357
▁forms 357
▁respect 357
▁email 357
now 357
▁intelligence 357
▁sand 357
▁upon 357
▁cur 357
▁denkt 357
fähig 357
▁nenne 357
▁unmöglich 357
▁» 357
▁larger 356
▁bear 356
▁healthy 356
gan 356
▁Bakterien 356
▁einzelnen 356
▁führte 356
▁Neuro 356
Ver 356
grat 355
▁genes 355
▁lie 355
zunehmen 355
▁serve 354
▁pat 354
▁danke 354
▁Car 354
▁Beziehungen 354
sprach 354
▁« 354
▁electricity 353
▁sorts 353
▁painting 353
lief 353
▁patterns 353
▁pur 353
▁laut 353
▁zeigte 353
▁existiert 353
▁Ni 353
▁Hoch 353
▁fühlte 353
▁gewinnen 353
▁perfekt 353
▁Akt 353
▁aussieht 353
▁partner 352
burg 352
▁cases 352
rauch 352
ätze 352
▁nannte 352
▁nutzt 352
▁enjoy 351
▁symbol 351
▁Bis 351
▁Mark 351
▁jungen 351
▁solchen 351
▁Komm 351
▁Per 351
▁Schlaf 351
▁performance 350
▁rule 350
▁mobile 350
ama 350
▁anymore 350
▁erklärt 350
▁Finger 350
▁Schmerz 350
▁throughout 349
gie 349
▁sau 349
phe 349
▁saß 349
▁müsste 349
▁verbinden 349
▁Fotos 349
▁Landes 349
▁effort 348
▁grand 348
▁tea 348
▁harm 348
▁arch 348
▁schaut 348
▁My 348
▁Damit 348
▁written 347
▁environmental 347
▁specific 347
▁machines 347
▁earlier 347
▁raise 347
logen 347
▁eben 347
▁Spa 347
▁hörte 347
▁Mi 347
komm 347
▁Str 347
han 346
▁150 346
▁cheap 346
▁thanks 346
▁stu 346
▁although 346
▁coral 346
gezogen 346
▁arbeite 346
▁Cha 346
karte 346
▁lebt 346
▁gebracht 346
▁irgendeine 346
arbeiten 346
wechsel 346
▁solutions 345
▁spin 345
▁mini 345
nisse 345
sitz 345
▁entdecken 345
▁wert 345
tragen 345
▁neun 345
ät 345
▁Su 345
ille 344
▁purpose 344
▁final 344
▁islam 344
▁“ 344
▁CO 344
▁Ressourcen 344
▁arbeitet 344
▁befinden 344
▁military 343
▁lesson 343
▁dangerous 343
▁listening 343
▁Beste 343
▁target 342
▁capital 342
▁financial 342
▁seat 342
▁reflect 342
▁anywhere 342
▁heutzutage 342
tausend 342
▁Finanz 342
tausch 342
Es 342
▁kannst 342
▁gefragt 342
▁Sterne 342
▁gering 342
▁alternative 341
▁weren 341
▁forget 341
▁virtual 341
▁pu 341
wesen 341
▁veröffentlicht 341
▁Baby 341
▁Glauben 341
▁Elektro 341
▁Stein 341
▁series 340
▁therefore 340
▁document 340
▁decide 340
▁aufgrund 340
▁gekommen 340
▁Wahrscheinlich 340
▁Gegen 340
▁decisions 339
orp 339
don 339
▁becoming 339
▁HIV 339
üb 339
▁Text 339
▁Gu 339
▁leisten 339
▁decades 338
▁35 338
▁greatest 338
programm 338
▁Bäume 338
▁produzieren 338
baren 338
▁scar 337
▁separate 337
pla 337
▁stars 337
▁western 337
▁Bühne 337
▁erzählte 337
▁hilft 337
▁wunderbar 337
ky 336
▁wide 336
▁americans 336
▁ideal 336
bal 336
▁Hy 336
▁verbreitet 336
kü 336
▁Organisation 336
▁globalen 336
▁dreht 336
▁irgendwo 336
seits 336
▁significant 335
▁niedrig 335
▁öffentlichen 335
▁dadurch 335
▁Frieden 335
▁dauert 335
geschichte 335
▁spot 334
▁drink 334
▁babies 334
▁Prinzip 334
▁Vergleich 334
▁Andere 334
▁läuft 334
▁versuche 334
hält 334
▁Ball 334
▁fossil 333
aging 333
▁unfortunately 333
gram 333
▁eure 333
▁Verb 333
▁echt 333
▁Beruf 333
▁prove 332
lick 332
video 332
▁Gelegenheit 332
▁gestellt 332
▁Botschaft 332
▁Artikel 332
▁trip 331
▁fra 331
▁erinnert 331
▁einander 331
▁Manchmal 331
▁verkauft 331
▁schützen 331
▁effective 330
▁robots 330
▁define 330
▁charge 330
▁geo 330
▁Sekunden 330
▁unterstützen 330
▁untersuchen 330
▁Bank 330
▁museum 329
▁fantastic 329
▁smaller 329
▁dig 329
▁gift 329
handel 329
▁Drei 329
▁Architektur 329
▁schöne 329
▁hält 329
▁Pu 329
▁Einer 329
▁worry 328
▁waiting 328
▁trick 328
▁mistake 328
not 328
▁himself 328
▁75 328
ache 328
▁globale 328
▁Aspekt 328
▁Regierungen 328
▁Flug 328
Sie 328
▁Geh 328
▁besondere 328
ix 327
▁enormous 327
▁station 327
ya 327
▁actual 327
▁familiar 327
▁challenges 327
▁warten 327
▁Schlüssel 327
▁Che 327
▁erwartet 327
fisch 327
▁pra 326
▁cultural 326
▁demand 326
▁institutions 326
▁physics 326
Ö 326
▁benötigt 326
schicht 326
Ko 326
▁Hirn 326
▁Gehirns 326
▁motor 325
▁brand 325
▁willing 325
avi 325
▁Gas 325
▁unglaubliche 325
▁Fuß 325
▁außerhalb 325
▁Fluss 325
▁temperature 324
▁tv 324
▁skills 324
ani 324
▁Auswirkungen 324
▁Suche 324
▁Wege 324
▁Spitze 324
▁Krankenhaus 324
▁services 323
▁expensive 323
▁neurons 323
▁Tisch 323
▁Aktivität 323
endung 323
▁weight 322
▁immediately 322
▁industrial 322
problem 322
vier 322
▁Abend 322
▁Ingenieur 322
▁sowohl 322
▁Zeitpunkt 322
▁Erstens 322
▁rechts 322
richtung 322
▁See 322
▁Klimawandel 322
▁civil 321
▁honest 321
▁protein 321
▁Lösungen 321
▁Vorteil 321
▁Liste 321
▁Maschinen 321
▁Vertrauen 321
▁Forscher 321
▁Erfahrungen 321
▁verstanden 321
▁sister 320
▁contain 320
▁adapt 320
bling 320
urf 320
▁entschieden 320
▁höchst 320
▁Lu 320
▁Feuer 320
▁Feld 320
maschine 320
▁transport 319
▁corner 319
▁circle 319
▁japan 319
▁instance 319
▁pressure 319
▁fail 319
▁Wunder 319
staat 319
▁Gefahr 319
▁Schwester 319
▁beach 318
▁expand 318
▁genome 318
▁bone 318
▁match 318
▁sexual 318
▁mix 318
▁greater 318
nah 318
▁wenige 318
▁Designer 318
▁bestehen 318
▁bisher 318
▁income 317
▁statistic 317
▁hair 317
▁mid 317
▁öffentliche 317
▁Herzen 317
▁Lernen 317
▁einzigen 317
▁shared 316
▁moon 316
▁fallen 316
▁illegal 316
▁values 316
▁messen 316
▁Formen 316
hilfe 316
▁Mond 316
▁erleben 316
modell 316
▁normalerweise 316
▁Gleich 316
träge 316
▁runter 316
▁Polizei 316
▁Englisch 316
▁heat 315
jo 315
child 315
gro 315
spann 315
▁Linie 315
▁sammeln 315
▁herausfinden 315
▁laugh 314
▁levels 314
▁summer 314
▁beauty 314
▁vote 314
▁mess 314
▁laws 314
▁cloud 314
▁sensor 314
energie 314
▁Uni 314
▁Entwicklungs 314
▁schlimm 314
tür 314
▁zufällig 314
▁taten 314
▁Tief 314
▁Manche 314
▁geschehen 314
▁hab 313
▁lokale 313
▁diejenigen 313
▁Unser 313
▁Verständnis 313
▁politics 312
▁indian 312
pu 312
▁accident 312
▁kenne 312
kor 312
▁Sand 312
▁Freude 312
▁Systeme 312
▁driving 311
▁seconds 311
▁Rede 311
▁verursacht 311
bereit 311
schaftliche 311
▁Mut 311
▁Farbe 311
gewalt 311
lager 311
▁Autor 311
▁atmosphere 310
▁relationships 310
▁walked 310
▁electro 310
▁teaching 310
schutz 310
▁tolle 310
gebiet 310
▁größere 310
▁Regel 310
▁Ok 310
▁erinnere 310
▁Fische 310
neu 309
▁production 309
▁ahead 309
▁biological 309
▁costs 309
▁helped 309
▁collective 309
▁Bezug 309
▁bloß 309
▁Will 309
wissenschaft 309
▁include 308
▁ernst 308
stadt 308
kind 308
▁gehe 308
▁Hin 308
▁Auge 308
▁speech 307
▁governments 307
▁catch 307
▁mission 307
▁vehicle 307
▁types 307
▁cop 307
gabe 307
▁Million 307
▁selten 307
barkeit 307
▁erwarten 307
▁erlebt 307
▁Geräusch 307
▁geschah 307
▁whose 306
arian 306
▁arab 306
▁landscape 306
prüf 306
kauf 306
▁Projekte 306
führung 306
▁Ordnung 306
▁Lauf 306
▁Methode 306
▁Westen 306
▁Stunde 306
▁ließ 306
▁nation 305
▁trouble 305
▁iron 305
▁legs 305
▁alter 305
pel 305
▁erzeugt 305
▁wählen 305
▁wood 304
▁broken 304
▁speaking 304
▁neighborhood 304
▁gla 304
person 304
▁Handel 304
▁Schluss 304
steuer 304
daten 304
▁option 303
▁choices 303
▁edge 303
▁diseases 303
▁extreme 303
pack 303
setzung 303
▁Ganz 303
zubringen 303
▁Entdeckung 303
prozess 303
Video 303
ough 302
▁mill 302
▁method 302
▁mostly 302
mine 302
▁forth 302
▁professional 302
fried 302
▁km 302
▁hinzu 302
▁Klein 302
▁praktisch 302
▁behaupte 302
▁beeinflusst 302
▁Werte 302
▁active 301
▁spoke 301
▁terrible 301
▁legen 301
▁failure 301
▁22 301
▁Grad 301
▁unver 301
▁Veränderungen 301
▁Verantwortung 301
rüber 301
▁geschaffen 301
▁Name 301
▁Werk 301
rand 300
▁engineering 300
▁decade 300
▁double 300
▁apply 300
▁lies 300
cal 300
▁birds 300
uk 300
▁tag 300
▁Sommer 300
gelegt 300
▁dasselbe 300
▁beschäftigt 300
▁heutigen 300
▁fällt 300
▁Geburt 300
▁foundation 299
▁bus 299
▁Kurz 299
▁gedacht 299
gerät 299
▁herunter 299
▁Punkte 299
▁Tochter 299
▁Gold 299
▁quick 298
▁influence 298
▁entrepreneur 298
▁random 298
▁chi 298
▁popular 298
▁birth 298
ji 298
▁ebenso 298
▁sowie 298
▁Antworten 298
▁König 298
▁Jungen 298
▁flying 297
▁hall 297
▁passion 297
▁entweder 297
▁Junge 297
▁Sport 297
▁Detail 297
▁apart 296
▁experiences 296
ugh 296
▁communicate 296
▁boys 296
▁professor 296
▁distance 296
▁straight 296
dor 296
wärts 296
▁halb 296
▁selben 296
▁Organ 296
▁Signal 296
▁wealth 295
▁generate 295
▁express 295
▁organizations 295
▁colleagues 295
▁afraid 295
phy 295
▁recent 295
▁Lieblings 295
▁behandelt 295
▁Ehe 295
▁befindet 295
suche 295
▁useful 294
▁shoot 294
▁author 294
▁emerge 294
▁patent 294
▁interaction 294
▁Lehr 294
▁voraus 294
▁Betracht 294
Ein 294
▁lief 294
▁climb 293
▁loss 293
▁obvious 293
▁boat 293
▁algorithm 293
▁london 293
▁citizens 293
▁amerikanischen 293
▁produziert 293
▁Drogen 293
zieh 293
▁Kilometer 293
▁dunkle 293
schein 293
▁Sozial 293
mäßig 293
▁television 292
place 292
▁beat 292
▁various 292
▁rid 292
▁unit 292
wan 292
▁Jahrhunderts 292
▁Cent 292
▁übrigens 292
erei 292
▁Jedes 292
▁Überleben 292
▁Ad 292
▁Nähe 292
▁mächtig 292
losen 292
▁Schutz 292
▁master 291
▁possibly 291
▁answers 291
bank 291
weise 291
▁getroffen 291
▁Noch 291
▁Quelle 291
▁genutzt 291
ziert 291
strahl 291
▁Opfer 291
▁behandeln 291
▁London 291
▁grundlegende 291
▁conference 290
cut 290
▁neighbor 290
▁creativity 290
▁insect 290
struktur 290
▁überleben 290
▁Genom 290
▁biologische 290
▁Leidenschaft 290
▁vollständig 290
▁schicken 290
▁Nehmen 290
▁capture 289
▁select 289
▁describe 289
ification 289
tanz 289
▁noise 289
▁despite 289
▁shark 289
▁einfacher 289
▁verbringen 289
▁Kreis 289
▁copy 288
▁saving 288
▁install 288
öl 288
▁konzentrieren 288
▁effektiv 288
nahme 288
▁Charakter 288
leitet 288
▁sick 287
▁invented 287
design 287
▁custom 287
▁ban 287
omb 287
▁understood 287
▁giant 287
krieg 287
▁spricht 287
▁Nerven 287
Wo 287
▁disappear 286
▁brilliant 286
▁effects 286
▁stopped 286
▁following 286
▁nahmen 286
▁Gl 286
▁welcher 286
▁Männern 286
▁worst 285
▁closer 285
▁eu 285
▁labor 285
▁knowing 285
▁consequence 285
▁societies 285
▁layer 285
▁astro 285
▁gain 285
▁Werkzeug 285
▁Version 285
▁Teilen 285
▁Zelle 285
▁gutes 285
▁Höhe 285
▁Frei 285
▁außergewöhnlich 285
▁Gemeinde 285
markt 285
pping 284
▁surround 284
▁hack 284
▁bridge 284
▁seemed 284
▁struggle 284
▁guter 284
zeichen 284
▁verkaufen 284
▁Japan 284
▁Seit 284
▁jemandem 284
▁Schiff 284
▁Freunden 284
▁App 283
▁Gefühle 283
▁Beine 283
▁Plastik 283
▁below 282
mobil 282
▁lack 282
▁whi 282
▁party 282
▁sequence 282
▁shop 282
why 282
▁nett 282
sweise 282
▁Haben 282
▁herstellen 282
▁endlich 282
▁Atmosphäre 282
▁Schönheit 282
▁Biologie 282
▁zog 282
▁Fenster 282
▁No 282
▁Identität 282
▁remarkable 281
position 281
▁tumor 281
▁driver 281
▁2010 281
▁Städten 281
▁Gewinn 281
▁Dem 281
▁aufregend 281
forschung 281
Oh 281
gegen 281
▁Worten 281
▁Bro 281
▁erkannte 281
jahr 281
▁infrastructure 280
▁vast 280
▁held 280
▁allgemein 280
reichen 280
▁Har 280
▁Etwa 280
▁Inhalt 280
▁Bienen 280
▁directly 279
▁belief 279
▁pig 279
▁sorry 279
gramm 279
▁deutlich 279
▁untersucht 279
zusetzen 279
▁The 279
▁Maß 279
▁Gang 279
▁sample 278
▁coast 278
cla 278
▁nearly 278
▁Solar 278
▁Eigenschaften 278
▁imagination 277
▁condition 277
▁traffic 277
▁engine 277
▁gap 277
itor 277
▁Einkommen 277
eute 277
▁wichtigsten 277
▁Perspektive 277
ließ 277
▁Tri 277
▁Kontakt 277
▁erhielt 277
dauer 277
▁Geschlecht 277
einhalb 277
bon 276
▁rare 276
▁emotions 276
tech 276
▁react 276
▁Mir 276
▁Volk 276
▁steckt 276
▁Bett 276
wachsen 276
▁besucht 276
▁23 275
▁paid 275
▁campaign 275
▁switch 275
▁virus 275
▁ancient 275
▁supply 275
▁causes 275
▁depression 275
minister 275
heben 275
▁Regen 275
▁beobachtet 275
▁politischen 275
▁spät 275
▁folgt 275
bauen 275
volle 275
bruch 275
▁Va 275
▁Web 275
▁core 274
▁gather 274
▁profound 274
▁rational 274
▁2008 274
▁Mach 274
▁existieren 274
▁Karriere 274
▁scientist 273
▁tech 273
▁capacity 273
▁lock 273
▁noticed 273
▁destroy 273
och 273
▁slightly 273
▁99 273
▁programs 273
▁erfunden 273
▁natürliche 273
▁wesentlich 273
▁Post 273
▁traditionelle 273
▁kämpfen 273
▁eigenes 273
nahmen 273
verständlich 273
▁nigeria 272
▁argue 272
▁aid 272
▁published 272
▁satellite 272
wood 272
source 272
▁Ahnung 272
▁Sin 272
▁Schwarz 272
▁kostet 272
▁instrument 271
▁highly 271
grad 271
▁Tieren 271
▁lautet 271
werte 271
▁replace 270
▁california 270
▁funny 270
park 270
▁combine 270
▁blog 270
▁technique 270
▁Begriff 270
▁amerikanische 270
▁Kreativität 270
Wenn 270
möglich 270
▁joy 269
▁damage 269
▁surprising 269
▁tax 269
▁dein 269
▁feature 269
▁tissue 269
▁geh 269
▁identity 269
▁fuhr 269
Mail 269
issen 269
▁leiden 269
▁Welche 269
▁oxygen 268
gar 268
▁dying 268
▁aware 268
▁differently 268
▁differences 268
▁interpret 268
▁geb 268
▁langen 268
hängen 268
liebe 268
▁frühen 268
gelassen 268
Nein 268
▁Motor 268
▁Gesetze 268
▁Gute 268
▁legt 268
▁Knochen 268
▁graduate 267
▁desire 267
▁grab 267
▁husband 267
▁refugee 267
decke 267
fahrt 267
▁billig 267
▁ebenfalls 267
▁Glas 267
isierte 267
▁spreche 267
▁easier 266
kin 266
▁helping 266
▁magazine 266
▁Produkte 266
▁gebe 266
▁fehl 266
▁nötig 266
▁Anti 266
hafte 266
▁trotz 266
▁shock 265
▁occur 265
▁photos 265
▁chair 265
▁Kohle 265
▁verw 265
▁brauchte 265
▁Tumor 265
▁seien 265
▁Dort 265
▁Zustand 265
sätze 265
▁equal 264
▁dynamic 264
▁commercial 264
▁$ 264
▁medi 264
▁promise 264
▁surgery 264
▁border 264
▁ear 264
▁sentence 264
▁Tausende 264
▁trifft 264
▁unabhängig 264
▁Stil 264
▁Geheimnis 264
▁einzigartig 264
▁Position 264
▁Osten 264
▁forces 263
▁farmers 263
▁gotten 263
▁ski 263
▁court 263
ological 263
▁sharing 263
awa 263
alter 263
schauen 263
industrie 263
▁Wirtschafts 263
▁entstehen 263
▁stellten 263
Warum 263
▁Instrument 263
▁Strategie 263
▁Schlag 263
▁Titel 263
▁bag 262
▁justice 262
▁sustainable 262
▁brazil 262
▁played 262
▁mach 262
▁gilt 262
▁Einsatz 262
▁Intelligenz 262
▁öffnen 262
term 261
▁addition 261
▁responsibility 261
▁fill 261
uff 261
▁king 261
▁balance 261
▁Wandel 261
▁Todes 261
▁ermöglichen 261
▁High 261
ziehung 261
▁Unterschiede 261
▁attract 260
▁weird 260
▁experiments 260
▁0 260
▁weiterhin 260
▁ursprünglich 260
▁Steuer 260
▁sogenannte 260
▁Wohn 260
nimmt 260
▁avoid 259
▁continent 259
▁tremendous 259
▁religious 259
▁determine 259
▁Sauerstoff 259
▁überrascht 259
liebt 259
▁Ecke 259
▁Träume 259
▁Schreib 259
▁Lied 259
▁afghanistan 258
▁recover 258
▁diversity 258
▁members 258
▁hang 258
▁streets 258
▁metaphor 258
▁darf 258
▁Lang 258
▁riesigen 258
▁Gegend 258
▁Geschwindigkeit 258
▁Ansicht 258
▁Müll 258
▁fühle 258
▁Protein 258
▁twice 257
▁desert 257
▁remove 257
▁dreams 257
▁iran 257
▁Farben 257
▁Bildschirm 257
Q 257
▁Miss 257
▁consumer 256
▁engage 256
▁component 256
▁era 256
dding 256
▁tradition 256
av 256
▁networks 256
▁classroom 256
anthrop 256
raub 256
▁Insel 256
▁Anwendung 256
▁fangen 256
▁Hä 256
maß 256
▁Standard 256
▁West 256
bildung 256
▁kontrollieren 256
▁überzeugen 256
▁bought 255
▁ultimately 255
▁evolved 255
▁whale 255
▁entirely 255
statt 255
▁Afghanistan 255
▁Pri 255
▁gegangen 255
▁vermutlich 255
▁moralische 255
▁Aufnahme 255
▁Kein 255
▁easily 254
▁fully 254
▁hearing 254
▁invent 254
▁ke 254
look 254
▁produced 254
▁asia 254
▁studying 254
station 254
▁divide 254
▁relevant 254
spiegel 254
▁Gewicht 254
istische 254
▁gaben 254
▁faszinierend 254
▁Zeichen 254
fassung 254
▁Forschungs 254
zogen 254
körper 254
▁afrikanische 254
▁basis 253
▁root 253
▁missing 253
▁sector 253
▁host 253
▁definition 253
▁engineer 253
▁opposite 253
▁stone 253
bat 253
win 253
▁facebook 253
▁entscheidend 253
▁Kunden 253
▁Waffen 253
▁reagieren 253
▁Vogel 253
▁normale 253
▁enable 252
▁russia 252
tage 252
▁tausend 252
führ 252
▁heiß 252
▁wunderbare 252
▁beeinflussen 252
kräfte 252
▁Ausdruck 252
▁Großbritannien 252
▁Facebook 252
▁scene 251
▁flight 251
hil 251
▁muscle 251
▁gender 251
▁yellow 251
▁enorm 251
dan 251
▁begeistert 251
▁Infrastruktur 251
länder 251
würdig 251
▁Ansatz 251
▁überzeugt 251
▁Vielfalt 251
▁Ausbildung 251
▁quote 250
▁civilization 250
▁article 250
▁Verkehr 250
▁Temperatur 250
▁schien 250
▁Lebensmittel 250
▁Häuser 250
▁Sha 250
▁Materialien 250
▁investment 249
▁bottle 249
cop 249
▁strength 249
▁focused 249
▁band 249
▁prior 249
▁monkey 249
material 249
▁Landschaft 249
▁Zweitens 249
▁Richtig 249
▁betrifft 249
▁blieb 249
▁Operation 249
▁Phänomen 249
▁roof 248
▁designers 248
▁notion 248
▁suit 248
▁correct 248
▁10,000 248
▁application 248
technologie 248
miss 248
tiere 248
▁Durchschnitt 248
▁herzustellen 248
▁Werkzeuge 248
▁heran 248
▁aufgenommen 248
▁begonnen 248
▁kalt 248
▁angefangen 248
The 248
▁Port 248
▁Si 248
▁fragten 248
▁Mütter 248
▁cycle 247
ontin 247
▁workers 247
▁encourage 247
▁nations 247
▁molecules 247
▁grade 247
▁crime 247
▁Brief 247
▁Verfügung 247
▁notwendig 247
gericht 247
▁Gedicht 247
▁Depression 247
▁Mehr 247
▁Verbindungen 247
▁Einzel 247
▁blow 246
▁plane 246
▁inspired 246
▁tough 246
▁broad 246
▁election 246
▁australia 246
zimmer 246
▁Holz 246
▁Den 246
▁Erzähl 246
▁Unterstützung 246
▁Nie 246
▁lustig 246
▁entlang 246
▁Haar 246
ografie 246
▁verdienen 246
▁Babys 246
▁tap 245
▁drawing 245
▁crowd 245
▁claim 245
▁suffering 245
matic 245
run 245
▁erwähnt 245
▁Statistik 245
unternehmen 245
▁dagegen 245
▁alleine 245
▁Gesellschaften 245
▁Würde 245
▁degrees 244
▁27 244
▁background 244
▁van 244
▁universal 244
▁gun 244
life 244
▁outcome 244
▁iraq 244
▁psycho 244
▁date 244
▁eating 244
far 244
abel 244
▁bitten 244
▁nützlich 244
▁handeln 244
▁erstellen 244
▁davor 244
▁erstellt 244
▁verbracht 244
▁Schuld 244
▁Boot 244
▁kulturelle 244
▁importantly 243
▁foreign 243
▁apple 243
that 243
▁regular 243
weil 243
▁smell 243
▁fiel 243
▁sorgen 243
▁benötigen 243
▁Massen 243
▁buchstäblich 243
▁Produktion 243
▁Rand 243
▁passen 243
förder 243
▁Psycho 243
▁steigen 243
fällig 243
▁Filme 243
▁Mess 243
▁chain 242
▁efficient 242
▁victim 242
▁israel 242
ugg 242
▁leadership 242
▁chose 242
▁tue 242
▁reaction 242
▁consciousness 242
▁meist 242
▁größeren 242
▁entwickelten 242
▁Wohl 242
▁dritten 242
▁Effekt 242
▁forever 241
▁devices 241
▁passed 241
▁immun 241
▁hurt 241
▁Folgen 241
▁technische 241
breite 241
geführt 241
Pa 241
▁Link 241
▁dorthin 241
▁Pol 241
▁entschied 241
▁klingt 241
An 241
▁Hai 241
▁spending 240
this 240
▁opportunities 240
tete 240
mpel 240
▁Zusammenhang 240
▁Fernseh 240
▁Unternehmer 240
▁Rot 240
länge 240
▁Sonnen 240
▁beschreiben 240
▁Neuronen 240
▁stabil 239
▁spirit 239
▁stem 239
▁garden 239
oxi 239
▁direct 239
these 239
ngu 239
amp 239
▁Hinter 239
▁starke 239
▁durchgeführt 239
▁Band 239
wunder 239
bewegung 239
teile 239
▁Drittel 239
▁typisch 239
▁chinesische 239
▁lucky 238
▁radical 238
▁remote 238
▁nehme 238
▁wohin 238
▁Organisationen 238
dienst 238
▁Wahrnehmung 238
▁Pflege 238
▁european 237
▁operation 237
▁estimate 237
itz 237
▁rap 237
stab 237
schluss 237
▁Basis 237
▁Großteil 237
▁Rad 237
▁entsteht 237
▁elektrische 237
handlung 237
Du 237
▁coffee 236
▁zone 236
▁adopt 236
▁irre 236
▁prize 236
▁twitter 236
▁Zusammenarbeit 236
▁Politiker 236
▁Diskussion 236
▁Reg 236
▁Militär 236
▁erforschen 236
▁basiert 236
▁stolz 236
▁Zeitung 236
▁Kann 236
▁complexity 235
▁mode 235
▁david 235
▁mr 235
▁score 235
▁reward 235
▁flat 235
▁bird 235
zel 235
▁investieren 235
▁gestalten 235
▁Untersuchung 235
▁Zentrum 235
liegen 235
▁Qualität 235
▁neuer 235
▁Virus 235
▁unbedingt 235
▁Verlust 235
▁Loch 235
ulate 234
▁fashion 234
▁bright 234
▁ring 234
▁parent 234
▁600 234
hood 234
▁passt 234
▁Bauern 234
▁voran 234
▁Bedingungen 234
Co 234
▁Satz 234
▁Niemand 234
fluss 234
▁ähnliche 234
▁deeply 233
▁contact 233
▁faith 233
▁unlike 233
▁hunt 233
▁breast 233
▁employ 233
zelle 233
▁Weiß 233
holen 233
hrung 233
▁Vision 233
istisch 233
▁nochmal 233
▁inspiriert 233
▁stecken 233
▁leer 233
▁Ganze 233
stimme 233
▁Objekte 233
ologen 233
▁wuchs 233
wirken 233
▁honor 232
▁figured 232
▁possibility 232
▁aids 232
▁surprise 232
▁architect 232
▁65 232
point 232
▁turning 232
▁electronic 232
▁identify 232
ütze 232
Der 232
schlüsse 232
La 232
▁Faktor 232
▁kommunizieren 232
▁otherwise 231
▁competition 231
▁fold 231
▁teenage 231
▁talent 231
▁suffer 231
▁coal 231
▁wander 231
fern 231
▁David 231
▁kurze 231
▁Museum 231
▁Fach 231
▁Aufgaben 231
Pro 231
▁umgehen 231
bereich 231
▁Typen 231
▁Folge 231
▁absolute 230
▁innovative 230
▁raised 230
based 230
▁platform 230
▁previous 230
▁relativ 230
▁2007 230
▁Erst 230
▁bezahlt 230
▁verfügbar 230
▁dahin 230
funktion 230
▁kümmern 230
▁Komplexität 230
▁Grün 230
steigen 230
▁Institutionen 230
▁technical 229
▁clever 229
▁solid 229
▁novel 229
head 229
▁flower 229
▁disorder 229
zwischen 229
▁krank 229
zusehen 229
▁Stoff 229
▁truck 228
▁crash 228
▁stuck 228
town 228
▁adults 228
▁ecosystem 228
▁1980 228
wick 228
▁bemerkenswert 228
▁Spielen 228
▁Gegenteil 228
▁Mode 228
tauchen 228
▁reicht 228
▁Ziele 228
▁Sekunde 228
▁epi 227
▁1,000 227
▁adult 227
tail 227
▁element 227
▁cave 227
▁strategy 227
▁plus 227
▁meters 227
▁dinosaur 227
▁Konferenz 227
quelle 227
▁erlauben 227
▁Fliege 227
▁Gesch 227
▁Viel 227
▁Wunsch 227
▁Zuerst 227
zugeben 227
▁westliche 227
▁exercise 226
rc 226
▁log 226
oli 226
▁marriage 226
▁suchte 226
treffen 226
▁halbe 226
▁Insekten 226
▁City 226
▁stärker 226
▁erhält 226
▁zerstört 226
▁Vögel 226
▁Fernsehen 226
vision 225
▁mouth 225
▁believed 225
illion 225
▁drag 225
▁mechanism 225
▁leider 225
▁Radio 225
▁dieselbe 225
schlagen 225
▁Architekt 225
▁gegenseitig 225
▁Gewebe 225
▁Stärke 225
▁Tasche 225
▁visuelle 225
▁Bruder 225
▁writer 224
▁tick 224
▁trend 224
atom 224
▁advantage 224
▁stranger 224
▁dran 224
▁Paar 224
▁Kontinent 224
▁Keine 224
▁Karten 224
▁leid 224
▁Fällen 224
kultur 224
▁Experten 224
▁engineers 223
▁particles 223
▁responsible 223
▁flo 223
▁french 223
▁creatures 223
▁prefer 223
▁expression 223
stream 223
▁graph 223
▁motion 223
▁dürfen 223
▁wächst 223
▁hängt 223
▁bestimmen 223
▁Professor 223
▁Stand 223
▁Brot 223
▁auseinander 223
▁getötet 223
▁majority 222
▁counter 222
aft 222
▁multiple 222
▁journalist 222
rechnung 222
gegangen 222
▁bezahlen 222
▁Mitglied 222
▁Code 222
▁Sein 222
schied 222
bewusst 222
▁Materie 222
▁geschafft 222
▁debate 221
▁snow 221
▁pin 221
▁hyper 221
▁proud 221
▁elements 221
ou 221
▁sink 221
▁übertragen 221
▁überraschend 221
▁gewöhnlich 221
halte 221
▁Krise 221
erfolg 221
▁Lern 221
▁versteckt 221
▁repeat 220
▁discovery 220
▁quiet 220
▁necessarily 220
ook 220
▁according 220
▁dress 220
▁1990 220
therapie 220
▁lieber 220
▁Bill 220
▁wichtigste 220
▁Bra 220
▁Jungs 220
fläche 220
stimmt 220
▁Golf 220
krebs 220
▁persönliche 220
▁opened 219
▁leading 219
▁monitor 219
▁fairly 219
▁bubble 219
▁Außerdem 219
geber 219
▁verantwortlich 219
▁effizient 219
▁Resultat 219
▁genetisch 219
▁Ökosystem 219
▁scheinen 219
▁Tradition 219
▁Irak 219
▁sugar 218
▁cartoon 218
▁finish 218
▁hohen 218
▁Zucker 218
▁herausgefunden 218
menge 218
linie 218
aktion 218
▁außerdem 218
▁College 218
▁gewonnen 218
▁frage 218
▁airplane 217
▁click 217
▁compared 217
grade 217
▁holding 217
▁battle 217
amme 217
▁halte 217
sichtlich 217
▁Kindheit 217
▁bieten 217
▁Geräte 217
▁usw 217
▁einsetzen 217
▁Online 217
▁Symbol 217
▁boo 216
▁vent 216
▁opinion 216
▁department 216
▁childhood 216
witz 216
▁survey 216
▁blu 216
▁aktuelle 216
▁Heimat 216
spielen 216
▁Stimmen 216
▁fragt 216
▁gelangen 216
▁bedeutend 216
speicher 216
ießen 216
wirkung 216
▁Fünf 216
▁physische 216
▁attempt 215
▁extend 215
▁horse 215
▁stream 215
▁weak 215
▁received 215
cha 215
▁church 215
▁Grundlage 215
▁Kurs 215
▁Sorgen 215
▁Erfindung 215
▁letztendlich 215
▁Einfach 215
schritt 215
▁Hintergrund 215
Da 215
▁Bitte 215
▁Soldaten 215
▁dinner 214
▁earn 214
▁creation 214
▁independent 214
▁mad 214
gon 214
▁kenya 214
room 214
▁flag 214
▁Kräfte 214
projekt 214
▁wiederum 214
▁tausende 214
▁wartet 214
▁Ost 214
leuchten 214
anlage 214
führt 214
▁Fest 214
▁lay 213
▁poem 213
tti 213
▁failed 213
ooper 213
▁fern 213
lia 213
▁rief 213
▁sicherlich 213
▁Seele 213
▁besitzen 213
▁Tom 213
antwort 213
▁Fläche 213
▁Blog 213
▁Beweis 213
▁Küste 213
▁comment 212
▁restaurant 212
▁trained 212
50 212
▁harder 212
▁studied 212
▁concentrat 212
figur 212
▁nah 212
▁weiss 212
rechnen 212
▁Gericht 212
▁verbessert 212
fähigkeit 212
▁Milliarde 212
▁vollkommen 212
▁geführt 212
▁Obwohl 212
▁drehen 212
▁Ameisen 212
Gesundheitswesen 212
▁necessary 211
▁phenomenon 211
▁hopefully 211
▁interface 211
▁economist 211
▁succeed 211
lag 211
▁wahre 211
▁Nutzen 211
jährigen 211
▁Pass 211
▁sitzt 211
▁versuchten 211
▁Bildern 211
▁lebende 211
▁Kontext 211
▁Einheit 211
ologische 211
▁interagieren 211
▁kürzlich 211
ichen 211
▁unless 210
▁constantly 210
▁weapons 210
▁typical 210
zone 210
lösung 210
▁verwandeln 210
▁traurig 210
▁gäbe 210
▁töten 210
▁Folgendes 210
▁zukünftige 210
für 210
▁Laufe 210
▁Gründen 210
Ha 210
▁Augenblick 210
▁Interaktion 210
▁construct 209
▁fighting 209
▁belong 209
▁2005 209
ata 209
▁location 209
▁clinic 209
▁Kohlenstoff 209
▁arbeiteten 209
▁Kalifornien 209
gründe 209
▁Denk 209
▁mindestens 209
▁sozusagen 209
▁unsichtbar 209
▁konzentriert 209
▁Prä 209
▁Mc 209
▁Außen 209
▁Einstellung 209
labor 208
▁conduct 208
▁sto 208
▁volunteer 208
▁lunch 208
▁sudden 208
▁insight 208
▁mc 208
▁slowly 208
▁channel 208
▁odd 208
▁leaving 208
▁reef 208
▁rechten 208
▁sichtbar 208
▁AIDS 208
▁Themen 208
▁Wüste 208
▁entwerfen 208
▁habt 208
▁vertraut 208
▁hauptsächlich 208
▁Quadrat 208
▁Stress 208
▁fell 207
▁grown 207
▁frame 207
▁empower 207
▁button 207
▁curve 207
▁bread 207
▁caught 207
oma 207
▁2009 207
▁Pra 207
▁Zweck 207
▁Affen 207
▁schaute 207
▁Stamm 207
tiker 207
▁Modelle 207
▁Kaffee 207
▁Freundin 207
▁row 206
▁bull 206
▁invisible 206
▁related 206
▁capable 206
▁1960 206
wind 206
ologists 206
▁researchers 206
▁gay 206
▁british 206
ppel 206
▁erzähle 206
▁Zug 206
▁Mill 206
▁Schrift 206
▁übrig 206
▁Rahmen 206
Le 206
Bahn 206
▁interessieren 206
▁Verstand 206
▁Erklärung 206
▁Strukturen 206
▁Patient 206
60 205
▁worried 205
▁compare 205
▁finished 205
▁malaria 205
▁clinical 205
▁trillion 205
▁perception 205
▁narrative 205
▁assume 205
▁launch 205
▁egg 205
▁egypt 205
▁modernen 205
▁September 205
▁irgendwann 205
▁Malaria 205
▁Sprachen 205
▁erhöht 205
▁Gleiche 205
▁Spiele 205
▁politician 204
▁degree 204
▁reveal 204
▁currently 204
▁described 204
▁bang 204
▁reform 204
▁elephant 204
▁stammt 204
▁verhindern 204
▁Satelliten 204
sätzlich 204
▁chemische 204
üssig 204
▁Bericht 204
▁Stimm 204
▁schließen 204
▁Col 204
cor 203
▁intellectual 203
▁pair 203
▁hy 203
▁metal 203
▁translate 203
▁Masse 203
schläge 203
▁hinweg 203
▁Emotionen 203
▁Wichtig 203
▁Stift 203
▁vorhanden 203
▁Änderung 203
▁Schicht 203
▁grau 203
▁Sehr 203
▁Öffentlichkeit 203
▁Twitter 203
▁everyday 202
▁leader 202
▁intensiv 202
▁followed 202
power 202
▁taste 202
▁wearing 202
▁relative 202
wagen 202
leistung 202
▁Spieler 202
▁schlimmer 202
spruch 202
▁falsche 202
schule 202
schneiden 202
▁Fabrik 202
▁Brust 202
▁fresh 201
▁daily 201
▁jung 201
▁myth 201
▁1970 201
▁guide 201
▁fourth 201
▁treated 201
▁mathematics 201
▁Mitarbeiter 201
reiben 201
▁Tanz 201
gekommen 201
▁X 201
stoß 201
▁Hunger 201
▁Rätsel 201
▁gemein 201
▁verfolgen 201
▁limited 200
▁hill 200
▁cow 200
▁concerned 200
▁operate 200
▁married 200
▁mouse 200
▁electric 200
▁pump 200
▁brown 200
box 200
▁fellow 200
itude 200
▁kosten 200
schaffen 200
▁aufhören 200
▁Gar 200
▁Gedanke 200
schwer 200
gefühl 200
▁Zivilisation 200
▁beschloss 200
▁Landwirtschaft 200
skop 200
▁Zuhause 200
▁folks 199
▁surprised 199
▁grass 199
▁hidden 199
▁round 199
▁kick 199
▁250 199
geschlagen 199
völker 199
▁verwandelt 199
▁Neues 199
▁Ernährung 199
▁werfen 199
▁wertvoll 199
▁Journalist 199
▁Brücke 199
schütz 199
▁logic 198
▁collapse 198
raw 198
▁discussion 198
▁wag 198
water 198
▁conscious 198
state 198
▁exchange 198
▁invited 198
▁refer 198
▁Gemeinden 198
▁Abschluss 198
▁aufbauen 198
▁Mich 198
▁eingesetzt 198
Mo 198
▁Fahrzeug 198
▁Wild 198
▁erscheinen 198
▁Brasilien 198
▁Katze 198
▁dollar 197
▁extinct 197
▁95 197
▁pounds 197
ivity 197
ura 197
Institut 197
systeme 197
▁fördern 197
▁hoffentlich 197
schalten 197
anischen 197
▁selber 197
▁washington 196
cap 196
▁seriously 196
▁fascinating 196
over 196
▁roman 196
▁valley 196
▁tube 196
film 196
▁lau 196
▁dick 196
▁newspaper 196
auto 196
▁hunderte 196
▁Händen 196
▁möglicherweise 196
▁schlechter 196
▁lebte 196
▁studiert 196
▁Website 196
▁tip 195
▁closed 195
▁organic 195
anti 195
▁1950 195
▁smile 195
▁illness 195
▁lung 195
▁watched 195
20 195
kette 195
▁Washington 195
▁Dienst 195
▁Figur 195
▁unterstützt 195
▁teuer 195
▁Höhle 195
▁minister 194
▁highest 194
▁operating 194
▁artificial 194
▁normally 194
▁origin 194
▁transformation 194
ago 194
▁experienced 194
▁wake 194
▁wach 194
lohn 194
produkt 194
stärke 194
grenze 194
▁lebten 194
▁Zimmer 194
gebaut 194
▁Grafik 194
▁bedeuten 194
▁beantworten 194
▁topic 193
▁caused 193
▁perfectly 193
▁versus 193
▁germany 193
▁paying 193
▁attach 193
valu 193
▁comfortable 193
▁robotic 193
▁Meilen 193
▁End 193
▁Seh 193
▁anfing 193
▁Wellen 193
▁Fleisch 193
▁Muskel 193
gänge 193
▁erfinden 193
▁lebendig 193
▁religiöse 193
▁precise 192
▁institute 192
▁chart 192
▁ultra 192
▁equivalent 192
▁trauma 192
▁lift 192
▁ya 192
▁curious 192
litz 192
▁dennoch 192
fragen 192
reise 192
lösen 192
▁verteilt 192
▁Trick 192
▁Handlung 192
▁Stufe 192
▁puzzle 191
▁brief 191
▁safety 191
▁wheel 191
▁contract 191
▁pure 191
▁error 191
▁survival 191
az 191
▁cognitive 191
leiter 191
▁Norm 191
▁Annahme 191
▁Experimente 191
▁unterscheiden 191
▁Maus 191
▁Grenze 191
▁irgendetwas 191
schaftlichen 191
▁Korallen 191
▁mentioned 190
▁invention 190
▁admit 190
▁expected 190
▁businesses 190
▁dry 190
front 190
▁Mai 190
▁Unterhaltung 190
▁entspricht 190
▁stelle 190
muster 190
▁gemeinsame 190
▁vertrauen 190
▁Klang 190
▁organisiert 190
lässig 190
▁Mund 190
▁tiefer 190
▁Hör 190
falte 190
▁Chi 190
▁habit 189
▁28 189
▁laptop 189
▁disaster 189
▁ordinary 189
▁budget 189
▁lady 189
▁collection 189
▁steve 189
▁grandmother 189
▁chip 189
▁tail 189
▁cure 189
▁marine 189
▁command 189
▁öffnet 189
▁Norden 189
▁Gedächtnis 189
pflanzen 189
zukommen 189
▁wundervolle 189
▁existence 188
▁managed 188
▁designing 188
▁stood 188
▁filter 188
▁classic 188
where 188
▁george 188
back 188
▁increasingly 188
▁terrorist 188
▁Erkenntnis 188
▁präsent 188
▁Schnitt 188
▁Armen 188
preis 188
▁gehören 188
▁Mission 188
▁Sitz 188
▁roten 188
▁Erste 188
▁nano 187
▁practical 187
▁paul 187
▁circuit 187
▁prime 187
▁korea 187
▁galaxy 187
▁Restaurant 187
▁Investition 187
▁kennt 187
▁Wettbewerb 187
▁ernsthaft 187
▁Dach 187
▁künstliche 187
▁Fakten 187
▁angesehen 187
läuft 187
stimmung 187
▁Start 187
▁promot 186
▁losing 186
▁shake 186
▁ignore 186
▁wisdom 186
▁filled 186
▁lifetime 186
▁deeper 186
▁equation 186
▁zoom 186
▁liberal 186
freund 186
grab 186
▁reduzieren 186
istischen 186
▁Ausmaß 186
▁schlagen 186
▁Zitat 186
wähl 186
▁Bedürfnisse 186
▁gelesen 186
▁Eigentlich 186
durch 186
▁Absicht 186
▁gehabt 186
ulator 185
▁tomorrow 185
▁analog 185
▁release 185
▁initial 185
▁theater 185
▁meat 185
▁official 185
▁protest 185
▁transition 185
▁display 185
krise 185
▁meiste 185
▁zugänglich 185
Mi 185
▁Dokument 185
▁Steve 185
erkennung 185
▁trug 185
▁Schimpansen 185
▁Spiegel 185
▁England 185
▁ließen 185
▁Teilchen 185
theorie 185
Aber 185
▁Ober 185
▁resource 184
▁quantum 184
▁pray 184
▁encounter 184
▁ride 184
▁picked 184
▁considered 184
▁32 184
▁darwin 184
▁profession 184
▁forced 184
aries 184
▁Partei 184
▁UN 184
▁Vier 184
▁Nachbarn 184
▁vergleichen 184
▁zunächst 184
krankheit 184
▁Minute 184
effekt 184
▁kostenlos 184
▁management 183
▁observe 183
▁planning 183
▁orbit 183
▁homo 183
▁loud 183
▁speaker 183
▁canada 183
▁receive 183
▁26 183
▁schlau 183
▁Euro 183
▁Paul 183
▁besagt 183
bücher 183
▁Lektion 183
▁fehlt 183
▁Dinosaurier 183
▁dealing 182
▁killing 182
▁crack 182
sistent 182
▁contribute 182
▁opening 182
name 182
▁rocket 182
▁Atem 182
▁gehalten 182
▁verdient 182
▁hoffen 182
vermögen 182
▁entworfen 182
▁daß 182
▁Alternative 182
▁verbreiten 182
▁brachten 182
▁Schau 182
▁wieso 182
▁Streit 182
▁Toilette 182
▁Methoden 182
▁Galaxien 182
zentrum 182
ection 181
▁announce 181
▁string 181
▁feedback 181
▁weather 181
▁mirror 181
▁nervous 181
▁wondering 181
▁sweet 181
▁telescope 181
▁stock 181
▁advance 181
▁Doktor 181
plätze 181
▁inspirieren 181
kosten 181
▁Zell 181
▁Kerl 181
getragen 181
▁Innen 181
▁Wirkung 181
▁Trend 181
▁linken 181
▁Hinweis 181
▁Fu 181
▁Iran 181
▁judge 180
▁shut 180
▁tall 180
▁emotion 180
▁vaccine 180
▁load 180
▁orange 180
▁factory 180
▁chicken 180
▁hide 180
▁drin 180
▁Nigeria 180
▁definieren 180
▁gewählt 180
▁Katastrophe 180
▁Definition 180
▁nachhaltige 180
▁trägt 180
▁wunderschön 180
▁Garten 180
▁Feind 180
▁könnt 180
▁Metapher 180
sphäre 180
▁concern 179
▁involve 179
▁director 179
▁awful 179
▁maintain 179
▁2004 179
hey 179
▁hip 179
kar 179
▁embrace 179
maker 179
▁abuse 179
▁stupid 179
▁pill 179
▁bias 179
▁lawyer 179
▁electrical 179
▁fiction 179
▁polar 179
masse 179
▁doubt 179
▁[" 179
▁Ökonom 179
▁fähig 179
durchschnittlich 179
▁Jemand 179
▁fasziniert 179
▁echten 179
▁Linien 179
▁Beweise 179
aktiv 179
▁exact 178
▁accurate 178
▁silence 178
▁users 178
▁associated 178
▁empty 178
▁credit 178
▁member 178
▁Wohlstand 178
▁geändert 178
▁hergestellt 178
▁Zeitalter 178
heiratet 178
▁berühmt 178
▁allerdings 178
▁Null 178
▁Kranken 178
▁entgegen 178
▁heavy 177
▁buck 177
▁review 177
▁yesterday 177
▁120 177
▁tape 177
▁distribution 177
▁dumm 177
▁congress 177
▁empathy 177
▁Haufen 177
▁Gegensatz 177
▁erstaunliche 177
▁automatisch 177
▁beschlossen 177
▁Nationen 177
▁Summe 177
▁Chirurg 177
schrieb 177
haben 177
▁Klinik 177
▁facing 176
▁setting 176
▁testing 176
▁specifically 176
house 176
▁vessel 176
▁ethic 176
▁peak 176
iness 176
▁galaxies 176
▁symptom 176
▁establish 176
▁brauche 176
▁Nation 176
gebildet 176
▁Laut 176
▁Existenz 176
▁breite 176
▁Hinsicht 176
▁Gestalt 176
▁Australien 176
▁verbrachte 176
▁Kirche 176
▁Medikament 176
friend 175
▁kilometers 175
▁pocket 175
▁courage 175
▁essential 175
▁publish 175
▁clip 175
▁pleasure 175
team 175
▁launched 175
▁permanent 175
▁agriculture 175
▁addict 175
▁season 175
print 175
▁perfekte 175
▁entstanden 175
▁Riesen 175
▁Dimension 175
▁schickte 175
Nun 175
möglichkeiten 175
▁Viertel 175
ächte 175
▁Seine 175
▁Pferd 175
▁verschwinden 175
▁Lager 175
▁Moleküle 175
▁Schalt 175
▁Kreuz 175
▁erkennt 175
▁zentrale 175
▁Gesichter 175
▁Schatten 175
▁vermute 175
▁Verhältnis 175
▁Phase 175
▁Küche 175
▁rural 174
▁advanced 174
▁democratic 174
▁arrived 174
▁construction 174
▁85 174
▁epidemic 174
ographie 174
▁Umfeld 174
▁Weltraum 174
▁komisch 174
▁lernt 174
▁körperlich 174
▁Straf 174
▁analysis 173
▁army 173
▁spider 173
▁harvard 173
▁tele 173
▁2,000 173
▁flip 173
▁poet 173
feuer 173
▁leichter 173
▁begrenzt 173
▁Diagramm 173
▁abhängig 173
▁weibliche 173
▁zahlen 173
▁Laptop 173
▁berührt 173
▁Helden 173
räume 173
▁zunehmend 173
▁Folie 173
▁annehmen 173
▁Argument 173
hof 173
▁combination 172
▁extract 172
▁mathematical 172
▁mono 172
▁broke 172
▁instant 172
▁peer 172
▁shame 172
▁variety 172
▁saved 172
▁vulnerable 172
▁underneath 172
▁Kapital 172
▁bildet 172
▁Nachde 172
▁Acht 172
haltung 172
▁Hunderte 172
▁virtuelle 172
▁solch 172
▁George 172
technik 172
▁Geschenk 172
▁Schwierigkeiten 172
Ü 172
▁verschieden 172
▁dramatisch 172
▁skill 171
▁100,000 171
▁equipment 171
▁scared 171
▁replica 171
aufnahme 171
▁enorme 171
▁Gesamt 171
▁Gib 171
▁anwenden 171
▁nieder 171
fertig 171
▁studieren 171
▁Reich 171
▁Individuen 171
▁gelb 171
▁Kleidung 171
▁liebte 171
züge 171
gibt 171
▁Märkte 171
▁regard 170
▁label 170
▁consumption 170
▁evil 170
▁reject 170
▁gestern 170
▁Auswahl 170
▁deswegen 170
▁Köpfe 170
▁Eindruck 170
▁Erwachsene 170
▁Such 170
▁Molekül 170
streit 170
▁Laden 170
▁zusätzliche 170
▁corruption 169
down 169
▁height 169
▁fortunate 169
▁property 169
▁journal 169
spring 169
▁britain 169
▁protection 169
▁occasion 169
▁relation 169
haltig 169
▁Korruption 169
Na 169
werfen 169
▁Erlebnis 169
▁gründete 169
▁irgend 169
▁celebrate 168
▁worldwide 168
uh 168
▁joke 168
▁covered 168
▁southern 168
▁gang 168
▁danger 168
frau 168
▁fängt 168
versorgung 168
▁äußerst 168
▁gebraucht 168
▁geschickt 168
▁jährlich 168
▁vorne 168
schreiben 168
▁teure 168
▁beinahe 168
▁10.000 168
▁Besuch 168
▁Stattdessen 168
losigkeit 168
▁radikal 168
▁Ursache 168
▁mont 167
▁pole 167
▁roughly 167
▁processes 167
▁status 167
▁liquid 167
▁milk 167
▁transparent 167
kunde 167
▁klug 167
▁Anteil 167
▁Kombination 167
▁Wohnung 167
▁Organismen 167
▁erscheint 167
▁Erwachsenen 167
▁Persönlichkeit 167
▁ergibt 167
▁Bauch 167
▁Harvard 167
hielt 167
▁heißen 167
ridge 166
▁assumption 166
▁parallel 166
▁discuss 166
▁studio 166
▁distinct 166
▁importance 166
▁possibilities 166
▁molecule 166
spend 166
▁spannend 166
▁gestorben 166
▁akzeptieren 166
▁Zwischen 166
▁Besitz 166
▁Zuschauer 166
artikel 166
▁Wälder 166
▁Elemente 166
▁beliebt 166
▁Güte 166
▁beinhaltet 166
▁eindeutig 166
organisation 166
scale 165
▁implement 165
▁volume 165
▁relatively 165
▁participate 165
load 165
▁grid 165
▁rob 165
▁england 165
▁poetry 165
▁increasing 165
▁plate 165
▁abstract 165
▁march 165
▁preserv 165
▁gdp 165
▁2006 165
▁Juli 165
▁Elektrizität 165
▁dauern 165
▁Anruf 165
fahrer 165
▁Fälle 165
▁Lebewesen 165
▁Kanada 165
▁Prototyp 165
▁prä 165
▁Islam 165
▁Kenia 165
▁Sprech 165
▁reagiert 165
▁appreciate 164
▁handle 164
▁tribe 164
▁kitchen 164
▁manipulat 164
view 164
▁valuable 164
▁german 164
▁surgeon 164
ffizi 164
▁antwortete 164
▁Aussage 164
▁Räume 164
▁grundsätzlich 164
▁Privat 164
▁definiert 164
▁Webseite 164
▁umgeben 164
▁Israel 164
▁kaufte 164
▁Hilfs 164
▁Fels 164
▁üblich 164
▁Patent 164
▁Zauber 164
▁Multi 164
▁Vorfahren 164
▁warming 163
▁conservation 163
▁title 163
▁mammal 163
▁grad 163
▁convert 163
▁mexico 163
ibility 163
▁kar 163
▁dots 163
schränkung 163
flug 163
▁Schaf 163
▁zerstören 163
▁Sogar 163
▁besorgt 163
▁versteht 163
▁doppelt 163
arbeiter 163
▁Tonnen 163
▁entfernen 163
▁ungewöhnlich 163
▁Gerechtigkeit 163
▁chimpanzee 162
▁carefully 162
verbrauch 162
▁beschäftigen 162
▁aufzubauen 162
ermaßen 162
▁Innere 162
▁Mikroben 162
▁Kilo 162
▁individuelle 162
▁verbindet 162
▁Show 162
▁schätzen 162
▁Füße 162
▁cutting 161
▁mac 161
▁exception 161
▁richard 161
▁winter 161
▁witness 161
strategi 161
politik 161
▁solcher 161
▁saubere 161
▁Deutschland 161
▁ruhig 161
▁Buchstaben 161
züglich 161
▁Darstellung 161
zuhalten 161
▁entstand 161
▁Milch 161
▁Entfernung 161
40 160
aving 160
▁northern 160
▁hotel 160
▁japanese 160
▁whereas 160
▁chemistry 160
▁dimensions 160
▁consume 160
▁bike 160
till 160
▁sight 160
▁toilet 160
▁activities 160
▁Brennstoff 160
▁MIT 160
▁gelöst 160
▁steigt 160
▁darstellen 160
▁Szene 160
▁School 160
zwei 160
▁Roman 160
▁sexuelle 160
leiten 160
▁stattdessen 160
ville 159
▁historical 159
▁transportation 159
▁rapidly 159
▁quarter 159
▁infection 159
▁transfer 159
▁36 159
▁steel 159
▁generally 159
▁mention 159
▁academic 159
face 159
fusion 159
▁pakistan 159
▁healthcare 159
▁exam 159
▁dolphin 159
ologe 159
▁vermitteln 159
▁kurzem 159
▁darunter 159
▁Quanten 159
▁Irgendw 159
bringt 159
▁zählen 159
▁Theater 159
wissenschaftlich 159
▁Chemie 159
▁gewaltige 159
streben 159
wissenschaftler 159
▁Leider 159
▁fruit 158
▁emissions 158
▁grain 158
▁crop 158
▁firm 158
▁added 158
▁shall 158
▁cast 158
▁absorb 158
▁francisco 158
▁internal 158
foot 158
▁suppose 158
▁quasi 158
▁außen 158
wissen 158
▁mittlere 158
▁Damals 158
▁Kurve 158
▁kontrolliert 158
waffe 158
▁Teilnehmer 158
▁Interview 158
▁microbes 157
▁comfort 157
▁panel 157
▁habitat 157
▁pulled 157
▁mystery 157
▁lake 157
greg 157
▁definitely 157
will 157
▁criminal 157
▁demonstrate 157
▁incentive 157
▁battery 157
anne 157
▁Ereignisse 157
▁Nase 157
▁Risiken 157
▁Richard 157
▁ersetzen 157
Sequenz 157
▁Times 157
▁Plattform 157
▁Großmutter 157
▁Löcher 157
▁Wieso 157
▁besuchen 157
▁statement 156
▁cup 156
▁union 156
half 156
▁convinced 156
▁frank 156
▁decline 156
▁christian 156
▁physicist 156
▁33 156
▁rum 156
▁langfristig 156
▁Ausnahme 156
sländern 156
▁Sub 156
▁Hotel 156
▁Element 156
▁schlafen 156
▁Schaden 156
▁verfolgt 156
oberfläche 156
hütte 156
▁schwimmen 156
▁illustrat 155
▁affected 155
▁2001 155
▁nasa 155
▁inspiration 155
▁presentation 155
▁club 155
▁employees 155
▁mechanical 155
▁typically 155
▁client 155
▁relate 155
▁silk 155
▁opera 155
▁organized 155
▁released 155
80 155
▁prototype 155
▁molecular 155
▁route 155
▁Mehrheit 155
▁unbekannt 155
▁tötet 155
▁Sprach 155
träger 155
▁männliche 155
▁unendlich 155
▁Nano 155
▁Einstein 155
trägt 155
▁Flüchtlinge 155
▁Maßstab 155
▁length 154
▁introduce 154
▁effectively 154
▁conclusion 154
▁section 154
▁gravity 154
▁guard 154
philosoph 154
▁perceive 154
▁Farm 154
▁vermeiden 154
▁Debatte 154
gesellschaft 154
▁finanzielle 154
▁Zahn 154
▁Wetter 154
klasse 154
▁klinische 154
▁Blau 154
▁bush 153
▁critic 153
▁explanation 153
▁jail 153
▁Witz 153
▁Allgemein 153
▁Abfall 153
▁Betrieb 153
▁zusammenarbeite 153
▁Komponente 153
▁Strahl 153
▁Winter 153
▁überwinden 153
seitige 153
▁Zufall 153
schleunig 153
▁Darum 153
▁Südafrika 153
▁Moral 153
▁severe 152
▁prepared 152
▁fundamentally 152
▁radiation 152
▁par 152
▁psychological 152
stone 152
▁flies 152
▁educate 152
▁thin 152
▁alien 152
▁introduced 152
▁2011 152
▁rescue 152
▁Koch 152
schieben 152
▁liefern 152
▁gelebt 152
▁drüben 152
▁Stock 152
▁Planet 152
▁höre 152
▁Wechsel 152
▁bezeichnet 152
▁Tee 152
Al 152
▁Gleichung 152
▁Aktion 152
▁meaningful 151
▁script 151
▁privilege 151
▁physically 151
worm 151
▁swim 151
▁autism 151
▁pink 151
▁passionate 151
▁dank 151
▁zieht 151
gewicht 151
▁Teenager 151
dreht 151
▁leiten 151
▁Kongress 151
▁Mil 151
▁Darwin 151
▁klassische 151
▁Diagnose 151
▁Unterricht 151
▁technological 150
▁compete 150
▁engaged 150
▁amazon 150
▁queen 150
▁shadow 150
▁boom 150
▁spectrum 150
opho 150
▁privacy 150
▁steuern 150
▁Zehn 150
▁verhalten 150
▁Viren 150
leitung 150
▁heilen 150
▁scheinbar 150
▁schwach 150
lässt 150
▁mathematische 150
▁Brit 150
▁Schulter 150
gesellschaftlich 150
▁advice 149
▁finance 149
▁prediction 149
▁diver 149
▁apartment 149
▁elegant 149
▁properties 149
▁jack 149
▁barrier 149
▁teeth 149
▁2012 149
▁distribute 149
▁sphere 149
▁settle 149
▁schwarz 149
ierbar 149
▁Fahrrad 149
▁gebeten 149
▁erweitern 149
ücken 149
▁empfinde 149
geworfen 149
▁Rasse 149
▁Spezial 149
kleid 149
▁Echtzeit 149
▁Könnte 149
▁republic 148
▁dish 148
▁propose 148
▁rip 148
▁700 148
▁mile 148
▁library 148
▁appropriate 148
▁aggressiv 148
▁flog 148
▁deserve 148
▁penguin 148
▁Ruf 148
▁bietet 148
▁gegründet 148
▁Neben 148
matisch 148
▁Jugendliche 148
▁Immer 148
▁Option 148
▁Geistes 148
▁Francisco 148
▁Flasche 148
▁endet 148
▁aufgebaut 148
▁jünger 148
▁2003 147
▁acid 147
▁phrase 147
▁circumstance 147
▁rush 147
▁robust 147
▁naturally 147
▁emerging 147
▁primary 147
▁NASA 147
schiff 147
▁Dutzend 147
▁darstellt 147
▁erschien 147
▁erfuhr 147
▁sammelt 147
▁durfte 147
fühle 147
größe 147
▁gefangen 147
▁gewann 147
▁verstehe 147
▁britische 147
▁Training 147
▁terrorism 146
▁pilot 146
▁producing 146
▁escape 146
▁lecture 146
▁illusion 146
▁atoms 146
▁implant 146
▁intention 146
level 146
gemacht 146
▁Potential 146
▁Respekt 146
▁Rakete 146
▁Präsentation 146
▁Bedrohung 146
▁Wesentlichen 146
▁hieß 146
▁Überraschung 146
kunft 146
▁Übung 146
▁Bombe 146
▁Therapie 146
▁Literatur 146
▁verletzt 146
▁Werbung 146
▁Gemälde 146
▁Amazon 146
▁übernehmen 146
boden 146
▁Fehl 146
▁langweilig 146
▁mutig 146
▁Billionen 146
▁urge 145
▁accomplish 145
▁harvest 145
▁800 145
shirt 145
▁exploration 145
▁confront 145
▁stretch 145
▁lens 145
flat 145
▁storm 145
audio 145
▁ritual 145
▁exo 145
▁lebe 145
▁sparen 145
▁Ehre 145
▁Kommentar 145
Mein 145
▁Transport 145
▁Angriff 145
▁Ausstellung 145
▁Batterie 145
▁wiederholt 145
▁Student 145
verhalten 145
▁englische 145
▁Blase 145
▁Zweifel 145
bindung 145
▁Weltkrieg 145
amerikanisch 145
▁convince 144
▁clothes 144
▁sculpture 144
▁diverse 144
▁transplant 144
▁therapy 144
▁fake 144
▁lion 144
schmerz 144
▁Kredit 144
▁Heim 144
▁stehe 144
▁verließ 144
▁kreieren 144
▁Mexiko 144
▁vorzustellen 144
▁Anreiz 144
▁geteilt 144
▁kollektive 144
▁limb 143
▁staff 143
making 143
▁busy 143
▁nest 143
▁literature 143
▁musician 143
▁assign 143
profit 143
▁laboratory 143
▁afternoon 143
▁swimming 143
▁youtube 143
gerufen 143
▁Wurzel 143
▁beeindruckend 143
▁Spielzeug 143
▁Russland 143
orientiert 143
▁enthält 143
▁berichtet 143
▁Klar 143
▁antworte 143
▁Metall 143
wohl 143
▁aufgewachsen 143
▁Haushalt 143
▁Schließlich 143
urchschnittliche 143
▁Decke 143
▁Kampagne 143
▁Völker 143
▁Eier 143
▁linear 142
▁agent 142
▁welcome 142
▁clock 142
▁biologist 142
▁strip 142
▁pipe 142
▁confidence 142
▁charles 142
▁constant 142
▁dramatic 142
▁mortality 142
▁brave 142
▁graphic 142
▁eröffnet 142
▁Verbesserung 142
▁Nächste 142
nehmer 142
▁Ohne 142
▁Anführer 142
▁Rezept 142
▁Fast 142
straße 142
▁Ähnlich 142
▁Dafür 142
▁gespielt 142
▁Magazin 142
▁gebrochen 142
▁Charles 142
▁Dritte 142
▁Lücke 142
▁seitdem 142
▁Infektion 142
▁integrate 141
▁brutal 141
▁sophisticated 141
▁evolutionary 141
▁tank 141
▁observation 141
▁flexible 141
▁collaboration 141
▁toxic 141
play 141
▁percentage 141
immer 141
trick 141
▁beteiligt 141
▁gefällt 141
▁Angestellte 141
▁Danach 141
▁DNS 141
▁Stuhl 141
▁wütend 141
▁Spektrum 141
weiß 141
▁Alltag 141
▁verstand 141
▁viruses 140
▁analyze 140
▁awareness 140
▁underwater 140
▁branch 140
▁manufacturing 140
glas 140
▁ladies 140
fish 140
▁drone 140
▁beschrieben 140
ordnung 140
▁fährt 140
▁drauf 140
gewiesen 140
medizin 140
▁löst 140
▁Frank 140
▁bemerken 140
▁Gegenwart 140
▁Flagge 140
▁paris 139
▁disrupt 139
▁bug 139
▁angry 139
▁neural 139
▁chicago 139
▁govern 139
▁reference 139
▁chapter 139
version 139
▁phase 139
▁psychology 139
▁deck 139
▁betroffen 139
▁dahinter 139
▁reduziert 139
▁basierend 139
▁Anstatt 139
▁wünsche 139
▁günstig 139
▁Belohnung 139
▁furchtbar 139
groß 139
ruhe 139
▁merken 139
▁Unfall 139
▁sinnvoll 139
▁erkannt 139
▁wrap 138
▁hoping 138
▁29 138
▁fiber 138
▁spiritual 138
▁nerve 138
▁dropped 138
▁unknown 138
▁Nutzung 138
▁Scham 138
▁kriegen 138
▁psychische 138
▁mochte 138
▁froh 138
▁Weiter 138
▁dunkel 138
▁Klassenzimmer 138
ifiziert 138
▁pollution 137
▁split 137
▁applied 137
▁repair 137
▁infinite 137
▁medium 137
▁plot 137
▁unusual 137
▁predator 137
sahara 137
▁ingredient 137
▁memories 137
▁Bevor 137
▁Zunächst 137
▁Voll 137
▁feststellen 137
▁lediglich 137
▁zählt 137
▁Gro 137
▁Tour 137
▁Schlange 137
▁erwachsen 137
▁Algorithmen 137
▁erneut 137
▁Mio 137
▁SMS 137
▁hydrogen 136
▁bond 136
▁intense 136
ifying 136
▁reverse 136
▁hunger 136
▁michael 136
▁behave 136
▁james 136
▁physician 136
▁challenging 136
▁geistige 136
▁fein 136
▁Dia 136
▁kümmert 136
▁dünn 136
Hey 136
läufe 136
▁trinken 136
▁reisen 136
▁fremd 136
schlaf 136
sammlung 136
▁wachsende 136
▁Blatt 136
▁schuf 136
▁Störung 136
▁Magnet 136
ländische 136
▁Galaxie 136
▁Afrikaner 136
▁Überzeugung 136
▁calculate 135
▁pile 135
▁neither 135
▁license 135
▁hypo 135
▁favor 135
▁romantic 135
technolog 135
▁edit 135
▁style 135
▁potent 135
▁stieg 135
▁birthday 135
▁commun 135
▁eastern 135
studie 135
▁Anderson 135
▁wüsste 135
▁Aufbau 135
▁getrennt 135
▁überlebt 135
▁Rock 135
▁Kabel 135
▁Chemikalien 135
▁tödlich 135
▁Magie 135
▁Spinne 135
▁Sechs 135
▁Chicago 135
▁Geburtstag 135
▁visible 134
▁complain 134
▁bicycle 134
▁instruction 134
▁commitment 134
▁productive 134
▁pour 134
▁latin 134
▁titan 134
▁rhythm 134
▁beibringen 134
▁kaputt 134
Tech 134
▁World 134
liegende 134
▁wechseln 134
▁erforscht 134
wickelt 134
▁Alzheimer 134
▁industrielle 134
▁schlug 134
▁startete 134
gebung 134
▁Deswegen 134
▁sustain 133
▁equally 133
▁attitude 133
▁concrete 133
▁alzheimer 133
▁telephone 133
ckel 133
▁false 133
▁file 133
▁christmas 133
▁Schuhe 133
▁wofür 133
▁investiert 133
▁Presse 133
▁ausgebildet 133
▁besitzt 133
▁Wände 133
▁Potenzial 133
▁dargestellt 133
▁Teufel 133
▁regelmäßig 133
▁Stahl 133
▁Schicksal 133
Also 133
long 132
▁globe 132
,500 132
▁framework 132
▁domestic 132
▁improvement 132
▁struck 132
▁painful 132
▁password 132
▁magnet 132
▁Terrorismus 132
▁Anders 132
▁Nachbarschaft 132
schirm 132
▁Beobachtung 132
▁Michael 132
▁Sterbe 132
▁Verstehen 132
product 131
▁sail 131
▁sunlight 131
motiv 131
▁weigh 131
▁drill 131
▁defense 131
▁editor 131
▁flash 131
▁pregnant 131
liste 131
▁Mangel 131
▁Schnee 131
▁Analyse 131
▁Photo 131
▁Hallo 131
▁erfüllt 131
▁geholfen 131
Scan 131
▁hinunter 131
▁Bibliothek 131
▁erhöhen 131
schließt 131
gewinn 131
▁Führer 131
▁Autismus 131
trauen 131
▁Pinguin 131
▁BG 131
▁3,000 130
▁steal 130
▁5,000 130
▁pacific 130
▁commit 130
▁violent 130
▁france 130
▁pitch 130
▁cortex 130
▁computation 130
▁retire 130
▁lying 130
▁historische 130
gesetz 130
▁ansieht 130
▁Mobil 130
▁vorsichtig 130
▁knapp 130
▁grundlegend 130
gelöst 130
▁James 130
▁beispielsweise 130
▁drücken 130
▁dynamisch 130
▁Ohren 130
▁Zähne 130
▁Antibiotika 130
▁unterrichten 130
▁Pfund 130
▁Verbrechen 130
▁anderson 129
▁ought 129
▁smoke 129
▁nick 129
▁narrow 129
▁trigger 129
▁scratch 129
▁nowhere 129
▁intervention 129
▁suck 129
▁humor 129
▁grandfather 129
▁psychologist 129
▁37 129
▁angle 129
▁tonight 129
▁proportion 129
▁reserve 129
▁centuries 129
▁contrast 129
▁demokratische 129
kurs 129
▁Paris 129
verkehr 129
▁Chef 129
▁Box 129
▁bekomme 129
zeichnung 129
▁Stammzellen 129
▁Talent 129
▁solange 129
▁lachen 129
▁Kopie 129
▁Tor 129
▁Rettung 129
▁BIP 129
▁iPhone 129
lusion 128
▁compar 128
media 128
▁destruction 128
▁frankly 128
▁equality 128
▁boring 128
american 128
strom 128
▁variation 128
▁mosquito 128
▁awesome 128
hoo 128
▁syria 128
gestalt 128
▁Inspiration 128
▁sowas 128
▁spüren 128
▁Zeichnung 128
sequenz 128
▁Extrem 128
▁merkte 128
▁vorbereitet 128
▁Sonnensystem 128
▁Open 128
▁neugierig 128
wache 128
▁thick 127
▁$1 127
▁september 127
▁citizen 127
▁cents 127
▁inspire 127
▁dancing 127
▁prince 127
▁ultimate 127
▁ruin 127
▁occurred 127
▁greek 127
▁horrible 127
▁invite 127
▁primitive 127
▁vital 127
▁providing 127
▁knee 127
▁balloon 127
▁organize 127
▁cloth 127
▁deploy 127
▁secure 127
▁brach 127
▁teilweise 127
▁verursachen 127
▁Fokus 127
▁Wann 127
▁Konsum 127
▁wünschte 127
▁Asien 127
▁Angeles 127
▁Kapitel 127
▁pool 126
▁presence 126
book 126
ounce 126
▁download 126
▁curiosity 126
▁2050 126
▁suspect 126
▁comic 126
▁adam 126
▁bizarre 126
▁tunnel 126
Dollar 126
▁irgendjemand 126
stellungskraft 126
geschäft 126
▁Schlacht 126
▁schreibt 126
▁University 126
▁bekämpfen 126
▁Ruhe 126
▁Pilz 126
▁Mäuse 126
▁Wagen 126
„ 126
▁Krankenhäuser 126
▁Sichtweise 126
▁wählt 126
förmig 126
lehnen 126
▁Behinderung 126
▁cash 125
▁boston 125
▁computing 125
▁manufacture 125
▁2015 125
▁discipline 125
▁attend 125
▁cheat 125
▁Bord 125
▁Widerstand 125
pflege 125
▁Zerstörung 125
▁weshalb 125
▁zufrieden 125
▁wunderschöne 125
▁Denkweise 125
▁Impfstoff 125
▁Verfahren 125
▁liefert 125
▁Grippe 125
▁böse 125
▁Obama 125
▁grateful 124
▁efficiency 124
▁rapid 124
▁paradigm 124
▁motivate 124
▁creature 124
▁passive 124
▁cord 124
▁evolve 124
▁dominant 124
▁desperate 124
▁murder 124
igne 124
▁scholar 124
trug 124
fragt 124
▁Terror 124
▁gekauft 124
▁unmittelbar 124
▁kämpft 124
▁Männchen 124
▁lehrt 124
fällt 124
▁treiben 124
▁heisst 124
▁Top 124
▁Homo 124
▁Vorhersage 124
▁Prinzipien 124
▁Konsequenzen 124
gefähr 124
▁Blind 124
▁legitim 123
▁transmit 123
▁motivation 123
▁kilo 123
▁resistance 123
▁piano 123
▁angeles 123
▁silent 123
▁navigat 123
▁stereo 123
▁dramatically 123
▁Strand 123
▁Treffen 123
▁befreien 123
▁städtische 123
▁gestaltet 123
stiegen 123
▁Futter 123
▁Mauer 123
▁gelangt 123
▁Chaos 123
▁berühren 123
▁Verlauf 123
▁verlangt 123
▁flach 123
▁Außer 123
▁Ideal 123
▁bedroht 123
▁Fremden 123
▁begegnen 123
▁revenue 122
▁capitalism 122
▁regime 122
dependent 122
▁sweat 122
▁sustainability 122
▁miracle 122
▁55 122
▁fabric 122
▁hydro 122
▁authority 122
▁depth 122
▁medication 122
▁regret 122
omi 122
▁aufgeregt 122
▁dankbar 122
▁Freiwillige 122
▁verglichen 122
▁Säugetier 122
▁Sonnenlicht 122
▁zwang 122
kamera 122
▁Tätigkeit 122
geschwindigkeit 122
leuchtet 122
▁Bürgermeister 122
▁lehren 122
▁Teleskop 122
▁Erinnern 122
▁genügend 122
▁organisieren 122
▁verschwunden 122
▁ökologisch 122
▁Ereignis 122
▁Seide 122
▁europäische 122
▁Flügel 122
▁flood 121
▁rice 121
▁vertical 121
▁corporate 121
▁housing 121
▁knock 121
▁geographic 121
▁phenomena 121
keep 121
▁greenhouse 121
▁activist 121
meister 121
▁punish 121
▁obama 121
einheit 121
▁ländliche 121
▁gründen 121
küste 121
tief 121
▁Street 121
▁Versorgung 121
▁Science 121
▁berühmte 121
▁exakt 121
▁genetische 121
▁Ursprung 121
reißen 121
▁General 121
▁Pakistan 121
▁Wach 121
▁Kiste 121
Spiel 121
▁judgment 120
▁gray 120
▁conventional 120
▁unexpected 120
▁policies 120
▁microscope 120
▁Wäre 120
▁wiederholen 120
▁reiste 120
produktion 120
behörde 120
▁genießen 120
▁fließen 120
▁gesammelt 120
▁enthalten 120
▁Entwurf 120
▁Boston 120
▁Fett 120
▁Verletzung 120
▁Skelett 120
▁nachgedacht 120
gefasst 120
▁wovon 120
▁Ya 120
▁Wikipedia 120
▁Titan 120
▁stoppen 120
▁Nahe 120
▁dioxide 119
▁thomas 119
▁defend 119
▁hook 119
▁solving 119
ax 119
▁careful 119
▁magnetic 119
school 119
▁overcome 119
▁causing 119
▁genius 119
▁virgin 119
▁exhibition 119
▁antibiotics 119
▁hormone 119
▁Darüber 119
▁Rauch 119
▁Meister 119
▁mittels 119
▁Sicher 119
Wissen 119
▁kognitive 119
▁Blätter 119
Y 119
schalt 119
Auf 119
▁worauf 119
▁nervös 119
▁elektronische 119
▁Frankreich 119
System 119
▁Weisheit 119
▁Symptome 119
▁Studierende 119
▁leap 118
▁wireless 118
▁exploit 118
▁trace 118
▁olympic 118
▁constrain 118
▁Einzelne 118
▁Jugend 118
▁verdammt 118
▁Wärme 118
▁Kategorie 118
▁spezifische 118
▁Kugel 118
nutzer 118
▁Chip 118
▁Bestandteil 118
▁Fertig 118
▁Plötzlich 118
▁Dreh 118
▁Ängste 118
▁YouTube 118
▁recommend 117
▁flew 117
clusive 117
▁correspond 117
▁wikipedia 117
▁heaven 117
▁expectations 117
▁42 117
held 117
frage 117
▁freue 117
anstalt 117
▁Kolonie 117
▁neigen 117
▁Skulptur 117
▁verliebt 117
▁Ausgang 117
▁gerettet 117
▁Heutzutage 117
ebene 117
▁Schwimm 117
▁ewig 117
▁Ungleichheit 117
schön 117
▁pose 116
▁committed 116
▁scream 116
▁inject 116
▁authentic 116
graph 116
▁objective 116
▁gps 116
▁frisch 116
▁Wirklich 116
▁Verwendung 116
▁Marketing 116
methode 116
▁Fantasie 116
▁alltäglich 116
▁Wichtigste 116
▁heutige 116
▁Tele 116
glücklicherweise 116
▁physikalische 116
▁wahrnehmen 116
▁haiti 115
▁190 115
▁2020 115
▁audit 115
▁alarm 115
▁horizontal 115
▁pretend 115
▁extent 115
▁rising 115
▁identical 115
▁fluid 115
▁arrest 115
▁federal 115
▁philosopher 115
▁candidate 115
▁tweet 115
▁glamour 115
▁insbesondere 115
▁Thomas 115
▁infiziert 115
▁Studio 115
▁tanzen 115
▁erweitert 115
▁veröffentlichen 115
▁merkwürdig 115
▁konfrontiert 115
▁GPS 115
▁Status 115
▁Nachhaltigkeit 115
▁Farb 115
▁produktiv 115
▁Neugier 115
▁Serie 115
▁Schweine 115
▁anpassen 115
▁Tauch 115
▁thumb 114
▁ugly 114
▁automatically 114
▁consistent 114
▁exploring 114
▁feminist 114
▁gulf 114
▁Gebrauch 114
▁Budget 114
▁erfüllen 114
▁taucht 114
▁Enkel 114
▁Sorge 114
▁psychologische 114
▁Angebot 114
▁zurückkehren 114
heiß 114
▁Fang 114
▁öfter 114
▁technologische 114
▁rufen 114
▁eingeladen 114
▁unterwegs 114
geborene 114
▁Adam 114
▁airport 113
▁colleague 113
▁ceo 113
▁continuous 113
▁blame 113
▁database 113
▁emergency 113
▁conclude 113
▁external 113
▁philosophy 113
▁quot 113
▁grave 113
▁neutral 113
▁chocolate 113
▁conservative 113
▁obsessed 113
▁ridiculous 113
▁recognition 113
▁carried 113
▁stack 113
osphere 113
▁crucial 113
▁Kritik 113
▁betreiben 113
▁Verbreitung 113
▁Naja 113
▁betrieben 113
stamm 113
▁besessen 113
Projekt 113
▁Großvater 113
▁Illusion 113
▁lächerlich 113
basierte 113
▁Ritual 113
▁Ägypten 113
▁Privatsphäre 113
▁corporation 112
▁immense 112
▁scenario 112
▁lifestyle 112
related 112
▁twin 112
▁native 112
▁honey 112
evolution 112
▁adjust 112
▁controlled 112
▁loop 112
▁animation 112
▁council 112
▁asteroid 112
▁manifest 112
▁anxiety 112
Okay 112
▁hinterlassen 112
▁befand 112
▁mechanisch 112
fährt 112
▁Trotzdem 112
schlecht 112
gehört 112
änderung 112
▁überlegt 112
▁Gemüse 112
geschnitten 112
gehalten 112
▁Muslime 112
▁spiele 112
▁wisst 112
▁verliert 112
▁Einrichtungen 112
▁instinct 111
▁cooperation 111
▁distant 111
▁tight 111
▁cluster 111
lips 111
▁cyber 111
▁arctic 111
▁breed 111
▁inequality 111
▁refuse 111
kapital 111
” 111
spitze 111
▁landete 111
▁International 111
▁Renn 111
▁beschreibt 111
▁Herstellung 111
▁jegliche 111
▁ernähren 111
▁versorgen 111
▁Brustkrebs 111
▁könne 111
▁Hitze 111
▁süß 111
▁Geschmack 111
▁optimistisch 111
▁Schauspieler 111
▁Verkauf 111
▁Umfrage 111
▁fotografiert 111
▁Kreatur 111
▁Dadurch 111
▁corn 110
▁robert 110
▁engaging 110
▁raising 110
▁350 110
▁strike 110
▁shelter 110
▁productivity 110
▁agency 110
▁district 110
▁incident 110
▁routine 110
▁plenty 110
▁margin 110
▁procedure 110
firma 110
▁Robert 110
flüge 110
▁hinzufügen 110
▁Umgang 110
gängig 110
region 110
▁sozial 110
fotograf 110
▁Treppe 110
▁komplex 110
▁gezwungen 110
grafische 110
aktivität 110
▁Hacker 110
▁economies 109
▁agenda 109
▁engagement 109
▁infected 109
▁fortune 109
▁rebuild 109
▁drove 109
▁fascinated 109
▁properly 109
▁portrait 109
▁exponential 109
▁earthquake 109
▁obstacle 109
▁disgust 109
▁geschützt 109
▁Spannung 109
▁aussah 109
▁Nadel 109
▁stirbt 109
unterricht 109
▁offenbar 109
▁Staub 109
▁Mobiltelefon 109
▁Zentral 109
Aktivist 109
gespräch 109
▁renewable 108
▁frog 108
called 108
▁compound 108
▁column 108
▁plug 108
▁underground 108
▁slip 108
free 108
script 108
▁gentlemen 108
▁orient 108
▁rwanda 108
hirn 108
▁pyramid 108
▁Haiti 108
wünscht 108
▁staatliche 108
▁Papa 108
▁Dün 108
▁Süß 108
▁erfand 108
ähnliche 108
objekt 108
▁logisch 108
▁Böse 108
▁Population 108
▁Erdbeben 108
▁isoliert 108
▁Psychologie 108
▁Symmetrie 108
▁january 107
▁minimal 107
▁footprint 107
▁kingdom 107
▁wise 107
conscious 107
▁household 107
▁diagram 107
▁surveillance 107
▁isolated 107
faktor 107
▁Mögliche 107
gelenk 107
▁kreiert 107
teressanterweise 107
▁Dörfer 107
stunde 107
▁Philosophie 107
▁Zurück 107
▁Verlangen 107
▁Flüssigkeit 107
gebunden 107
▁Richter 107
▁Löwen 107
▁Darm 107
▁Dienstleistung 107
▁Chinesen 107
▁fragment 106
▁regulation 106
▁legacy 106
modul 106
▁granted 106
▁guarantee 106
▁mathematician 106
▁confident 106
▁neck 106
á 106
▁synchron 106
▁Januar 106
▁Erfinder 106
▁finanziert 106
▁angenehm 106
▁Tempo 106
▁Polizist 106
▁vernünftig 106
▁Island 106
▁Schriftsteller 106
▁Fundament 106
▁Übergang 106
▁hindurch 106
meldet 106
▁beendet 106
▁Comic 106
▁Sektor 106
▁Terroristen 106
▁ghana 105
▁1998 105
▁opposed 105
▁distract 105
▁request 105
▁rabbi 105
▁positiv 105
▁hässlich 105
▁Motivation 105
▁stammen 105
▁Anstieg 105
▁Anpassung 105
▁integriert 105
▁gemessen 105
▁Lebenserwartung 105
▁Matt 105
chirurg 105
▁Überwachung 105
▁Geruch 105
▁Bibel 105
rabischen 105
▁paradox 104
▁backwards 104
▁obesity 104
▁rainforest 104
▁chief 104
▁sharp 104
▁herself 104
▁bun 104
▁hungry 104
▁suicide 104
▁silicon 104
▁exposed 104
▁martin 104
▁optimistic 104
▁affair 104
▁stroke 104
▁viral 104
▁Logik 104
glück 104
▁irgendwelche 104
▁Besondere 104
▁wirksam 104
▁Weibchen 104
▁bedeckt 104
stufe 104
plikation 104
▁Stämme 104
▁trocken 104
▁Animation 104
▁ignorieren 104
▁Schwelle 104
▁Alpha 104
▁Brüder 104
▁Onkel 104
▁Nachfrage 104
▁Einwohner 104
▁Impuls 104
▁Gipfel 104
▁chromosome 103
▁depressed 103
▁poison 103
▁neuroscience 103
frequent 103
▁floating 103
▁transparency 103
▁senior 103
▁yield 103
▁2030 103
▁clue 103
▁decrease 103
▁adventure 103
▁diagnosed 103
▁Kapitalismus 103
▁Zivil 103
▁sorgt 103
▁Pilot 103
hundert 103
▁oberen 103
▁erfordert 103
▁reparieren 103
▁Italien 103
▁Ehemann 103
männer 103
▁Laser 103
▁Gleichgewicht 103
▁vegetable 102
▁blank 102
▁diabetes 102
▁explosion 102
▁commission 102
▁consult 102
computer 102
generation 102
▁ceiling 102
▁initiative 102
▁football 102
field 102
▁activate 102
läufig 102
▁ökonomische 102
▁letztlich 102
▁zwingen 102
▁gewöhnt 102
▁verlor 102
▁angepasst 102
streu 102
▁unerwartet 102
▁Strecke 102
▁gestartet 102
▁gefährdet 102
▁umgekehrt 102
▁Empathie 102
kontakt 102
▁korrekt 102
▁Videospiele 102
▁accessible 101
▁borrow 101
▁excuse 101
▁hardware 101
▁polio 101
▁indicate 101
dollar 101
third 101
▁furniture 101
▁appeal 101
▁insurance 101
▁minus 101
▁autonomous 101
▁enemy 101
▁disagree 101
▁frozen 101
▁dedicated 101
▁ethiopia 101
▁dringend 101
▁Eigenschaft 101
▁getestet 101
▁Nahrungsmittel 101
▁Schöne 101
▁vielmehr 101
▁analysieren 101
▁identifizieren 101
▁geeignet 101
physik 101
erkrankung 101
▁Martin 101
▁Bewohner 101
▁Maßnahmen 101
▁Angelegenheit 101
▁feiern 101
▁Hals 101
▁1999 100
▁manhattan 100
century 100
▁anonymous 100
▁subtle 100
▁recycle 100
▁colony 100
invasiv 100
▁facial 100
▁Anstrengung 100
▁Dennoch 100
▁Schätzung 100
▁erwähnen 100
▁Waffe 100
▁verstecken 100
▁ausgewählt 100
steht 100
▁atlantic 99
▁universities 99
▁synthetic 99
▁microsoft 99
▁gesture 99
yeah 99
▁uncomfortable 99
▁dignity 99
▁struggling 99
▁reduction 99
▁formula 99
▁mutation 99
▁utter 99
▁concert 99
▁higgs 99
▁Hügel 99
gesundheit 99
brachte 99
▁ignoriert 99
▁Vermögen 99
▁entwarf 99
▁Bedarf 99
▁stets 99
▁verblüffend 99
▁Schweden 99
▁herrscht 99
▁erledigen 99
▁Dunkelheit 99
ändern 99
▁Schweiz 99
X 99
▁Schädel 99
▁stimmen 99
farben 99
▁Panik 99
▁strategies 98
▁craft 98
▁fifth 98
▁bump 98
▁embedded 98
▁mimic 98
▁reputation 98
▁texas 98
▁anonym 98
ponent 98
▁2014 98
▁mushroom 98
▁schief 98
▁politisch 98
entwicklung 98
▁Ghana 98
▁Niveau 98
▁Schnell 98
▁Original 98
▁Irr 98
▁Dialog 98
▁Tränen 98
empfindlich 98
▁Knopf 98
▁füllen 98
▁Schlechte 98
▁Normalerweise 98
▁Eigentum 98
häuser 98
▁örtliche 98
▁Klavier 98
▁Flüchtling 98
▁Nordamerika 98
▁Mikroskop 98
▁seht 98
▁Gehör 98
▁entertainment 97
▁agricultural 97
▁measuring 97
▁arrive 97
▁stanford 97
ggle 97
▁drift 97
▁tragedy 97
▁pause 97
▁passenger 97
▁Rohstoff 97
wichtig 97
würfe 97
greift 97
▁Microsoft 97
städte 97
▁Stanford 97
▁jüngste 97
unwahrscheinlich 97
▁Ziege 97
sterblichkeit 97
▁vierte 97
▁Neuigkeiten 97
▁Pflanze 97
tschaftswachstum 97
▁Higgs 97
▁Pollen 97
▁freak 96
▁soviet 96
▁happier 96
▁demographic 96
▁tackle 96
▁Doppel 96
▁Juni 96
▁insgesamt 96
stätte 96
▁nachdenkt 96
▁hilfreich 96
▁anscheinend 96
▁Diabetes 96
▁Selbstmord 96
▁Linse 96
▁Medium 96
▁benutze 96
▁fließt 96
verhältnis 96
▁schmerzhaft 96
▁Vergnügen 96
▁restrict 95
▁simplicity 95
▁sacred 95
▁particle 95
▁skeleton 95
▁mask 95
▁spill 95
▁absurd 95
▁description 95
▁shore 95
▁weapon 95
▁intuition 95
▁tragic 95
strafe 95
▁Sprung 95
zählen 95
▁Organismus 95
bedarf 95
▁Größenordnung 95
▁geöffnet 95
▁Speicher 95
▁Egal 95
▁Salz 95
▁Valley 95
▁Käfer 95
Source 95
▁Tragödie 95
Jährige 95
▁angemessen 95
▁Praxis 95
▁Erkenntnisse 95
▁ensure 94
▁acknowledge 94
▁vietnam 94
▁fulfill 94
kilometer 94
▁schizophren 94
elect 94
▁parliament 94
▁slavery 94
floss 94
▁deutsche 94
▁herausfand 94
brüche 94
▁Ernst 94
kämpfe 94
▁Gegenstände 94
▁Übrigens 94
▁molekulare 94
▁anbieten 94
▁Heilung 94
drängt 94
▁fliegt 94
▁Ausrüstung 94
▁Letztes 94
▁Front 94
▁abstrakte 94
▁Alkohol 94
▁Röntgen 94
schränke 94
▁exponentiell 94
▁repräsentiert 94
▁Parlament 94
▁Vorurteile 94
▁freundlich 94
▁Ruanda 94
▁Delfin 94
▁democrat 93
cellular 93
▁afterwards 93
▁dictionary 93
▁figuring 93
▁simulation 93
▁william 93
▁reconstruct 93
▁governance 93
▁mild 93
phase 93
stadium 93
▁vagina 93
▁uganda 93
▁Studium 93
▁Auftrag 93
▁Gelände 93
▁verbraucht 93
▁Griechen 93
▁Humor 93
unterschied 93
▁Feedback 93
▁Branche 93
▁Bedürfnis 93
▁Lächeln 93
▁Reichtum 93
▁Transparenz 93
▁Beitrag 93
▁bewahren 93
▁motiviert 93
drehen 93
▁Verwandte 93
▁contribution 92
▁nutrition 92
▁immediate 92
▁terror 92
▁afghan 92
▁sketch 92
▁suburb 92
▁infant 92
▁twenty 92
▁boundaries 92
▁theories 92
▁mount 92
▁spectacular 92
▁twist 92
▁sensation 92
▁definitiv 92
spezifisch 92
sammeln 92
▁sorgfältig 92
▁Party 92
gebrauch 92
▁Explosion 92
▁dauerhaft 92
Audio 92
bleiben 92
▁Höhepunkt 92
▁französische 92
▁William 92
▁unangenehm 92
▁Befehl 92
Technologie 92
▁Priorität 92
▁Kreislauf 92
▁verringern 92
▁Apfel 92
▁unterrichtet 92
▁Gletscher 92
▁Bürgerkrieg 92
▁Weihnachts 92
▁Töchter 92
▁acquire 91
▁institutional 91
▁partnership 91
▁skeptic 91
▁champion 91
▁beetle 91
▁sandwich 91
▁domain 91
▁demonstration 91
▁ignorance 91
▁substance 91
▁circa 91
▁profile 91
▁whistle 91
platte 91
▁Level 91
▁Kohlendioxid 91
▁erstmals 91
▁jeweils 91
▁Väter 91
kreuz 91
▁Nährstoffe 91
▁Schokolade 91
▁Gemeinsam 91
Journal 91
▁Sammlung 91
▁beschleunigt 91
ifikation 91
▁Blickwinkel 91
▁Kooperation 91
▁Fußball 91
▁Hormon 91
▁programmieren 91
▁Initiative 91
▁erfasst 91
gestoßen 91
▁Lärm 91
second 90
▁breakthrough 90
▁1995 90
▁helicopter 90
▁industries 90
▁interconnect 90
resistant 90
▁enhance 90
▁smooth 90
▁identified 90
▁turkey 90
▁jewish 90
▁inspiring 90
▁slave 90
▁disappoint 90
▁excellent 90
▁1994 90
▁grace 90
▁Abendessen 90
▁Daumen 90
▁diskutieren 90
▁inklusive 90
▁Merk 90
▁Hölle 90
▁Polio 90
▁Manhattan 90
▁klingen 90
brecher 90
▁heiraten 90
▁Produktivität 90
▁Texas 90
▁Disziplin 90
▁Act 90
▁Abenteuer 90
▁südlich 90
▁identisch 90
▁systematisch 90
▁calculation 89
▁fragile 89
▁textbook 89
▁resolve 89
▁mysterious 89
▁skull 89
▁translation 89
▁confirm 89
▁fraction 89
▁systematic 89
▁Effizienz 89
günstig 89
▁Prüfung 89
▁gelehrt 89
▁bedeutsam 89
gefügt 89
▁ausreichend 89
▁akzeptiert 89
▁mittlerweile 89
▁Angesicht 89
▁vermittelt 89
▁auftaucht 89
▁Standpunkt 89
gemeinschaft 89
▁stieß 89
▁aufmerksam 89
▁Astronom 89
▁Hindernisse 89
▁Slum 89
pflanzt 89
▁schwanger 89
▁Moskito 89
▁Entstehung 89
▁Beschreibung 89
▁Währung 89
▁Fried 89
▁aesthetic 88
▁confused 88
▁dilemma 88
▁glacier 88
▁reinvent 88
▁cousin 88
▁aircraft 88
▁sweden 88
▁advertising 88
▁probability 88
▁alcohol 88
▁leverage 88
▁narrator 88
analyse 88
▁Globalisierung 88
▁verdoppelt 88
süchtig 88
▁fügt 88
▁verzweifelt 88
▁Sollte 88
▁Hypothese 88
▁Aufstieg 88
▁Ehrlich 88
▁Knoten 88
▁Simulation 88
stift 88
▁Richtlinie 88
▁erneuerbare 88
▁Meeting 88
▁Frequenz 88
Nobelpreis 88
▁Vagina 88
▁oxford 87
▁capita 87
▁assess 87
▁astonishing 87
▁restore 87
unclear 87
temperatur 87
▁recipe 87
▁pioneer 87
▁unbelievable 87
▁variable 87
▁survivor 87
▁horizon 87
▁fabulous 87
▁begun 87
diagnose 87
▁ethnic 87
▁shrimp 87
▁2013 87
▁spontan 87
▁rettet 87
▁Oxford 87
▁engagiert 87
▁leistungs 87
▁ehemalige 87
▁Chromosom 87
▁Horizont 87
▁jahrelang 87
strecken 87
▁offiziell 87
▁Cartoon 87
geschoss 87
▁Anzeige 87
▁Wohlbefinden 87
▁Liefer 87
▁Uganda 87
▁Täuschung 87
▁Lügen 87
▁inevitable 86
▁resilience 86
▁eliminate 86
▁recruit 86
▁fought 86
▁diplomat 86
▁orchestra 86
▁virtue 86
patient 86
▁erzielen 86
▁Media 86
▁Intuition 86
▁freiwillig 86
▁Chinesisch 86
Programm 86
▁präzise 86
▁bewirkt 86
▁verschwindet 86
mütig 86
▁ansprechen 86
meldung 86
▁verwirrt 86
▁Herkunft 86
▁comparison 85
▁snap 85
▁punch 85
▁empire 85
▁frustrated 85
space 85
▁injury 85
▁trivial 85
▁buried 85
▁explode 85
▁convey 85
▁genocide 85
▁abilities 85
▁mechanics 85
kunst 85
sprung 85
▁ungeheuer 85
▁schreibe 85
nutzung 85
▁Kontroll 85
▁unterscheidet 85
▁verlangen 85
▁beschützen 85
▁umfasst 85
verständnis 85
▁Karikatur 85
▁üben 85
▁überwältigend 85
weisung 85
▁Hochschul 85
▁Hätte 85
▁intersection 84
▁competitive 84
▁array 84
▁dialogue 84
▁garbage 84
minute 84
▁association 84
▁naked 84
▁combat 84
▁accelerate 84
▁relax 84
▁programming 84
▁facility 84
▁snake 84
▁enterprise 84
▁geplant 84
▁diskutiert 84
arzt 84
▁Privileg 84
▁Konzentration 84
▁ausschließlich 84
▁vielfältig 84
▁Substanz 84
geholt 84
gebäude 84
prinzip 84
▁geheime 84
▁unglücklich 84
▁musikalische 84
▁vernetzt 84
▁Scheibe 84
▁überprüfen 84
▁Baseball 84
▁Pfeil 84
▁Mühe 84
▁bewältigen 84
gesichts 84
▁dominate 83
▁bathroom 83
▁consist 83
▁overwhelming 83
▁october 83
▁compromise 83
▁crystal 83
▁attribute 83
▁enforce 83
control 83
▁structural 83
▁vulnerability 83
▁stigma 83
psycho 83
biologi 83
fleisch 83
gewöhnlich 83
▁Engagement 83
▁Pläne 83
▁Entschuldigung 83
▁hübsch 83
bedingungen 83
▁erstaunt 83
▁Regenwald 83
wachstum 83
▁ermutigen 83
▁verhindert 83
▁Immunsystem 83
▁stoßen 83
▁Winkel 83
geteilt 83
▁spirituelle 83
▁Möbel 83
geschaltet 83
▁vereint 83
▁Individuum 83
▁Treibstoff 83
▁beschränkt 83
▁blicken 83
▁Sklaverei 83
▁stärkste 83
▁Merkmale 83
▁dumb 82
▁loving 82
▁vacuum 82
▁agencies 82
▁temple 82
▁elected 82
▁broadcast 82
í 82
▁unterhalb 82
▁Konsumenten 82
▁anfängt 82
▁auszudrücken 82
▁Trotz 82
▁Oktober 82
▁Bescheid 82
▁entschlossen 82
▁Bindung 82
risiko 82
▁gegessen 82
▁gemeinnützige 82
▁Schwanz 82
▁Variation 82
▁Business 82
▁Nachmittag 82
▁ärmsten 82
▁Mount 82
▁bestätigt 82
▁Mahlzeit 82
▁Mittlere 82
▁screw 81
▁barrel 81
▁thrill 81
▁florida 81
▁collaborative 81
▁shrink 81
▁smoking 81
▁sacrifice 81
▁matrix 81
▁primarily 81
▁choosing 81
wurzel 81
ündigt 81
▁gewinnt 81
▁zahlreiche 81
▁gefühlt 81
▁Plätze 81
▁Einzige 81
▁Florida 81
gewebe 81
▁Allerdings 81
gefertigt 81
▁Kapazität 81
▁Verteidigung 81
▁verurteilt 81
▁Gehalt 81
blätter 81
▁hervorragend 81
▁Zufriedenheit 81
▁Brown 81
▁Kompromiss 81
sufficient 80
▁category 80
▁threshold 80
▁wheelchair 80
▁august 80
▁collaborator 80
▁valid 80
▁hollywood 80
▁terrifying 80
▁chamber 80
▁prepare 80
▁Flughafen 80
▁Besonders 80
gehoben 80
Komm 80
▁Lampe 80
▁Prinz 80
▁Filter 80
▁außerordentlich 80
▁längst 80
Energieverbrauch 80
▁Abhängigkeit 80
abhängig 80
▁verknüpft 80
klatsch 80
Zeit 80
▁kombiniert 80
▁August 80
▁schlussendlich 80
▁Zuhörer 80
▁universelle 80
▁Pyramide 80
drüse 80
▁expansion 79
▁administration 79
▁grandchildren 79
▁nutrients 79
▁impression 79
▁disconnect 79
▁accus 79
▁monster 79
▁experiencing 79
▁torture 79
▁advocate 79
▁exhibit 79
▁anticipate 79
▁pulse 79
▁signature 79
▁origami 79
▁diagnosis 79
▁nördlich 79
▁Dynamik 79
▁erkunden 79
▁Mechanismus 79
▁Variante 79
▁steigern 79
▁beantwortet 79
▁Cousin 79
▁versagt 79
▁scharf 79
▁Versicherung 79
▁Kämpfe 79
▁Held 79
haufen 79
▁Diplomat 79
▁Kalorien 79
▁automobile 78
▁reducing 78
▁irrational 78
▁expedition 78
▁magnitude 78
▁ecological 78
▁supermarket 78
▁creator 78
▁uniform 78
▁optimal 78
▁gradually 78
▁simultaneously 78
▁transcend 78
▁hemisphere 78
= 78
▁1,5 78
▁lenken 78
▁involviert 78
▁zutiefst 78
▁Behauptung 78
▁Pazifik 78
▁kombinieren 78
▁spürt 78
▁begleitet 78
▁peinlich 78
▁erledigt 78
▁Urknall 78
▁analysiert 78
▁Anwälte 78
▁vergleichbar 78
▁scheitern 78
▁erheblich 78
schätzung 78
▁tragisch 78
▁diagnostiziert 78
▁weiterentwickel 78
▁Passwörter 78
▁Gewohnheit 78
▁Säule 78
▁Syrien 78
▁philip 77
▁capabilities 77
▁oxytocin 77
▁saturn 77
▁contemporary 77
▁diamond 77
▁crush 77
▁unfold 77
▁unfair 77
▁scott 77
# 77
▁Manager 77
▁Offensichtlich 77
▁Periode 77
▁treibt 77
deutet 77
erfahrung 77
▁militärische 77
▁generell 77
▁umfassende 77
Boot 77
▁äußere 77
▁begegnet 77
kratische 77
▁senken 77
▁Gravitation 77
▁gesünder 77
▁Sklaven 77
▁wohlhabend 77
▁Hollywood 77
▁akademische 77
▁Zeile 77
▁Vulkan 77
▁smith 76
▁smallpox 76
▁pharmaceutical 76
▁pandemic 76
▁whatsoever 76
audience 76
▁architectural 76
organizing 76
▁retina 76
▁breakfast 76
▁beneath 76
▁register 76
▁biodiversity 76
▁chronic 76
▁verwandt 76
▁zwölf 76
kenntnis 76
▁theoretisch 76
▁Dauer 76
▁Berührung 76
▁einschließlich 76
▁Unsicherheit 76
höhe 76
▁selbe 76
Glücklicherweise 76
▁Erscheinung 76
Modern 76
▁Verbraucher 76
▁besaß 76
▁gewohnt 76
▁durchzuführen 76
▁anfühlt 76
▁beruflich 76
▁Black 76
▁vertikal 76
▁Truppe 76
▁Rechner 76
▁participation 75
▁compress 75
▁marvel 75
▁qualities 75
▁bulb 75
▁extension 75
▁crawl 75
▁distinguish 75
engineer 75
▁ambition 75
▁1984 75
▁compelling 75
▁immigrant 75
student 75
▁derzeitige 75
fahrzeug 75
konzept 75
▁gewissermaßen 75
▁irgendwas 75
▁Benzin 75
▁Trinkwasser 75
▁geredet 75
forscher 75
▁verletzen 75
▁fortgeschritten 75
Modell 75
▁Gewässer 75
fabrik 75
▁beängstigend 75
hülle 75
▁Anwalt 75
▁konstruiert 75
▁Falsch 75
bürger 75
▁Veranstaltung 75
▁Töne 75
▁Gefangene 75
▁Elektronik 75
▁detailliert 75
▁TEDTalk 75
▁purchase 74
▁parasite 74
▁unprecedented 74
▁reliable 74
▁defeat 74
▁injustice 74
▁syndrome 74
▁intimate 74
▁indonesia 74
▁currency 74
▁eingeschränkt 74
Maschine 74
▁Smith 74
▁Dezember 74
richtig 74
▁Digital 74
▁schmutzig 74
▁Erstaunlich 74
▁Geschwister 74
▁chaotisch 74
▁Tendenz 74
▁gegenwärtige 74
▁ähnelt 74
▁interaktive 74
flasche 74
▁Mischung 74
▁Getreide 74
▁Türkei 74
▁konkrete 74
▁farbige 74
▁Tinte 74
▁Anhänger 74
märkte 74
▁1996 73
▁stomach 73
▁facilities 73
▁hypothesis 73
▁miserable 73
▁mobility 73
▁devil 73
▁descend 73
▁episode 73
▁LKW 73
▁Analogie 73
▁Mittagessen 73
Adresse 73
▁finanzieren 73
▁Widerspruch 73
▁Gerüst 73
▁verstärkt 73
gehörigkeit 73
▁Zwilling 73
▁Balance 73
▁unzählige 73
▁benannt 73
opfer 73
▁überwachen 73
schwäche 73
▁unheimlich 73
▁Mentor 73
▁Rhythmus 73
▁Erwärmung 73
▁Schweigen 73
▁Thunfisch 73
▁december 72
world 72
▁friday 72
▁civic 72
▁multinational 72
▁excitement 72
▁distort 72
▁cambridge 72
▁storytelling 72
▁simulate 72
▁nowadays 72
▁located 72
▁inhabit 72
katastrophe 72
▁tätig 72
▁künstlerische 72
branche 72
▁ethische 72
▁Reihenfolge 72
▁motivieren 72
▁attraktiv 72
▁Glühbirne 72
▁Redner 72
▁beschädigt 72
▁South 72
▁Saturn 72
▁Solche 72
▁Distanz 72
wächs 72
kräftig 72
▁verspreche 72
▁Tempel 72
▁Konzert 72
gebrochen 72
▁Äthiopien 72
▁Ladung 72
▁Versprechen 72
▁Oxytocin 72
▁contrary 71
▁microbial 71
▁'90 71
▁spontaneous 71
▁meanwhile 71
▁deforestation 71
▁interrupt 71
▁bribe 71
▁colonies 71
▁genuine 71
▁categories 71
▁optimism 71
▁introvert 71
▁negativ 71
interest 71
▁2016 71
▁thrive 71
geschrieben 71
▁gestohlen 71
▁Urlaub 71
geräusch 71
chädlich 71
▁verfügen 71
▁Kluft 71
▁Cambridge 71
▁Blüte 71
▁stattfindet 71
▁Anweisungen 71
▁Optimismus 71
▁Treib 71
▁versorgt 71
▁vergrößern 71
Syndrom 71
▁Direktor 71
▁Vorlesung 71
▁Zentimeter 71
▁ignor 70
▁specula 70
▁divorce 70
▁strategic 70
▁sanitation 70
▁hawaii 70
+ 70
generating 70
▁generous 70
▁innocent 70
▁circulat 70
▁exposure 70
▁awkward 70
▁terrified 70
▁potato 70
signal 70
▁Fossil 70
bewohner 70
▁Voraussetzung 70
▁Furcht 70
▁Notwendigkeit 70
▁Bewertung 70
▁frustriert 70
▁Fußgänger 70
▁Verzweiflung 70
▁empfehle 70
Veröffentlichung 70
▁statistisch 70
▁beeindruckt 70
▁Pharma 70
▁Anfänge 70
▁Durchmesser 70
▁Später 70
▁Babies 70
Fiction 70
▁1997 69
▁pedestrian 69
▁closing 69
▁mutual 69
▁ownership 69
▁jewel 69
▁residents 69
▁grasp 69
▁prosperity 69
▁flavor 69
_ 69
röhre 69
▁züchten 69
▁zehntausende 69
▁allererste 69
▁schuldig 69
▁Hardware 69
▁Norwegen 69
▁probieren 69
schuhe 69
zweck 69
▁fröhlich 69
charakter 69
▁vergrößert 69
▁bedienen 69
▁überqueren 69
▁Feuerwehr 69
▁gigantische 69
▁Erlaubnis 69
▁verarbeitet 69
▁Unabhängigkeit 69
▁Treibhausgase 69
▁Trauer 69
▁Söhne 69
› 69
‹ 69
▁Smartphone 69
▁monument 68
▁recall 68
▁aspiration 68
▁cigarette 68
▁humanitarian 68
▁scrap 68
▁composition 68
▁serving 68
▁exhaust 68
▁browse 68
▁jellyfish 68
▁depressiv 68
ç 68
▁Philip 68
▁aufhört 68
▁probiert 68
▁Dilemma 68
▁Vereinte 68
▁wundervoll 68
▁Apparat 68
▁spektakulär 68
▁Trennung 68
▁Stabilität 68
▁vergewaltigt 68
▁bzw 68
▁Arktis 68
▁Rollstuhl 68
▁NSA 68
ordinarily 67
apparat 67
▁earliest 67
▁lonely 67
▁paralyzed 67
▁temporary 67
▁silver 67
▁despair 67
▁tendency 67
▁curriculum 67
▁clarity 67
▁interior 67
gras 67
▁coordinate 67
▁february 67
▁embryo 67
▁canadian 67
▁backyard 67
▁buddhist 67
▁convention 67
ó 67
▁Verwaltung 67
▁bewiesen 67
▁Verpflichtung 67
▁schätzt 67
▁Wünsche 67
▁externe 67
▁Fettleibigkeit 67
▁hungrig 67
▁Silicon 67
▁Archiv 67
▁programmiert 67
▁Kühe 67
▁beteiligen 67
▁Schwäche 67
▁schwamm 67
▁Dunkel 67
ströme 67
störungen 67
▁Tropfen 67
▁Schwangerschaft 67
▁Götter 67
▁Minderheit 67
▁Korallenriffe 67
▁Drohnen 67
▁andauernd 67
▁continuing 66
▁amazed 66
tropical 66
▁encouraging 66
▁dictator 66
▁believing 66
▁tsunami 66
▁recycling 66
▁deliberate 66
▁hallucinat 66
▁acoustic 66
▁grandparents 66
▁endangered 66
brett 66
‘ 66
▁Programmierer 66
Nullsummen 66
firmen 66
▁Rekord 66
▁bräuchte 66
▁Reichweite 66
▁ermutigt 66
▁spezialisiert 66
▁Tafel 66
größte 66
▁Barriere 66
▁bestätigen 66
▁beruht 66
▁identifiziert 66
▁uralte 66
▁Februar 66
RNA 66
klettert 66
▁jüdische 66
▁Graph 66
▁Hersteller 66
▁nukleare 66
▁eröffnen 66
▁beherrschen 66
▁Ideologie 66
▁Reaktor 66
▁excess 65
▁rethink 65
▁constitu 65
▁reproduce 65
▁swallow 65
▁collaborate 65
▁1991 65
▁communicating 65
▁prescription 65
▁investigation 65
▁straightforward 65
▁captain 65
▁membrane 65
▁negotiation 65
▁occupy 65
efficient 65
▁theoretical 65
▁diagnostic 65
▁bangladesh 65
▁independence 65
▁cooperate 65
▁Management 65
▁geprägt 65
▁Vietnam 65
▁Ärger 65
▁Expedition 65
▁Schwierig 65
▁Installation 65
Regierung 65
▁Regime 65
▁Aufzeichnungen 65
▁erschafft 65
▁Demonstration 65
▁Deutsch 65
▁Szenario 65
▁Nebenwirkungen 65
▁Jedoch 65
▁Hühner 65
▁Belastung 65
▁Poesie 65
▁Bekannt 65
▁ethnische 65
▁Zigarette 65
▁lügen 65
▁America 65
▁gelähmt 65
▁wheat 64
▁flourish 64
▁retreat 64
▁leather 64
▁memorial 64
▁louis 64
▁possess 64
symmetric 64
▁purple 64
▁magnificent 64
▁knife 64
▁stimulate 64
▁introduction 64
▁athletes 64
lapse 64
▁orphan 64
▁triangle 64
▁default 64
▁festival 64
▁1989 64
▁disabilities 64
familie 64
▁ultimative 64
▁Selektion 64
▁synthetische 64
▁Bakterium 64
zufügen 64
▁derjenige 64
▁drastisch 64
▁Sonntag 64
▁befürchte 64
▁Ignoranz 64
▁verkündet 64
schüchtern 64
▁verpflichtet 64
▁woanders 64
▁Kollege 64
▁LED 64
▁lächeln 64
▁Hürde 64
▁Großeltern 64
▁Informatik 64
▁phantom 63
▁ecology 63
▁hybrid 63
▁workforce 63
▁accumulate 63
integration 63
▁trajectory 63
▁pencil 63
▁executive 63
▁receiving 63
▁destiny 63
▁yourselves 63
▁tattoo 63
▁drought 63
▁synapse 63
▁Republikaner 63
verschmutzung 63
verarbeitung 63
▁angeboten 63
▁stattfand 63
▁Techno 63
▁menschlich 63
▁MRT 63
▁geschätzt 63
▁biologisch 63
▁konservativ 63
▁Käse 63
▁dokumentiert 63
▁betrachte 63
▁Unglaublich 63
Herangehensweise 63
▁Hektar 63
▁Gegner 63
▁März 63
▁großzügig 63
▁Melodie 63
▁Investoren 63
▁Global 63
▁verborgen 63
▁Indonesien 63
▁Stickstoff 63
▁North 63
▁impressive 62
▁ebola 62
▁substantial 62
▁indigenous 62
▁contaminat 62
▁dopamine 62
▁thread 62
▁terribly 62
▁glamorous 62
▁striking 62
▁1975 62
▁migration 62
▁spiral 62
▁advertise 62
▁pizza 62
▁regulate 62
▁nucleus 62
▁carolina 62
▁transaction 62
▁Wiederholung 62
ingenieur 62
▁auszuprobieren 62
▁Wahnsinn 62
gesagt 62
▁Interpretation 62
▁Ebola 62
menschliche 62
▁verwirklichen 62
▁Louis 62
▁Dopamin 62
▁anzuwenden 62
Problem 62
▁anerkannt 62
Publikum 62
▁repräsentieren 62
▁Hausaufgaben 62
▁Primaten 62
▁verbrannt 62
▁griechische 62
▁Glaube 62
▁Luxus 62
β 62
▁innovativ 60
▁physisch 59
▁rechne 54
▁müsst 54
▁privat 53
° 52
è 48
ã 47
▁aktuell 47
⁄ 44
▁künstlich 43
ñ 42
▁individuell 42
Ä 42
▁finanziell 39
— 36
@ 36
( 35
́ 35
^ 34
à 30
öge 30
‟ 27
‚ 24
[ 22
‒ 22
€ 20
– 15
ï 14
ù 11
ê 11
ø 11
­ 11
ā 10
♫ 10
â 8
♪ 8
* 6
$ 6
ô 6
อ 6
ī 6
ë 5
 5
 5
 5
ú 4
• 4
£ 3
ร 3
่ 3
ย 3
¡ 3
œ 3
¥ 3
® 3
É 3
Ç 3
Å 3
~ 3
» 3
× 3
û 2
送 2
你 2
葱 2
ć 2
ě 2
ū 2
प 2
् 2
र 2
े 2
म 2
š 2
© 2
ý 2
Á 2
¶ 2
ò 1
ō 1
 1
 1
ă 1
ť 1
č 1
å 1
¿ 1
к 1
Ӓ 1
« 1
Ō 1
Č 1
Ű 1
Œ 1
