, 1
. 1
' 1
s 1
▁the 1
▁de 1
▁a 1
▁and 1
▁to 1
▁of 1
▁la 1
▁that 1
▁et 1
▁in 1
▁i 1
▁que 1
▁les 1
▁le 1
▁it 1
▁à 1
▁l 1
▁we 1
▁you 1
t 1
▁d 1
▁des 1
- 1
▁is 1
▁un 1
▁en 1
e 1
est 1
▁this 1
▁nous 1
▁une 1
▁qui 1
▁vous 1
▁pour 1
▁pas 1
▁dans 1
▁so 1
▁ce 1
▁on 1
▁est 1
r 1
▁— 1
▁je 1
▁they 1
▁c 1
▁for 1
▁qu 1
re 1
▁ 1
▁was 1
d 1
er 1
▁" 1
▁du 1
ing 1
▁Et 1
▁are 1
▁but 1
) 1
▁plus 1
▁n 1
▁( 1
▁have 1
▁ne 1
ed 1
▁what 1
▁with 1
▁can 1
y 1
▁sur 1
▁be 1
▁me 1
▁s 1
ai 1
▁j 1
é 1
▁as 1
▁il 1
m 1
▁about 1
▁C 1
▁? 1
▁there 1
▁at 1
? 1
▁: 1
▁all 1
▁not 1
il 1
▁do 1
a 1
es 1
▁sont 1
▁my 1
▁se 1
▁au 1
▁avec 1
▁one 1
▁y 1
▁people 1
▁an 1
▁Je 1
▁like 1
▁par 1
▁ces 1
▁fait 1
▁if 1
▁si 1
▁our 1
▁from 1
▁or 1
▁comme 1
c 1
on 1
▁he 1
un 1
▁cette 1
▁’ 1
▁just 1
▁Il 1
▁now 1
▁when 1
▁mais 1
▁these 1
en 1
▁ça 1
▁faire 1
: 1
ve 1
ment 1
▁ont 1
ly 1
▁ou 1
▁out 1
▁because 1
▁Nous 1
▁tout 1
▁Mais 1
▁avons 1
▁by 1
▁them 1
▁up 1
▁very 1
▁J 1
nt 1
▁know 1
▁how 1
▁more 1
▁m 1
al 1
▁going 1
▁had 1
▁who 1
▁their 1
▁think 1
in 1
▁ils 1
▁see 1
▁peut 1
ent 1
▁très 1
ant 1
▁your 1
▁were 1
▁« 1
▁us 1
▁would 1
▁monde 1
▁bien 1
▁gens 1
▁which 1
ce 1
▁really 1
▁here 1
▁get 1
▁mon 1
▁être 1
▁world 1
une 1
▁then 1
▁time 1
p 1
▁leur 1
." 1
▁notre 1
▁don 1
▁some 1
laughter 1
▁chose 1
ll 1
▁cela 1
▁même 1
▁ma 1
▁has 1
▁re 1
▁dit 1
▁go 1
i 1
z 1
▁no 1
▁La 1
▁suis 1
n 1
▁était 1
▁into 1
▁aux 1
▁will 1
ons 1
▁way 1
▁quand 1
▁où 1
▁where 1
▁actually 1
▁» 1
ur 1
Rires 1
▁want 1
g 1
ait 1
ation 1
▁years 1
▁tous 1
▁été 1
▁could 1
▁things 1
▁other 1
▁aussi 1
▁son 1
it 1
ils 1
▁Les 1
▁she 1
le 1
▁make 1
▁been 1
▁Vous 1
▁nos 1
o 1
▁Le 1
or 1
▁beaucoup 1
u 1
▁Ce 1
▁vraiment 1
▁right 1
▁those 1
▁donc 1
▁deux 1
▁ans 1
▁well 1
était 1
▁first 1
▁vie 1
▁parce 1
▁over 1
▁choses 1
b 1
▁something 1
être 1
▁two 1
▁than 1
h 1
▁elle 1
▁said 1
ic 1
ez 1
▁L 1
▁voir 1
▁En 1
▁also 1
▁new 1
▁Donc 1
▁sa 1
▁much 1
▁votre 1
▁Ils 1
▁even 1
▁On 1
▁car 1
ci 1
▁back 1
▁work 1
▁dire 1
▁look 1
▁most 1
▁his 1
▁là 1
th 1
▁thing 1
▁quelque 1
▁life 1
▁got 1
▁little 1
▁temps 1
li 1
l 1
▁only 1
▁peu 1
an 1
▁moi 1
▁need 1
▁say 1
▁many 1
▁question 1
▁fois 1
▁important 1
ro 1
age 1
k 1
▁avait 1
▁point 1
▁take 1
▁Si 1
▁A 1
▁comment 1
▁va 1
ion 1
ée 1
▁her 1
▁lot 1
▁did 1
▁good 1
" 1
▁part 1
▁every 1
▁ici 1
▁kind 1
▁around 1
▁personnes 1
▁pouvez 1
▁leurs 1
aient 1
able 1
▁non 1
▁moment 1
▁different 1
▁sommes 1
▁let 1
▁why 1
elle 1
▁g 1
▁mes 1
▁down 1
ie 1
▁encore 1
te 1
ais 1
▁pense 1
▁through 1
us 1
▁same 1
ar 1
▁con 1
ter 1
lo 1
▁place 1
▁ré 1
▁dont 1
▁avoir 1
▁use 1
▁come 1
ité 1
▁being 1
v 1
▁façon 1
▁10 1
applause 1
▁autre 1
; 1
is 1
▁dis 1
ra 1
▁Alors 1
▁besoin 1
▁change 1
▁sans 1
▁day 1
▁pays 1
la 1
▁entre 1
▁long 1
ont 1
ir 1
▁lui 1
ers 1
Applaudissements 1
ul 1
▁put 1
▁three 1
és 1
▁avez 1
▁eu 1
am 1
▁juste 1
▁toutes 1
▁doing 1
▁alors 1
ive 1
▁enfants 1
if 1
w 1
▁jamais 1
hui 1
▁human 1
▁percent 1
▁années 1
at 1
▁any 1
▁maintenant 1
▁S 1
▁20 1
▁today 1
▁- 1
▁thank 1
▁quelques 1
▁after 1
▁vais 1
ique 1
," 1
▁fact 1
▁own 1
ate 1
▁called 1
▁pouvons 1
▁tell 1
▁toujours 1
▁should 1
▁made 1
▁moins 1
▁problème 1
▁find 1
ity 1
▁talk 1
▁é 1
el 1
▁grand 1
ne 1
▁pro 1
▁great 1
▁ses 1
▁didn 1
f 1
ions 1
▁peuvent 1
▁Elle 1
... 1
▁veux 1
autres 1
ou 1
▁year 1
▁chaque 1
▁man 1
ine 1
▁autres 1
▁tu 1
▁seulement 1
▁dé 1
▁travail 1
▁D 1
▁last 1
▁parler 1
▁science 1
▁dollars 1
▁jour 1
▁thought 1
▁started 1
à 1
▁before 1
▁end 1
eau 1
▁♫ 1
▁; 1
vous 1
aux 1
▁après 1
▁personne 1
▁off 1
as 1
ch 1
▁never 1
▁big 1
▁idea 1
▁soit 1
▁elles 1
▁possible 1
▁another 1
▁partie 1
▁Voici 1
ig 1
▁simple 1
A 1
▁better 1
té 1
▁might 1
▁étaient 1
▁pendant 1
étais 1
▁course 1
ad 1
ri 1
▁face 1
▁Merci 1
▁bit 1
▁vers 1
▁% 1
▁give 1
▁trois 1
▁ai 1
▁still 1
▁cas 1
▁together 1
▁première 1
▁millions 1
po 1
▁quoi 1
▁problem 1
▁system 1
▁co 1
ette 1
▁exemple 1
▁tant 1
▁start 1
▁B 1
▁public 1
▁système 1
▁able 1
▁went 1
▁am 1
ma 1
me 1
ance 1
ol 1
▁aujourd 1
▁him 1
▁sûr 1
▁each 1
▁four 1
nce 1
▁commencé 1
ill 1
eur 1
▁story 1
ton 1
ement 1
▁few 1
▁next 1
▁women 1
min 1
▁cet 1
ia 1
▁t 1
▁too 1
▁came 1
▁Un 1
▁again 1
▁Quand 1
▁savez 1
ées 1
▁sort 1
▁second 1
▁femmes 1
▁love 1
▁manière 1
ry 1
no 1
▁does 1
▁help 1
▁toute 1
▁show 1
▁puis 1
au 1
▁avant 1
bi 1
entre 1
tic 1
man 1
▁brain 1
▁water 1
▁br 1
autre 1
ag 1
▁e 1
▁real 1
▁per 1
▁design 1
qu 1
avais 1
▁found 1
▁data 1
▁ago 1
▁voyez 1
▁Cela 1
▁19 1
▁trouver 1
▁feel 1
im 1
▁social 1
▁jusqu 1
▁Ça 1
▁pourquoi 1
▁grande 1
▁used 1
▁call 1
▁! 1
▁million 1
▁vu 1
▁home 1
ian 1
▁Une 1
▁sous 1
▁êtes 1
▁depuis 1
▁T 1
▁maybe 1
▁bon 1
▁between 1
mo 1
▁mean 1
de 1
ist 1
aire 1
to 1
▁technology 1
mp 1
▁données 1
▁live 1
▁faut 1
ge 1
▁sens 1
▁M 1
ni 1
▁Dans 1
▁font 1
▁30 1
the 1
▁rien 1
▁cancer 1
eux 1
▁Pour 1
os 1
ex 1
ous 1
▁cerveau 1
▁understand 1
ies 1
vi 1
▁F 1
▁passe 1
▁example 1
que 1
▁questions 1
▁quelqu 1
▁3 1
▁travers 1
ac 1
▁school 1
▁assez 1
ck 1
and 1
▁pourrait 1
▁créer 1
▁devons 1
▁P 1
um 1
▁space 1
▁doesn 1
▁children 1
▁pouvoir 1
?" 1
▁may 1
con 1
▁wanted 1
▁petit 1
▁50 1
▁ever 1
▁looking 1
go 1
tu 1
x 1
▁person 1
▁prendre 1
▁G 1
▁believe 1
▁ex 1
be 1
▁six 1
▁train 1
▁nature 1
▁always 1
hi 1
▁light 1
▁vos 1
▁p 1
ha 1
2 1
▁technologie 1
▁done 1
▁passé 1
▁information 1
ho 1
▁eux 1
▁create 1
▁trop 1
▁sais 1
▁E 1
▁country 1
up 1
▁power 1
▁working 1
▁fin 1
ue 1
▁100 1
▁mal 1
▁idée 1
▁pu 1
ta 1
▁comprendre 1
▁genre 1
▁high 1
▁whole 1
▁away 1
▁nouveau 1
▁crois 1
et 1
C 1
co 1
▁mis 1
▁everything 1
▁trying 1
ness 1
che 1
id 1
▁main 1
ure 1
▁future 1
nous 1
▁try 1
ner 1
▁population 1
▁using 1
elles 1
▁déjà 1
di 1
he 1
▁Ma 1
mi 1
▁De 1
na 1
▁premier 1
▁ceux 1
▁global 1
▁peux 1
ale 1
▁five 1
▁chez 1
pi 1
ating 1
▁hard 1
▁histoire 1
▁thinking 1
▁old 1
▁donner 1
▁Maintenant 1
▁number 1
▁means 1
▁contre 1
tion 1
▁image 1
▁money 1
▁small 1
ated 1
▁000 1
▁kids 1
▁f 1
▁sorte 1
▁plan 1
▁war 1
▁savoir 1
▁times 1
end 1
▁mois 1
▁compte 1
▁minutes 1
▁plutôt 1
▁corps 1
▁cause 1
op 1
▁15 1
▁Au 1
▁problèmes 1
▁bonne 1
▁took 1
S 1
ab 1
▁jours 1
▁men 1
ins 1
▁nombre 1
les 1
▁met 1
▁parents 1
▁vrai 1
▁best 1
▁become 1
ations 1
iv 1
ap 1
▁plupart 1
▁type 1
▁enough 1
▁changer 1
▁sense 1
▁k 1
▁ask 1
▁Tout 1
▁super 1
▁di 1
▁left 1
ting 1
▁mieux 1
▁aller 1
1 1
▁ca 1
▁under 1
com 1
per 1
▁4 1
▁city 1
▁2 1
▁getting 1
▁simplement 1
ff 1
▁nouvelle 1
▁imagine 1
tra 1
ca 1
▁play 1
▁without 1
▁environ 1
5 1
▁food 1
▁young 1
▁machine 1
▁avaient 1
▁maison 1
▁ceci 1
▁côté 1
fi 1
art 1
▁bring 1
7 1
▁pre 1
▁raison 1
▁test 1
▁ainsi 1
▁lieu 1
▁passer 1
▁mettre 1
▁culture 1
▁quel 1
▁doit 1
8 1
▁health 1
▁lives 1
▁montrer 1
▁serait 1
▁Parce 1
▁photo 1
▁comes 1
▁santé 1
urs 1
▁1 1
histoire 1
▁making 1
▁large 1
▁far 1
▁side 1
▁projet 1
▁interesting 1
▁pris 1
M 1
▁r 1
Unis 1
▁open 1
▁talking 1
▁process 1
] 1
▁probably 1
▁care 1
ven 1
▁hand 1
▁told 1
ary 1
▁seule 1
pl 1
▁body 1
▁Par 1
▁quite 1
▁earth 1
land 1
▁africa 1
▁ni 1
▁[ 1
ob 1
ut 1
▁family 1
▁veut 1
▁souvent 1
vo 1
▁penser 1
▁femme 1
▁matter 1
ard 1
▁move 1
▁ville 1
▁build 1
▁sujet 1
▁energy 1
▁head 1
▁forme 1
▁sera 1
▁room 1
▁propos 1
▁film 1
▁happened 1
▁voici 1
▁pré 1
▁art 1
va 1
▁laquelle 1
4 1
E 1
▁st 1
là 1
▁K 1
▁certains 1
▁Comment 1
▁comp 1
▁while 1
lu 1
▁vi 1
▁pretty 1
om 1
▁u 1
▁5 1
▁Ces 1
▁remember 1
▁anything 1
▁such 1
▁petite 1
▁b 1
idée 1
▁countries 1
eurs 1
▁across 1
▁réalité 1
▁chance 1
▁». 1
▁utiliser 1
avoir 1
▁building 1
▁bad 1
▁trouvé 1
▁cours 1
▁vont 1
gu 1
▁ensemble 1
même 1
▁ensuite 1
▁coup 1
▁coming 1
▁half 1
6 1
▁mère 1
▁reason 1
je 1
▁famille 1
▁base 1
lé 1
3 1
▁experience 1
▁surface 1
▁ba 1
▁40 1
less 1
▁lorsque 1
pe 1
ile 1
! 1
▁hommes 1
ke 1
▁billion 1
ial 1
tri 1
▁propre 1
▁once 1
▁gros 1
▁living 1
D 1
iez 1
▁difficile 1
▁learn 1
▁having 1
▁asked 1
▁ways 1
▁set 1
out 1
ize 1
▁18 1
▁saw 1
▁both 1
▁stuff 1
I 1
▁patients 1
▁project 1
▁Pourquoi 1
▁happen 1
▁later 1
▁form 1
▁bo 1
▁images 1
▁force 1
▁yet 1
▁hope 1
▁keep 1
▁age 1
▁often 1
▁makes 1
▁else 1
ns 1
tte 1
ted 1
▁red 1
▁tard 1
▁près 1
▁trouve 1
do 1
▁almost 1
agit 1
▁début 1
▁vision 1
▁certain 1
▁fond 1
▁sure 1
▁celui 1
use 1
▁imp 1
ors 1
▁days 1
▁single 1
▁autour 1
P 1
▁case 1
mon 1
▁appris 1
ative 1
▁seen 1
argent 1
▁o 1
▁donné 1
▁community 1
▁po 1
ical 1
▁lumière 1
▁business 1
▁bas 1
▁air 1
ible 1
ver 1
▁ho 1
▁mind 1
qui 1
▁gr 1
▁différentes 1
ron 1
ator 1
▁w 1
▁nom 1
▁says 1
▁inter 1
▁someone 1
▁read 1
ler 1
▁couple 1
▁answer 1
▁reste 1
▁parle 1
od 1
we 1
ized 1
▁Qu 1
▁music 1
▁demandé 1
▁internet 1
▁mo 1
▁nothing 1
▁groupe 1
avons 1
▁inside 1
▁ta 1
ise 1
gi 1
▁happens 1
▁allons 1
▁already 1
▁top 1
▁société 1
▁seul 1
der 1
▁sub 1
ib 1
▁ph 1
▁planet 1
▁changement 1
▁structure 1
fl 1
▁quatre 1
▁research 1
▁produit 1
rait 1
▁whether 1
▁goes 1
▁picture 1
▁problems 1
▁mother 1
▁solution 1
▁job 1
▁vue 1
▁rest 1
▁presque 1
▁cent 1
▁instead 1
▁technologies 1
▁saying 1
air 1
▁signifie 1
▁myself 1
▁name 1
cr 1
▁history 1
rons 1
▁states 1
▁wrong 1
▁ha 1
▁computer 1
▁Des 1
▁stop 1
▁situation 1
▁travailler 1
isme 1
▁attention 1
▁peur 1
00 1
▁run 1
▁celle 1
▁rep 1
O 1
▁Mon 1
▁planète 1
▁pi 1
▁faisons 1
▁», 1
old 1
▁mort 1
▁within 1
▁Elles 1
▁looked 1
▁continue 1
da 1
act 1
ger 1
abord 1
ég 1
▁sometimes 1
▁recherche 1
ici 1
▁12 1
▁vo 1
▁support 1
iques 1
▁niveau 1
B 1
▁amazing 1
▁black 1
tor 1
tes 1
▁local 1
men 1
▁order 1
▁control 1
▁ok 1
moi 1
▁réponse 1
▁video 1
ster 1
▁child 1
▁nouvelles 1
▁quelle 1
▁États 1
▁fl 1
▁front 1
▁milliards 1
ante 1
▁également 1
▁guerre 1
▁self 1
▁N 1
,000 1
▁mot 1
▁sh 1
énergie 1
▁savons 1
▁education 1
▁homme 1
T 1
▁wasn 1
iens 1
▁concept 1
▁donne 1
▁months 1
ments 1
▁stories 1
uring 1
▁ra 1
▁fer 1
▁since 1
▁true 1
9 1
▁book 1
▁su 1
▁night 1
▁group 1
vis 1
▁basically 1
▁heart 1
▁words 1
▁tête 1
▁al 1
ling 1
par 1
▁everybody 1
▁arrive 1
ot 1
▁language 1
▁capacité 1
▁rend 1
▁beautiful 1
▁tellement 1
▁partir 1
▁house 1
ga 1
▁line 1
▁humains 1
iser 1
▁politique 1
▁enfant 1
aires 1
▁until 1
▁plusieurs 1
▁government 1
▁ideas 1
▁bar 1
▁année 1
▁te 1
▁voulez 1
▁commencer 1
▁bio 1
▁looks 1
lin 1
sh 1
▁woman 1
▁idées 1
appelle 1
▁faites 1
ec 1
ère 1
ier 1
ru 1
▁sp 1
▁ch 1
ud 1
▁pouvait 1
▁cellules 1
è 1
ism 1
▁porte 1
▁différents 1
▁cinq 1
▁terre 1
▁Que 1
▁united 1
importe 1
▁haut 1
▁impact 1
▁figure 1
▁robot 1
▁Bien 1
▁cells 1
▁dernier 1
▁heard 1
▁micro 1
ade 1
▁th 1
▁60 1
▁aider 1
▁marché 1
▁learned 1
▁isn 1
▁6 1
▁table 1
▁model 1
▁incroyable 1
▁free 1
▁petits 1
▁humain 1
▁dernière 1
ful 1
app 1
▁Terre 1
▁knew 1
▁heures 1
▁communauté 1
▁semble 1
▁ligne 1
▁share 1
gen 1
▁mots 1
▁construire 1
▁places 1
▁probablement 1
▁guy 1
▁créé 1
ite 1
nc 1
▁vivre 1
▁marche 1
▁turn 1
▁gouvernement 1
▁mesure 1
▁regarder 1
▁step 1
▁everyone 1
▁gu 1
▁color 1
em 1
▁livre 1
▁land 1
▁must 1
▁mar 1
▁friends 1
▁national 1
ront 1
▁ob 1
▁New 1
▁25 1
▁allez 1
ateur 1
▁fais 1
▁entendu 1
mer 1
ang 1
car 1
▁though 1
▁works 1
▁past 1
▁rendre 1
▁middle 1
du 1
▁expérience 1
▁tour 1
▁study 1
▁violence 1
accord 1
▁state 1
▁siècle 1
▁became 1
▁decided 1
▁team 1
▁built 1
▁moyen 1
R 1
▁Eh 1
▁america 1
▁environment 1
▁somebody 1
ish 1
dé 1
▁père 1
cent 1
▁centre 1
▁code 1
▁ted 1
▁village 1
▁ti 1
▁view 1
uv 1
▁futur 1
▁Comme 1
▁pay 1
▁voiture 1
isation 1
▁écrit 1
ep 1
▁society 1
ow 1
side 1
▁exactly 1
▁devez 1
▁against 1
▁sal 1
▁Voilà 1
▁yes 1
▁grâce 1
ux 1
▁message 1
▁processus 1
▁company 1
▁vient 1
▁développement 1
▁I 1
▁ourselves 1
▁species 1
pro 1
▁patient 1
▁yeux 1
▁11 1
▁amis 1
▁Oui 1
▁R 1
▁act 1
▁word 1
▁completely 1
▁sound 1
▁afin 1
ah 1
▁endroit 1
▁présent 1
▁hear 1
ng 1
▁devenir 1
ber 1
▁leave 1
▁découvert 1
▁modèle 1
▁jeunes 1
▁jeu 1
▁disent 1
▁partout 1
▁news 1
▁arm 1
▁points 1
▁voulais 1
▁meilleur 1
▁décidé 1
▁80 1
". 1
▁Sa 1
▁economic 1
▁phone 1
▁taking 1
▁mé 1
▁appelé 1
euse 1
▁record 1
▁others 1
▁okay 1
▁bi 1
▁commence 1
fe 1
▁post 1
▁walk 1
▁themselves 1
▁ju 1
▁god 1
▁choix 1
▁site 1
pa 1
▁huge 1
▁demande 1
ô 1
des 1
▁photos 1
▁intéressant 1
mm 1
▁es 1
gg 1
▁students 1
▁lu 1
tique 1
ally 1
hé 1
▁rather 1
▁trou 1
▁anti 1
vers 1
▁arrivé 1
▁cell 1
▁prison 1
espace 1
▁9 1
ip 1
▁permet 1
▁prend 1
▁voilà 1
▁app 1
▁Est 1
▁8 1
▁pen 1
▁ten 1
▁turns 1
▁gets 1
▁disease 1
▁animal 1
▁mer 1
▁complètement 1
▁happening 1
chi 1
ak 1
cy 1
▁hours 1
▁fi 1
line 1
▁ocean 1
▁W 1
▁Puis 1
▁histoires 1
▁piece 1
▁unique 1
▁parfois 1
cle 1
▁utilisé 1
igne 1
▁ve 1
cul 1
▁fish 1
▁grands 1
▁certaines 1
école 1
▁police 1
▁milliers 1
rais 1
▁facile 1
▁along 1
▁7 1
▁trans 1
▁regardez 1
▁hu 1
▁third 1
nne 1
▁worked 1
▁emb 1
▁existe 1
▁couldn 1
▁close 1
▁tra 1
▁auto 1
▁avions 1
▁thousands 1
▁risk 1
▁loin 1
▁kinds 1
▁H 1
▁classe 1
▁fille 1
▁montre 1
▁difficult 1
▁compris 1
ach 1
▁learning 1
▁early 1
uff 1
▁connect 1
▁progress 1
▁itself 1
▁Ro 1
▁direction 1
▁center 1
iste 1
ition 1
▁vol 1
▁Bon 1
▁position 1
▁photograph 1
▁level 1
▁robots 1
ème 1
▁short 1
▁created 1
aime 1
▁pensé 1
▁voit 1
▁machines 1
▁fear 1
▁universe 1
▁common 1
▁Ou 1
▁dernières 1
▁rapport 1
H 1
▁ac 1
▁pe 1
▁énorme 1
▁pan 1
▁aurait 1
▁animals 1
▁capable 1
▁animaux 1
▁physique 1
▁taille 1
▁musique 1
▁com 1
▁aucune 1
▁villes 1
▁demander 1
▁nourriture 1
ric 1
ables 1
▁yeah 1
▁arriver 1
▁essayer 1
▁comportement 1
▁grow 1
▁outside 1
▁TED 1
▁political 1
▁least 1
▁secret 1
ienne 1
▁voulons 1
▁sait 1
▁cities 1
▁source 1
all 1
▁poor 1
▁entire 1
▁économique 1
▁won 1
▁media 1
▁systems 1
ther 1
▁behavior 1
▁buy 1
▁feeling 1
▁virus 1
arr 1
▁version 1
▁seven 1
▁dur 1
▁?" 1
▁perhaps 1
ities 1
▁respect 1
▁game 1
ê 1
▁voyage 1
▁aucun 1
ès 1
▁lequel 1
N 1
▁finally 1
én 1
▁plein 1
▁full 1
▁cool 1
▁bou 1
▁tend 1
▁conversation 1
▁sign 1
▁death 1
▁impossible 1
iers 1
▁dû 1
▁companies 1
▁normal 1
▁O 1
▁voice 1
▁field 1
▁exactement 1
▁web 1
ière 1
intérieur 1
▁natural 1
▁compassion 1
â 1
▁maladie 1
▁american 1
▁sta 1
▁collect 1
ire 1
▁white 1
▁meilleure 1
▁milieu 1
▁grandes 1
▁jouer 1
▁/ 1
▁particular 1
▁commun 1
▁mondiale 1
▁rapidement 1
▁vidéo 1
▁fr 1
▁Non 1
oph 1
▁religion 1
▁apprendre 1
nes 1
▁sun 1
pp 1
▁coût 1
▁gave 1
▁friend 1
▁changed 1
▁york 1
▁allé 1
▁fut 1
▁fonctionne 1
▁téléphone 1
▁ressemble 1
avez 1
▁attend 1
▁dés 1
▁scale 1
▁lots 1
▁ro 1
▁changé 1
▁felt 1
▁types 1
well 1
our 1
ba 1
▁behind 1
▁sécurité 1
▁easy 1
▁market 1
▁devrait 1
▁entier 1
▁affect 1
▁taken 1
▁salle 1
ja 1
▁mi 1
▁longtemps 1
▁contrôle 1
ning 1
ble 1
▁calcul 1
▁devant 1
▁équipe 1
ç 1
▁voyons 1
▁défi 1
fu 1
▁conditions 1
▁powerful 1
▁Tu 1
▁cost 1
▁needs 1
▁seeing 1
▁nuit 1
▁cap 1
▁importante 1
▁amount 1
▁V 1
▁given 1
▁guys 1
▁map 1
ois 1
▁needed 1
▁deal 1
exp 1
▁dois 1
▁appelle 1
king 1
way 1
rop 1
À 1
▁construit 1
▁paper 1
▁mine 1
▁environnement 1
▁el 1
ran 1
bo 1
▁ab 1
time 1
▁india 1
sol 1
▁programme 1
ché 1
▁pensez 1
▁veulent 1
▁200 1
▁reality 1
red 1
▁70 1
▁takes 1
ose 1
▁fix 1
by 1
ium 1
▁transport 1
▁hands 1
▁Y 1
bu 1
sta 1
▁Ne 1
▁eight 1
bas 1
ward 1
▁entreprises 1
▁scientifiques 1
▁systèmes 1
aide 1
ateurs 1
▁Ceci 1
▁difference 1
▁happy 1
▁movement 1
▁demand 1
▁week 1
▁humaine 1
▁selon 1
ass 1
▁réalisé 1
▁low 1
▁perspective 1
ris 1
▁14 1
▁lit 1
▁yourself 1
ole 1
year 1
▁stay 1
▁transform 1
ien 1
▁droit 1
▁service 1
nd 1
▁informations 1
▁eyes 1
▁wall 1
▁protect 1
ane 1
▁father 1
▁began 1
▁bu 1
▁china 1
▁vite 1
avait 1
▁green 1
▁solutions 1
& 1
▁access 1
▁rate 1
▁York 1
▁humans 1
▁oui 1
▁oh 1
tant 1
▁area 1
let 1
you 1
▁90 1
ille 1
▁particulier 1
G 1
▁gauche 1
▁innovation 1
▁century 1
▁realized 1
▁doivent 1
ute 1
▁ri 1
▁audience 1
▁simply 1
▁domaine 1
▁challenge 1
▁route 1
▁mouvement 1
ral 1
0 1
▁vies 1
▁turned 1
▁services 1
ay 1
▁16 1
yn 1
▁puisse 1
▁Dieu 1
▁spend 1
ami 1
▁produits 1
▁climate 1
▁blue 1
▁size 1
fa 1
issent 1
▁Pas 1
▁production 1
▁fun 1
▁nu 1
ls 1
duc 1
▁key 1
▁communication 1
▁♪ 1
▁St 1
▁plant 1
▁jeune 1
▁prix 1
▁combien 1
▁sex 1
▁longer 1
▁shape 1
▁stress 1
▁Mo 1
▁mou 1
homme 1
▁traitement 1
▁Car 1
▁différence 1
▁solve 1
▁beginning 1
▁parlé 1
▁petites 1
▁génération 1
▁chacun 1
▁cannot 1
lan 1
▁parts 1
▁measure 1
iff 1
▁generation 1
▁17 1
▁deuxième 1
▁Chine 1
▁sea 1
▁explain 1
▁travaille 1
▁regarde 1
▁réellement 1
▁personal 1
▁visual 1
▁represent 1
▁visit 1
▁cha 1
▁bout 1
ey 1
▁port 1
▁pouvais 1
▁Re 1
▁stand 1
▁mari 1
ide 1
▁south 1
▁special 1
▁capital 1
▁cut 1
▁institutions 1
▁exist 1
ham 1
isse 1
né 1
▁réussi 1
▁die 1
▁whatever 1
▁hi 1
▁devenu 1
▁prochaine 1
▁moving 1
L 1
▁CA 1
▁espace 1
▁suite 1
▁né 1
▁terms 1
▁signal 1
cou 1
▁croissance 1
▁fire 1
▁nouveaux 1
ages 1
mêmes 1
aimerais 1
▁sortir 1
▁filles 1
oh 1
▁sent 1
dy 1
▁bl 1
▁begin 1
▁speak 1
", 1
▁Ainsi 1
ome 1
bra 1
▁blood 1
▁mission 1
▁court 1
▁venir 1
▁voix 1
▁v 1
▁lost 1
▁regard 1
▁confiance 1
▁final 1
▁différent 1
▁devient 1
ress 1
▁vent 1
▁action 1
▁pick 1
ssent 1
▁réseau 1
▁déc 1
▁ground 1
▁ton 1
ans 1
▁girl 1
▁pé 1
▁effet 1
▁report 1
▁na 1
▁radio 1
▁prise 1
val 1
▁carte 1
▁terme 1
▁centaines 1
▁present 1
▁tel 1
over 1
cl 1
▁endroits 1
▁habit 1
ros 1
▁fonction 1
▁break 1
esprit 1
raient 1
▁kid 1
▁wonderful 1
▁win 1
▁program 1
▁class 1
▁sold 1
▁value 1
▁strong 1
▁deep 1
so 1
ologie 1
▁rendu 1
▁fast 1
née 1
▁chemin 1
▁perdu 1
▁ag 1
▁pratique 1
for 1
▁zone 1
▁sol 1
▁hit 1
▁cat 1
▁rare 1
▁justice 1
▁stage 1
▁document 1
▁mode 1
uit 1
▁étudiants 1
▁spent 1
▁em 1
▁born 1
▁experiment 1
▁tri 1
▁semaines 1
▁dessus 1
one 1
▁ability 1
▁contact 1
▁tried 1
ock 1
▁oil 1
▁quickly 1
▁résoudre 1
▁cor 1
▁offer 1
▁fil 1
années 1
▁cœur 1
▁partager 1
▁droite 1
▁approach 1
▁fall 1
ef 1
▁lab 1
▁known 1
▁produce 1
▁parti 1
▁similar 1
▁autant 1
▁opportunity 1
▁either 1
▁travel 1
▁propres 1
▁focus 1
▁invest 1
▁lead 1
▁weeks 1
▁moitié 1
io 1
▁individual 1
▁sentiment 1
▁mêmes 1
▁star 1
▁rouge 1
▁product 1
▁hold 1
▁shows 1
nom 1
▁résultats 1
▁ait 1
année 1
led 1
▁multi 1
▁pri 1
▁medical 1
information 1
▁sw 1
▁touch 1
▁Al 1
▁efficace 1
▁based 1
▁scientists 1
▁semaine 1
nant 1
▁gone 1
▁page 1
▁complex 1
port 1
▁choisi 1
▁télé 1
▁profit 1
▁che 1
ug 1
udi 1
Afrique 1
▁etc 1
▁trust 1
top 1
▁distance 1
han 1
ization 1
▁allow 1
▁camp 1
▁rôle 1
▁visage 1
▁reach 1
éducation 1
ix 1
▁interested 1
▁content 1
▁moral 1
▁maladies 1
▁eat 1
ring 1
▁hospital 1
▁ice 1
▁soient 1
▁growing 1
▁growth 1
▁charge 1
ped 1
▁étions 1
▁laisser 1
tive 1
▁état 1
▁safe 1
▁rem 1
▁pr 1
▁montré 1
▁prêt 1
vol 1
▁wouldn 1
▁déco 1
▁issue 1
▁fe 1
▁pourraient 1
▁character 1
▁relation 1
▁derrière 1
▁cr 1
▁sitting 1
ps 1
▁street 1
▁north 1
ship 1
▁truth 1
▁positive 1
▁changes 1
▁provide 1
ica 1
université 1
▁500 1
▁digital 1
▁box 1
gin 1
met 1
av 1
▁african 1
▁valeur 1
▁har 1
▁clear 1
▁write 1
onne 1
▁z 1
▁minute 1
avi 1
▁fort 1
▁21 1
▁dna 1
inter 1
▁esprit 1
ding 1
▁tr 1
▁watch 1
▁conférence 1
▁law 1
▁camera 1
▁qualité 1
▁matin 1
▁voudrais 1
▁Afrique 1
▁development 1
▁terrible 1
▁fo 1
espère 1
▁rencontré 1
▁serve 1
▁fu 1
▁durant 1
▁char 1
▁Après 1
▁op 1
▁pensent 1
▁hundreds 1
▁cri 1
qué 1
▁Aujourd 1
ult 1
▁economy 1
▁girls 1
▁revolution 1
▁dép 1
▁quantité 1
▁risque 1
▁standard 1
nch 1
▁réel 1
▁numbers 1
▁fou 1
rez 1
▁vérité 1
▁sat 1
▁lorsqu 1
nu 1
▁understanding 1
▁employ 1
▁théorie 1
▁extra 1
▁average 1
ures 1
▁realize 1
▁construction 1
emb 1
▁poli 1
▁morning 1
fin 1
▁vis 1
▁anyone 1
▁tendance 1
▁raisons 1
▁knowledge 1
what 1
▁baby 1
day 1
▁passion 1
▁incredible 1
ain 1
▁nombreux 1
▁San 1
▁leaders 1
lement 1
nk 1
▁lire 1
▁termes 1
uck 1
xi 1
▁livres 1
▁goal 1
▁ru 1
▁drive 1
▁crise 1
▁Peut 1
▁literally 1
▁lo 1
▁développé 1
teurs 1
utiliser 1
▁alone 1
izing 1
▁fa 1
▁result 1
▁réalis 1
▁pain 1
ious 1
▁accident 1
vent 1
ui 1
▁Br 1
▁nice 1
▁Ca 1
▁physical 1
gue 1
amour 1
▁soon 1
ze 1
▁strange 1
▁network 1
▁books 1
lie 1
▁nombreuses 1
▁dessin 1
▁Se 1
▁performance 1
▁ban 1
▁material 1
▁international 1
▁bank 1
▁reli 1
▁movie 1
her 1
▁ren 1
ord 1
▁ver 1
istes 1
▁telling 1
▁tools 1
▁brought 1
▁prop 1
ates 1
▁scientifique 1
▁finalement 1
▁forest 1
ête 1
ny 1
▁Avec 1
▁areas 1
▁dead 1
▁différente 1
cor 1
▁seems 1
tiques 1
▁13 1
vé 1
org 1
cal 1
▁pourrions 1
▁seconde 1
▁Notre 1
▁ami 1
ake 1
ption 1
▁moments 1
▁troisième 1
▁aid 1
▁mu 1
▁effect 1
off 1
▁24 1
▁instant 1
▁meet 1
▁cal 1
▁premiers 1
▁matière 1
▁dream 1
▁likely 1
▁dark 1
univers 1
▁nécessaire 1
▁intelligent 1
époque 1
▁rester 1
▁parmi 1
isé 1
▁listen 1
af 1
▁cru 1
▁disait 1
▁giving 1
▁race 1
▁direct 1
▁journée 1
▁professeur 1
▁devrions 1
lon 1
▁crée 1
▁connaissance 1
▁essayé 1
▁langue 1
▁especially 1
fr 1
▁road 1
▁starting 1
▁surtout 1
▁cars 1
▁issues 1
▁contr 1
mes 1
▁pièce 1
bit 1
ping 1
tation 1
ong 1
▁faisant 1
wa 1
spect 1
▁produire 1
▁intelligence 1
vin 1
▁scène 1
▁doute 1
▁sit 1
nel 1
▁Ensuite 1
▁étant 1
▁mauvais 1
▁demi 1
▁ressources 1
▁heureux 1
▁mass 1
▁influence 1
▁bottom 1
▁encourage 1
▁extraordinaire 1
▁voie 1
▁modern 1
▁pose 1
▁pa 1
mat 1
▁voitures 1
▁pensons 1
▁wrote 1
▁climatique 1
▁running 1
▁nation 1
▁mental 1
lant 1
rus 1
▁So 1
▁forward 1
▁absolutely 1
▁Mi 1
ana 1
▁vraie 1
▁faible 1
▁major 1
umb 1
isant 1
▁ordinateur 1
▁feet 1
▁OK 1
▁taux 1
su 1
ok 1
▁continent 1
▁push 1
don 1
▁groupes 1
▁teach 1
▁developed 1
ists 1
istic 1
▁ge 1
▁soi 1
▁Pa 1
▁industry 1
▁fini 1
▁reçu 1
▁résultat 1
▁époque 1
non 1
▁save 1
van 1
▁travaillé 1
▁général 1
▁guess 1
▁politiques 1
▁recently 1
▁blanc 1
my 1
▁success 1
▁importe 1
▁mains 1
▁série 1
▁asking 1
▁relations 1
ndre 1
▁outils 1
▁vitesse 1
▁fils 1
▁miles 1
▁office 1
mar 1
▁longue 1
▁développer 1
▁faisait 1
▁aura 1
▁vois 1
▁discovered 1
ograph 1
▁cher 1
▁worth 1
▁belle 1
▁Plus 1
▁double 1
▁send 1
▁rapide 1
▁pla 1
▁crime 1
▁forces 1
▁spread 1
▁seront 1
▁obtenir 1
▁lors 1
▁online 1
▁mètres 1
are 1
ever 1
▁pensée 1
og 1
▁sortes 1
▁mars 1
▁commercial 1
▁trait 1
▁col 1
hy 1
action 1
ren 1
cho 1
▁parties 1
▁règles 1
▁door 1
▁creating 1
▁jobs 1
▁gas 1
cher 1
▁celles 1
▁path 1
▁role 1
▁accept 1
▁moyenne 1
▁ran 1
row 1
▁génétique 1
ability 1
▁subject 1
▁recognize 1
▁sounds 1
expérience 1
▁voulait 1
éni 1
▁university 1
▁conscience 1
▁terrain 1
▁réfléchir 1
▁carbon 1
▁total 1
▁cl 1
▁fit 1
▁période 1
▁develop 1
ari 1
▁treat 1
aw 1
riez 1
▁designed 1
▁eye 1
▁soleil 1
▁marcher 1
▁pauvres 1
▁zones 1
▁chercher 1
▁raconter 1
▁nobody 1
▁pire 1
▁vivent 1
▁entreprise 1
évolution 1
▁communities 1
▁para 1
▁haute 1
▁active 1
éli 1
V 1
▁succès 1
▁viennent 1
▁fan 1
▁tiny 1
▁papier 1
▁continuer 1
▁agree 1
atif 1
▁choice 1
▁trouble 1
▁screen 1
▁pal 1
▁atteint 1
▁Co 1
▁europe 1
ification 1
▁changing 1
▁manque 1
▁utilisant 1
▁follow 1
▁bonnes 1
▁wonder 1
ient 1
▁seem 1
▁bras 1
bb 1
Et 1
▁smart 1
ologist 1
▁collective 1
quer 1
▁consider 1
▁beyond 1
▁peine 1
▁favorite 1
dr 1
▁utilise 1
▁modèles 1
érer 1
▁organ 1
▁relationship 1
aï 1
▁vivant 1
▁In 1
dessus 1
▁Même 1
▁period 1
▁net 1
▁basic 1
▁bus 1
▁central 1
ka 1
▁intéressante 1
▁college 1
si 1
▁coin 1
▁joue 1
▁allait 1
▁kill 1
▁showed 1
▁sleep 1
▁bons 1
▁découvrir 1
▁clean 1
▁mobile 1
▁sport 1
▁langage 1
▁cycle 1
▁vote 1
pu 1
▁card 1
▁hy 1
▁tas 1
étaient 1
▁resources 1
▁vert 1
▁recherches 1
▁Z 1
édit 1
▁inform 1
▁nine 1
▁evidence 1
ual 1
▁gives 1
▁portable 1
▁solaire 1
isée 1
▁talked 1
▁exc 1
▁connection 1
▁pourriez 1
▁wait 1
▁fly 1
▁solar 1
▁expect 1
▁towards 1
light 1
▁algorithm 1
▁groups 1
▁Imaginez 1
▁journey 1
oop 1
issant 1
image 1
impression 1
▁meilleurs 1
▁add 1
▁énergie 1
▁fight 1
cut 1
▁sang 1
▁Qui 1
▁conçu 1
▁savent 1
▁station 1
▁playing 1
▁espèces 1
▁check 1
cation 1
▁boy 1
▁reasons 1
▁park 1
▁massive 1
▁poser 1
▁découverte 1
▁certaine 1
▁treatment 1
▁Ch 1
étique 1
▁retour 1
▁pouvaient 1
▁libre 1
har 1
▁dépend 1
▁étude 1
za 1
▁viol 1
▁pot 1
lier 1
adore 1
▁noir 1
▁aide 1
éta 1
▁search 1
environnement 1
▁regardé 1
▁several 1
▁general 1
▁mur 1
▁dr 1
▁incredibly 1
▁bureau 1
▁theory 1
▁liste 1
▁gaz 1
oir 1
▁publique 1
▁croire 1
▁expériences 1
▁attack 1
▁response 1
▁rue 1
▁connu 1
▁300 1
kin 1
▁count 1
bri 1
j 1
▁Certains 1
âge 1
ule 1
ères 1
▁Sud 1
▁infrastructure 1
nn 1
▁É 1
▁sociaux 1
▁couleur 1
ned 1
▁region 1
▁haven 1
▁films 1
▁Internet 1
▁perfect 1
▁lived 1
▁interest 1
▁assis 1
avant 1
▁gars 1
▁révolution 1
▁médicaments 1
▁conception 1
▁génial 1
▁répond 1
▁mom 1
▁developing 1
▁notion 1
▁deliver 1
ctor 1
rap 1
aller 1
▁objets 1
▁réaliser 1
▁sociétés 1
put 1
▁bigger 1
▁practice 1
▁track 1
▁tâche 1
▁computers 1
▁argument 1
▁Ba 1
humanité 1
▁becomes 1
▁invent 1
▁plu 1
▁projets 1
▁increase 1
éré 1
▁pourtant 1
▁appelée 1
▁aren 1
▁civil 1
▁Chaque 1
▁rêve 1
▁slow 1
▁rights 1
▁lose 1
▁dog 1
hu 1
▁potential 1
▁putting 1
▁fail 1
▁h 1
▁chef 1
▁drug 1
▁ordinateurs 1
▁Ha 1
▁rempli 1
▁laboratoire 1
▁conduit 1
▁pensais 1
▁pull 1
▁ka 1
▁block 1
▁medicine 1
▁rev 1
rent 1
▁english 1
▁sept 1
▁région 1
tch 1
▁surprise 1
▁rich 1
▁économie 1
▁Beaucoup 1
économie 1
▁Ar 1
▁president 1
▁anybody 1
▁tent 1
▁objectif 1
▁ayant 1
F 1
▁condition 1
▁google 1
atrice 1
cré 1
▁communautés 1
ically 1
▁hundred 1
▁hum 1
▁store 1
iel 1
▁truc 1
▁suivante 1
▁courant 1
èrent 1
▁predict 1
imp 1
▁changements 1
▁savais 1
▁security 1
▁pictures 1
▁original 1
▁object 1
▁structures 1
▁démocratie 1
▁grandi 1
▁ouvert 1
▁architecture 1
▁eventually 1
▁wi 1
▁further 1
▁tradition 1
nait 1
▁quartier 1
▁continu 1
▁interview 1
▁Google 1
▁farm 1
stro 1
▁account 1
▁drugs 1
▁term 1
▁chi 1
▁danger 1
▁enter 1
▁os 1
▁achieve 1
▁neuro 1
nelle 1
▁cherche 1
▁bâtiment 1
▁obviously 1
▁families 1
▁died 1
▁threat 1
▁adapt 1
▁magic 1
▁approche 1
▁gene 1
▁available 1
▁discussion 1
▁organization 1
▁meaning 1
lit 1
▁suivre 1
▁wind 1
▁appear 1
rie 1
▁rat 1
▁combat 1
▁bal 1
▁libér 1
▁feed 1
▁perform 1
▁successful 1
▁transformation 1
▁Dé 1
▁représente 1
▁perd 1
▁soins 1
▁month 1
▁carbone 1
▁capables 1
▁rock 1
▁rules 1
ified 1
▁perception 1
table 1
▁finding 1
▁scientific 1
▁champ 1
▁formes 1
▁mauvaise 1
mu 1
▁blog 1
▁wish 1
▁fat 1
lly 1
▁imaginer 1
▁Ici 1
▁bed 1
rain 1
▁numérique 1
▁involved 1
▁near 1
▁choose 1
▁cour 1
avère 1
▁cross 1
▁origin 1
▁magnifique 1
▁Etats 1
▁Lorsque 1
ology 1
pre 1
▁mountain 1
▁bizarre 1
▁espèce 1
▁jeux 1
▁speed 1
▁please 1
K 1
▁hot 1
log 1
vert 1
lle 1
▁notice 1
low 1
▁mise 1
▁vit 1
▁façons 1
ley 1
▁creative 1
▁survive 1
of 1
ju 1
▁schools 1
▁doctor 1
▁descend 1
▁accès 1
ène 1
▁comprend 1
apprentissage 1
▁certainly 1
▁Pendant 1
ack 1
▁radical 1
ati 1
▁alternative 1
▁correspond 1
▁droits 1
▁études 1
▁peace 1
▁récemment 1
▁fine 1
▁writing 1
▁amp 1
▁sexe 1
▁Nord 1
▁Mars 1
▁capture 1
▁masse 1
ama 1
▁magazine 1
omb 1
▁familles 1
▁potentiel 1
▁U 1
▁poverty 1
form 1
▁jo 1
▁genetic 1
lock 1
▁recon 1
▁– 1
nais 1
U 1
▁débat 1
▁tap 1
▁list 1
▁west 1
ches 1
▁walking 1
▁création 1
▁cou 1
▁beau 1
▁transformer 1
▁manger 1
ît 1
▁hiv 1
▁mini 1
ï 1
▁Sur 1
abilité 1
▁liberté 1
▁phrase 1
ude 1
▁protection 1
▁refus 1
▁loi 1
▁vécu 1
▁trucs 1
▁x 1
▁organism 1
▁skin 1
▁chant 1
▁conflit 1
▁uniquement 1
▁return 1
▁flow 1
▁late 1
▁emp 1
▁Chris 1
▁faite 1
▁Bo 1
▁moderne 1
été 1
▁suggest 1
▁particularly 1
▁sky 1
▁moved 1
▁bat 1
▁text 1
▁conflict 1
▁function 1
▁higher 1
▁brains 1
oo 1
rés 1
particulièrement 1
▁examples 1
▁results 1
▁grew 1
▁throw 1
▁méthode 1
▁médias 1
▁remain 1
▁indeed 1
▁urban 1
▁email 1
▁interact 1
▁Oh 1
▁réfléchi 1
▁talent 1
▁couche 1
▁soir 1
▁échelle 1
ète 1
▁decision 1
▁ready 1
▁join 1
pan 1
▁cover 1
euses 1
▁sein 1
▁Mar 1
▁extrêmement 1
▁telle 1
▁réaction 1
▁sentir 1
▁quant 1
▁match 1
▁contribu 1
▁moyens 1
avenir 1
▁expliquer 1
▁simples 1
▁wa 1
▁price 1
▁disant 1
où 1
▁venu 1
hop 1
▁crazy 1
▁hole 1
û 1
▁pauvreté 1
▁supposed 1
▁correct 1
▁student 1
▁répondu 1
▁complexe 1
▁puissant 1
▁invisible 1
▁chinese 1
▁personnel 1
▁appel 1
érie 1
▁utilisent 1
▁tôt 1
▁democracy 1
▁showing 1
▁"( 1
▁Vi 1
▁chiffres 1
▁biggest 1
▁among 1
▁meeting 1
▁parent 1
rb 1
état 1
Amérique 1
▁responsable 1
▁noire 1
▁répondre 1
▁Ra 1
ics 1
▁watching 1
▁école 1
▁software 1
▁river 1
▁stick 1
ouch 1
▁everywhere 1
▁draw 1
▁cultures 1
▁feu 1
▁choisir 1
▁partage 1
▁connais 1
ase 1
▁stock 1
ssant 1
▁Ho 1
▁totally 1
▁device 1
▁task 1
▁techniques 1
asse 1
▁song 1
▁poll 1
▁sites 1
▁suddenly 1
▁starts 1
▁vieux 1
▁étape 1
▁exciting 1
▁daughter 1
▁compagnie 1
▁étrange 1
antes 1
bert 1
▁cro 1
▁désir 1
▁finir 1
▁élevé 1
▁including 1
▁wave 1
▁Quelle 1
▁enfin 1
industrie 1
▁totalement 1
▁fuel 1
▁quality 1
▁observ 1
▁evolution 1
heure 1
▁similaire 1
▁context 1
dis 1
▁female 1
▁soul 1
▁dance 1
▁architect 1
ound 1
▁article 1
▁individuals 1
▁protéger 1
oubli 1
▁chris 1
train 1
▁bill 1
▁plants 1
▁courage 1
étend 1
ADN 1
▁shift 1
▁forte 1
▁Pe 1
▁éléments 1
▁frère 1
ordinateur 1
▁médecine 1
ging 1
▁depend 1
ries 1
fo 1
▁mange 1
▁gagner 1
▁onto 1
▁trip 1
sum 1
▁wide 1
▁compare 1
▁absolument 1
▁east 1
gram 1
▁male 1
▁technique 1
▁aime 1
▁ferme 1
▁électrique 1
▁square 1
▁hé 1
▁entend 1
espoir 1
▁trade 1
▁drop 1
▁causes 1
ash 1
▁restaurant 1
▁former 1
▁foot 1
▁cases 1
q 1
▁pétrole 1
▁lancé 1
après 1
▁naturel 1
▁require 1
▁brother 1
▁date 1
▁leadership 1
▁actions 1
▁da 1
▁named 1
▁detail 1
cide 1
▁essai 1
▁atteindre 1
rice 1
▁worse 1
▁connected 1
▁however 1
▁prevent 1
▁pou 1
▁soutien 1
▁permettre 1
▁ignor 1
▁waste 1
▁traditional 1
▁taught 1
▁meant 1
▁spécial 1
▁glace 1
▁press 1
▁chemical 1
▁exemples 1
▁premières 1
océan 1
▁letter 1
work 1
▁largest 1
▁hour 1
bor 1
cour 1
▁marque 1
étude 1
▁devait 1
▁crisis 1
▁formation 1
▁memory 1
▁lesquelles 1
▁Quel 1
▁lower 1
▁allowed 1
▁loved 1
▁career 1
▁permis 1
▁génér 1
▁utile 1
▁island 1
▁nano 1
▁teachers 1
▁fondamentale 1
▁départ 1
▁erreur 1
▁address 1
▁john 1
▁tests 1
▁standing 1
▁zero 1
▁detect 1
▁limit 1
▁envoyé 1
▁devenue 1
▁improve 1
▁tool 1
▁deviennent 1
erie 1
▁durable 1
écri 1
▁sociale 1
▁essentially 1
aise 1
Je 1
▁écrire 1
▁cold 1
▁disc 1
▁fundamental 1
▁vend 1
attend 1
mère 1
▁traiter 1
▁fur 1
▁principle 1
▁rencontre 1
▁revenir 1
rique 1
▁shown 1
▁véritable 1
delà 1
▁Pro 1
▁anyway 1
▁ball 1
▁2000 1
▁conversations 1
▁huit 1
▁dites 1
▁bodies 1
▁américaine 1
▁discours 1
▁silence 1
▁nord 1
auto 1
▁suivant 1
▁plantes 1
▁compliqué 1
▁carrière 1
▁projects 1
▁infect 1
▁passage 1
▁clair 1
▁décisions 1
éti 1
▁gènes 1
▁caméra 1
▁montagne 1
▁range 1
ques 1
lk 1
▁budget 1
▁extraordinary 1
▁sexual 1
▁plastic 1
fer 1
▁John 1
▁secteur 1
▁contexte 1
▁engage 1
▁ram 1
▁cop 1
▁extremely 1
▁link 1
▁products 1
▁models 1
rin 1
▁flu 1
ncer 1
▁expression 1
▁grave 1
▁moteur 1
!" 1
▁somewhere 1
▁dimensions 1
▁usually 1
▁clé 1
▁peuple 1
▁vivons 1
▁factor 1
verse 1
▁voisin 1
▁trees 1
▁imagination 1
▁respond 1
▁importantes 1
▁financial 1
▁experts 1
▁older 1
électricité 1
▁sauver 1
▁excited 1
▁serious 1
▁pages 1
▁shot 1
▁auparavant 1
ft 1
iller 1
ov 1
▁rise 1
▁doctors 1
▁cloud 1
▁march 1
▁lois 1
▁réduire 1
▁Inde 1
▁Regardez 1
▁reduce 1
▁freedom 1
▁distribution 1
▁évident 1
▁dehors 1
▁X 1
▁peau 1
▁decisions 1
▁materials 1
ney 1
▁sud 1
▁payer 1
▁travaillent 1
isés 1
égalité 1
▁reading 1
▁mix 1
▁logiciel 1
▁board 1
▁tells 1
▁nuclear 1
▁critique 1
ncé 1
▁acheter 1
▁contraire 1
▁Ka 1
▁truly 1
▁objects 1
▁note 1
▁healthy 1
▁blind 1
▁opportunité 1
rat 1
▁buildings 1
▁sad 1
▁violent 1
▁bord 1
▁membres 1
▁littéralement 1
▁To 1
▁bacteria 1
music 1
▁nucléaire 1
▁tree 1
▁none 1
▁campagne 1
▁directement 1
▁fallait 1
ssons 1
enfants 1
lay 1
arch 1
▁cellule 1
▁famous 1
jo 1
▁occup 1
▁dix 1
▁décision 1
avaient 1
▁défini 1
▁biologique 1
▁suivi 1
▁remind 1
▁majorité 1
▁collègues 1
▁réseaux 1
▁écoles 1
▁training 1
▁opinion 1
▁wild 1
ett 1
▁concerne 1
▁forêt 1
▁Lo 1
▁partner 1
▁genes 1
▁somehow 1
▁messages 1
▁pattern 1
▁humanity 1
▁naturelle 1
▁chaud 1
▁Su 1
▁wife 1
▁gal 1
habitude 1
▁mondial 1
▁kilomètres 1
▁incroyablement 1
▁arrière 1
▁killed 1
▁policy 1
▁nations 1
▁beings 1
▁bonheur 1
▁critical 1
▁games 1
▁gouvernements 1
▁bag 1
▁thousand 1
assembl 1
cus 1
▁gar 1
▁argent 1
▁examin 1
rée 1
▁chien 1
▁tissu 1
▁mit 1
▁allows 1
▁faster 1
▁artist 1
rate 1
▁gay 1
▁suppose 1
▁conseil 1
égal 1
rions 1
▁ét 1
▁respir 1
▁temp 1
▁above 1
équipe 1
▁mourir 1
▁purpose 1
▁window 1
▁stars 1
▁bébé 1
▁mark 1
▁posé 1
▁boîte 1
▁designers 1
▁complete 1
▁fund 1
meter 1
▁riches 1
Inde 1
▁Di 1
▁bunch 1
▁floor 1
▁dad 1
nons 1
▁utilisons 1
aurais 1
▁tire 1
▁explore 1
▁town 1
▁guide 1
▁valeurs 1
▁lesson 1
▁président 1
▁400 1
▁kept 1
anthrop 1
▁cuisine 1
▁hair 1
J 1
endroit 1
pping 1
bon 1
isent 1
▁intérêt 1
▁puissance 1
▁possibilité 1
▁Tous 1
▁tax 1
▁ship 1
naire 1
alité 1
▁Amérique 1
▁except 1
▁cook 1
▁jump 1
dia 1
▁Mes 1
▁finance 1
▁institution 1
▁workers 1
▁teacher 1
▁progrès 1
▁sell 1
▁larger 1
▁complicated 1
▁branch 1
nent 1
innovation 1
▁morts 1
ième 1
W 1
▁étudier 1
▁doigt 1
▁mémoire 1
part 1
0,000 1
▁emotional 1
▁lines 1
▁skills 1
▁chat 1
▁aim 1
▁pleine 1
▁prennent 1
▁prenez 1
échelle 1
▁personnage 1
▁clearly 1
▁afford 1
▁gras 1
▁menace 1
isons 1
▁income 1
▁wealth 1
▁governments 1
▁upon 1
point 1
▁ended 1
▁augmente 1
▁devoir 1
attrap 1
radi 1
▁style 1
▁multiple 1
▁gain 1
▁merci 1
▁utilisée 1
▁âge 1
▁target 1
▁challenges 1
allais 1
▁Ré 1
▁ciel 1
▁Laissez 1
ably 1
▁dollar 1
▁decades 1
gy 1
▁lever 1
▁Li 1
▁slide 1
▁collection 1
▁pieces 1
▁spot 1
▁circuit 1
cha 1
▁bin 1
▁weren 1
▁finger 1
▁paint 1
berg 1
hal 1
▁activité 1
▁disponible 1
▁risques 1
▁Ok 1
how 1
can 1
▁private 1
▁glass 1
▁studies 1
▁patterns 1
mmer 1
▁dépense 1
▁objet 1
▁dangerous 1
▁75 1
▁proche 1
right 1
▁values 1
▁revenu 1
nés 1
mètre 1
▁tomber 1
▁bleu 1
▁garder 1
▁politics 1
▁joy 1
▁roll 1
▁express 1
▁specific 1
▁earlier 1
▁happiness 1
▁œuvre 1
▁froid 1
▁tombe 1
ologique 1
▁visible 1
▁waiting 1
▁biology 1
▁listening 1
▁anymore 1
vienne 1
▁responsabilité 1
▁chinois 1
Musique 1
▁military 1
▁worry 1
▁era 1
▁decide 1
▁gold 1
▁stratégie 1
▁Me 1
▁print 1
▁neighborhood 1
▁raise 1
dire 1
▁matériaux 1
▁discover 1
▁cultural 1
▁san 1
ina 1
uf 1
▁sorti 1
▁pourrais 1
▁lien 1
Le 1
▁current 1
▁environmental 1
▁suit 1
▁alive 1
▁ke 1
▁accord 1
▁température 1
▁Là 1
▁devais 1
▁significant 1
press 1
like 1
▁website 1
▁although 1
▁trial 1
▁disons 1
▁numéro 1
▁médecin 1
▁bulle 1
▁victim 1
▁galaxies 1
▁plastique 1
▁fruit 1
▁150 1
▁forget 1
▁clients 1
▁industrial 1
▁perte 1
▁commencent 1
▁shared 1
▁aspects 1
▁prof 1
▁tro 1
▁km 1
utilisation 1
▁concevoir 1
▁reflect 1
▁microbes 1
grad 1
▁arrêté 1
▁effort 1
board 1
▁souvenir 1
▁entendre 1
▁beauté 1
▁ressent 1
▁améliorer 1
▁effective 1
▁rule 1
▁enjoy 1
▁conclusion 1
▁tv 1
▁symbol 1
entreprise 1
▁secondes 1
▁laissé 1
▁No 1
▁Te 1
▁citoyens 1
▁Personne 1
▁propriété 1
électro 1
▁activity 1
ush 1
▁becoming 1
▁agent 1
▁virtual 1
▁publié 1
▁réponses 1
▁horrible 1
quant 1
▁morceau 1
▁americans 1
▁scan 1
▁math 1
▁greatest 1
▁physics 1
▁chaîne 1
▁written 1
▁throughout 1
ira 1
▁vide 1
▁envers 1
▁chanson 1
▁leçon 1
▁célèbre 1
▁electricity 1
▁constitu 1
▁hate 1
▁facilit 1
ker 1
▁biologie 1
▁sorts 1
▁exact 1
▁volume 1
nation 1
▁spin 1
▁déplace 1
▁Ri 1
tiennent 1
▁rain 1
▁honest 1
gon 1
▁pressure 1
▁transition 1
▁locale 1
▁profonde 1
ifié 1
▁series 1
▁levels 1
▁beauty 1
▁instance 1
▁actual 1
▁35 1
▁babies 1
▁laws 1
▁médecins 1
▁tirer 1
▁voulaient 1
▁bomb 1
▁familiar 1
▁citizens 1
▁faux 1
▁clinique 1
▁diseases 1
▁moon 1
▁therefore 1
arc 1
▁helped 1
issement 1
▁viens 1
▁spécifique 1
▁Be 1
▁trouvent 1
ombien 1
but 1
▁forms 1
▁expensive 1
▁chances 1
med 1
ya 1
importance 1
▁bateau 1
▁Ni 1
▁profond 1
net 1
▁include 1
▁painting 1
▁collaboration 1
▁intention 1
▁conséquences 1
▁devraient 1
▁sources 1
place 1
▁insect 1
▁balance 1
▁seuls 1
▁contenu 1
▁souviens 1
aujourd 1
▁unfortunately 1
▁hero 1
▁Nos 1
▁Son 1
▁entière 1
▁willing 1
▁experiences 1
▁pop 1
▁cheap 1
▁labor 1
▁ki 1
▁contain 1
▁pub 1
▁actuellement 1
▁inventé 1
gén 1
▁Po 1
▁paix 1
▁remarquable 1
▁sister 1
▁plate 1
▁birth 1
▁adopt 1
▁Wa 1
▁harm 1
▁prototype 1
▁douleur 1
▁lié 1
▁certainement 1
▁vendre 1
▁meilleures 1
▁intéressé 1
▁pousser 1
▁minds 1
▁apply 1
origine 1
▁journal 1
▁formidable 1
▁temperature 1
▁45 1
▁notes 1
$ 1
▁western 1
▁vaccin 1
évit 1
▁neuf 1
ards 1
▁bone 1
▁puissent 1
▁voulu 1
▁pouvions 1
ué 1
utilise 1
œ 1
▁bear 1
cop 1
▁pair 1
▁sand 1
▁cartes 1
▁poids 1
▁construis 1
▁heure 1
▁driving 1
▁rural 1
▁enormous 1
▁separate 1
▁relationships 1
▁smaller 1
▁prove 1
▁coral 1
voir 1
▁rap 1
▁tourner 1
▁étudié 1
▁Quelque 1
▁immediately 1
▁biological 1
▁pet 1
▁pur 1
rise 1
▁difficiles 1
▁orbit 1
▁custom 1
hand 1
imi 1
▁anywhere 1
▁phase 1
▁ci 1
▁fonctionner 1
▁contrôler 1
▁ancien 1
▁colleagues 1
▁player 1
than 1
▁importance 1
▁costs 1
▁fabriquer 1
▁émotions 1
▁aimer 1
▁lancer 1
▁neighbor 1
▁trick 1
state 1
▁pat 1
▁boys 1
▁impression 1
▁mid 1
▁phénomène 1
▁titre 1
▁Vo 1
▁effets 1
▁concern 1
▁pollution 1
▁summer 1
▁colon 1
▁mistake 1
▁professional 1
▁crucial 1
▁fasse 1
▁matériel 1
▁présenter 1
▁Com 1
ivité 1
entend 1
▁museum 1
▁method 1
▁pure 1
▁walked 1
▁rot 1
tour 1
issons 1
▁rappelle 1
ensemble 1
▁revenus 1
atique 1
▁organizations 1
▁seat 1
▁party 1
▁pin 1
▁chair 1
▁greater 1
▁facebook 1
▁naissance 1
▁vieille 1
▁entièrement 1
▁breath 1
▁interface 1
▁struggle 1
▁popular 1
▁cave 1
▁hors 1
▁merveilleux 1
▁milliard 1
Uni 1
▁alimentaire 1
term 1
mate 1
▁corruption 1
▁kilo 1
ani 1
▁tube 1
▁trace 1
orn 1
▁remarqué 1
▁Na 1
▁neurones 1
▁pièces 1
▁fri 1
craft 1
▁drink 1
tech 1
▁himself 1
▁connexion 1
▁occasion 1
existe 1
▁café 1
▁tombé 1
▁partenaire 1
▁Do 1
▁souhaite 1
▁regardant 1
▁addition 1
▁fantastic 1
▁failure 1
▁facilement 1
▁faisaient 1
▁réagi 1
▁existence 1
ight 1
▁arch 1
ko 1
▁identity 1
vant 1
▁tort 1
▁anglais 1
▁possède 1
▁connecté 1
étudie 1
▁engineering 1
▁motivation 1
▁communicate 1
ray 1
▁américain 1
écu 1
▁speech 1
▁weight 1
▁fair 1
▁corner 1
▁ski 1
▁criminal 1
▁accompli 1
çon 1
▁tenir 1
▁tuer 1
▁Deux 1
▁speaking 1
▁initial 1
▁myth 1
▁graph 1
rib 1
▁perdre 1
▁Facebook 1
▁legal 1
▁situations 1
die 1
▁despite 1
face 1
gan 1
▁retire 1
▁côte 1
▁parlons 1
▁caractéristique 1
atmosphère 1
▁souris 1
▁circle 1
▁whose 1
▁forth 1
▁copie 1
▁sac 1
aider 1
▁arbres 1
▁fantastique 1
▁chambre 1
▁véhicule 1
▁Europe 1
▁brand 1
▁pile 1
▁decade 1
▁distribu 1
▁roul 1
▁présentation 1
rires 1
▁malade 1
▁étudiant 1
▁bébés 1
▁laugh 1
ison 1
▁exploit 1
▁teaching 1
▁malgré 1
▁score 1
▁gun 1
▁bois 1
▁gérer 1
▁outil 1
▁heat 1
▁election 1
mbo 1
jou 1
▁grosse 1
▁imaginez 1
▁arrêter 1
▁honnête 1
▁bruit 1
▁graphique 1
▁compétences 1
▁leader 1
▁master 1
▁foundation 1
▁mostly 1
▁psych 1
▁cadre 1
▁parlent 1
▁choices 1
▁catch 1
▁recent 1
▁rid 1
▁complexes 1
▁désormais 1
▁entrer 1
▁campaign 1
▁cognitive 1
▁ahead 1
▁broken 1
aboli 1
▁arab 1
▁landscape 1
▁collabor 1
▁venue 1
Ex 1
▁programmes 1
▁voler 1
▁rayon 1
▁replace 1
▁apart 1
▁obvious 1
range 1
▁streets 1
▁sensation 1
▁univers 1
ifier 1
▁lesquels 1
▁effectivement 1
▁compréhension 1
▁pêche 1
▁ressembler 1
▁personnelle 1
▁lack 1
▁afraid 1
bal 1
▁london 1
▁permettent 1
▁plaisir 1
élé 1
▁monter 1
hel 1
▁hall 1
▁vague 1
ographie 1
▁signe 1
▁éco 1
▁essayons 1
▁honor 1
▁generate 1
▁van 1
▁genome 1
phone 1
▁pied 1
▁banque 1
▁clairement 1
▁worst 1
▁loss 1
▁satellite 1
▁singe 1
▁option 1
▁climat 1
▁Cependant 1
▁rythme 1
▁rivière 1
▁heureuse 1
▁He 1
▁quick 1
▁atmosphere 1
▁contract 1
bar 1
appel 1
▁parfait 1
activité 1
▁établi 1
▁diversité 1
▁Hu 1
▁poissons 1
▁garçon 1
rry 1
▁useful 1
▁sick 1
50 1
▁feature 1
▁vehicle 1
night 1
▁gender 1
▁mille 1
▁analyse 1
▁laissez 1
▁paysage 1
▁réelle 1
▁degré 1
▁sommet 1
▁pression 1
▁feuille 1
▁poisson 1
▁chain 1
▁immense 1
▁bridge 1
▁event 1
▁straight 1
▁unit 1
▁prêts 1
▁eau 1
▁Du 1
▁invention 1
inclu 1
▁random 1
▁efforts 1
▁knowing 1
wood 1
▁conserv 1
▁following 1
uk 1
▁Cet 1
▁créativité 1
▁difficulté 1
▁défis 1
ency 1
▁protein 1
▁constant 1
▁mariage 1
▁précis 1
▁tim 1
arian 1
▁neurons 1
trait 1
▁islam 1
environ 1
▁définition 1
intéresse 1
▁océans 1
▁paid 1
▁observer 1
▁stopped 1
▁réunion 1
ordinaire 1
êtes 1
▁chercheurs 1
▁tech 1
▁spoke 1
▁protest 1
▁aspect 1
▁emerge 1
▁99 1
▁lance 1
▁logique 1
▁limites 1
▁tourne 1
▁disaient 1
▁preuve 1
▁différences 1
▁expand 1
▁traffic 1
ki 1
▁gang 1
▁démo 1
▁présente 1
llement 1
▁sculpture 1
▁arts 1
▁effects 1
▁spa 1
▁understood 1
▁sum 1
▁planets 1
▁profondément 1
▁Où 1
▁protéine 1
▁garçons 1
▁whi 1
ular 1
▁garden 1
venir 1
▁lieux 1
▁Pr 1
▁television 1
▁shoot 1
▁describe 1
▁highly 1
▁prior 1
war 1
▁microscope 1
▁servir 1
▁passent 1
▁réduit 1
▁Toutes 1
▁emotions 1
▁belief 1
▁dig 1
▁rob 1
▁tissue 1
▁fiction 1
▁drogue 1
▁organisation 1
▁colère 1
▁consommation 1
▁informatique 1
▁élèves 1
▁compar 1
▁gap 1
▁fier 1
▁conscient 1
▁balle 1
Qu 1
▁puissante 1
▁apport 1
▁conference 1
▁motor 1
cap 1
▁investment 1
▁commerce 1
▁industrie 1
▁poly 1
▁connaissez 1
▁amour 1
▁attaque 1
▁nuage 1
▁saving 1
▁destroy 1
▁answers 1
▁layer 1
▁author 1
▁nearly 1
▁command 1
▁divide 1
▁programs 1
▁carré 1
▁ailleurs 1
▁Depuis 1
▁accessible 1
▁servi 1
▁obtenu 1
▁sauf 1
ailleurs 1
▁réuni 1
▁mentale 1
▁principe 1
▁affaires 1
▁Très 1
▁scientist 1
▁diversity 1
toi 1
wo 1
▁societies 1
not 1
▁22 1
rd 1
aille 1
▁planètes 1
▁principale 1
amélior 1
▁immédiatement 1
▁cardiaque 1
▁montrent 1
▁sœur 1
▁shock 1
▁entrepreneurs 1
▁instrument 1
▁vast 1
▁various 1
▁avis 1
▁actuelle 1
▁savait 1
▁pousse 1
▁lycée 1
▁appréci 1
arrive 1
▁avantage 1
▁déf 1
▁avoid 1
▁wood 1
▁inspire 1
▁dress 1
utter 1
▁verrez 1
▁docteur 1
▁gagné 1
▁hell 1
▁indian 1
mine 1
▁husband 1
▁2008 1
▁sentence 1
▁concentrer 1
▁mesurer 1
▁faisais 1
▁étoiles 1
▁mouvements 1
▁directly 1
▁surprising 1
▁impos 1
▁responsibility 1
▁beat 1
▁giant 1
hood 1
▁2010 1
ache 1
pré 1
▁courbe 1
▁particules 1
▁classique 1
▁essentiellement 1
▁sérieux 1
▁joueur 1
▁edge 1
ek 1
▁convert 1
▁noticed 1
▁Pensez 1
apprendre 1
essayer 1
▁génome 1
▁merveilleuse 1
▁Dr 1
▁vidéos 1
▁construct 1
▁members 1
▁professor 1
intelligence 1
attention 1
▁seraient 1
▁ep 1
▁plane 1
▁closer 1
▁promise 1
▁0 1
▁legs 1
▁border 1
▁connaître 1
î 1
▁dynamique 1
▁fenêtre 1
▁arrêt 1
▁damage 1
▁switch 1
▁argue 1
▁core 1
▁destruction 1
▁ancient 1
▁supply 1
▁lecture 1
ote 1
▁Mu 1
écran 1
▁écouter 1
▁évidemment 1
▁remarkable 1
▁occur 1
▁dynamic 1
▁tumor 1
▁bro 1
▁differently 1
gar 1
▁cyber 1
och 1
▁limité 1
▁traité 1
ordre 1
▁bactéries 1
▁lignes 1
enseignement 1
▁pack 1
▁permanent 1
▁profound 1
▁band 1
graph 1
▁muslim 1
▁principal 1
▁internationale 1
▁Sp 1
ajout 1
▁cercle 1
▁lutte 1
▁rencontrer 1
▁graduate 1
▁below 1
▁flying 1
▁experiments 1
▁sustainable 1
▁privée 1
▁inspired 1
ima 1
▁creativity 1
▁possibly 1
▁gather 1
▁determine 1
▁depression 1
▁combine 1
▁technologique 1
▁sombre 1
▁gagne 1
▁prochain 1
▁humaines 1
▁equal 1
▁climb 1
▁dying 1
▁driver 1
▁porter 1
▁conte 1
▁envoyer 1
extérieur 1
▁brillant 1
▁Parfois 1
▁easier 1
▁easily 1
▁california 1
▁studio 1
▁senti 1
why 1
▁explor 1
bling 1
▁pleur 1
▁Avant 1
▁laisse 1
▁liée 1
▁dizaines 1
▁couleurs 1
▁tué 1
▁dév 1
▁Leur 1
▁rues 1
▁inconnu 1
▁coast 1
▁ultimately 1
▁musical 1
▁mathématiques 1
▁fossil 1
▁sample 1
▁designer 1
▁hang 1
▁sorry 1
▁seemed 1
▁invite 1
▁arrivée 1
▁visite 1
▁marchés 1
▁populaire 1
▁médicament 1
▁invented 1
lip 1
▁remove 1
▁disappear 1
ivity 1
▁helping 1
▁voient 1
▁épi 1
▁événement 1
▁preuves 1
▁individus 1
▁wire 1
▁puzzle 1
▁tough 1
▁noise 1
▁birds 1
▁trillion 1
▁adolescent 1
▁gt 1
▁élément 1
ssez 1
▁partagé 1
▁associé 1
▁apprend 1
▁mélange 1
▁desire 1
▁strength 1
imagina 1
enc 1
▁cultiv 1
▁An 1
▁garde 1
▁découvr 1
▁bouger 1
▁jardin 1
▁thé 1
Al 1
▁noirs 1
▁missing 1
tter 1
iger 1
eign 1
▁fusion 1
▁application 1
▁détails 1
▁transformé 1
▁censé 1
▁verre 1
▁écran 1
▁dirige 1
▁organisations 1
ombre 1
▁Londres 1
▁hearing 1
▁gotten 1
▁held 1
▁boat 1
▁surgery 1
▁slightly 1
▁cortex 1
▁file 1
▁nommé 1
▁amené 1
▁séquence 1
▁ouverte 1
▁règle 1
▁capacity 1
▁sector 1
▁platform 1
▁mention 1
▁App 1
▁passant 1
▁militaire 1
▁journaliste 1
▁réfugiés 1
▁23 1
▁published 1
▁networks 1
▁variation 1
▁étonnant 1
▁pieds 1
▁hasard 1
▁enable 1
ough 1
▁exception 1
▁attach 1
rick 1
▁claim 1
▁biologist 1
▁played 1
▁riche 1
▁mène 1
▁avais 1
▁concentr 1
▁éviter 1
▁reconnaître 1
▁différemment 1
▁parc 1
▁sympa 1
▁apple 1
▁efficient 1
▁background 1
▁religious 1
▁brazil 1
▁dinosaur 1
▁répét 1
acteur 1
▁cerveaux 1
▁tels 1
▁solid 1
▁extreme 1
ox 1
▁crowd 1
▁studying 1
▁section 1
▁applications 1
▁morale 1
▁pensait 1
▁opération 1
▁armes 1
▁fully 1
▁weird 1
▁engineer 1
▁mail 1
▁boule 1
▁sl 1
▁king 1
aries 1
▁marine 1
▁reaction 1
▁pierre 1
▁passait 1
▁arrivent 1
▁inspiré 1
▁labo 1
▁appareil 1
▁oxygen 1
ich 1
▁attitude 1
gging 1
▁outcome 1
▁smell 1
▁classroom 1
architecture 1
▁devenus 1
▁fascinant 1
▁sexuelle 1
▁options 1
▁consumer 1
▁grain 1
this 1
type 1
▁tribu 1
▁coal 1
▁prenons 1
▁vélo 1
▁acte 1
▁connaissons 1
▁rêves 1
▁intelligente 1
▁magasin 1
▁sépar 1
long 1
▁produced 1
▁differences 1
ological 1
matic 1
▁sharing 1
▁existent 1
clam 1
▁Go 1
▁complexité 1
▁appelons 1
▁cré 1
▁préserv 1
▁sequence 1
assi 1
▁aware 1
▁parking 1
▁intervention 1
impact 1
▁affirm 1
▁puni 1
bou 1
▁Californie 1
▁décennies 1
▁adultes 1
▁infection 1
▁root 1
▁markets 1
▁intense 1
head 1
▁passed 1
▁surveillance 1
▁shark 1
▁For 1
▁déchets 1
▁Américains 1
▁bâtiments 1
▁géant 1
▁identité 1
▁twice 1
▁afghanistan 1
▁scar 1
▁operation 1
▁inject 1
▁dreams 1
▁fill 1
erra 1
video 1
▁révél 1
▁farmers 1
▁capitalism 1
▁recover 1
▁pig 1
▁focused 1
ria 1
▁entirely 1
nez 1
▁fonctionnent 1
▁chasse 1
▁précédent 1
▁zéro 1
▁décider 1
▁considéré 1
▁dépression 1
▁remonte 1
▁negative 1
▁opposite 1
▁engine 1
aging 1
▁consult 1
zi 1
plan 1
▁tiers 1
mettre 1
▁bought 1
dding 1
look 1
▁asia 1
▁refer 1
▁suffer 1
▁drone 1
▁mené 1
▁toucher 1
▁positif 1
▁rappeler 1
▁mérite 1
▁mécanisme 1
▁definition 1
▁funny 1
▁dense 1
▁malaria 1
▁opportunities 1
wn 1
▁hyper 1
dent 1
▁terrorist 1
▁coeur 1
▁regardons 1
▁donnent 1
▁coûte 1
▁amusant 1
▁fleur 1
▁ralenti 1
informations 1
▁blow 1
▁basis 1
▁european 1
▁warm 1
▁devices 1
▁bright 1
asi 1
▁interaction 1
lia 1
oma 1
Europe 1
▁caché 1
▁Wi 1
▁burn 1
▁importantly 1
▁pont 1
▁explorer 1
▁yellow 1
▁lis 1
▁zoom 1
oxygène 1
▁possibilités 1
▁resté 1
▁empower 1
▁coffee 1
▁wear 1
▁impliqué 1
▁richesse 1
▁régime 1
▁molécules 1
▁évolué 1
Vidéo 1
▁manipul 1
▁react 1
▁regret 1
▁motif 1
écoute 1
▁échange 1
▁VIH 1
▁communiquer 1
Université 1
▁normale 1
▁lucky 1
▁faith 1
▁tremendous 1
▁carry 1
▁narrative 1
▁assume 1
▁entrepreneur 1
▁préoccup 1
▁baisse 1
▁commença 1
▁statistiques 1
▁concernant 1
éral 1
▁raconte 1
▁competition 1
▁broad 1
▁observation 1
▁belong 1
▁ride 1
▁suffering 1
▁angle 1
▁ear 1
associ 1
▁maths 1
Votre 1
▁intégr 1
▁davantage 1
▁benefit 1
▁mouth 1
▁absorb 1
▁evolved 1
▁church 1
▁texte 1
▁ressemblent 1
▁nourri 1
▁barre 1
based 1
▁via 1
▁install 1
▁arriva 1
▁hurt 1
habitants 1
▁intérieur 1
▁fournir 1
▁régions 1
▁Sha 1
▁télévision 1
▁nationale 1
nna 1
▁raised 1
▁counter 1
▁stuck 1
now 1
just 1
▁touche 1
▁drag 1
▁miracle 1
▁plain 1
▁implant 1
▁activist 1
▁sortie 1
imaginer 1
▁allée 1
▁dangereux 1
▁bouche 1
▁sommeil 1
▁scene 1
▁diverse 1
▁10,000 1
▁vital 1
▁tableau 1
▁stade 1
çant 1
▁bouge 1
▁enregistr 1
▁implique 1
▁requin 1
▁degrees 1
▁spending 1
▁marketing 1
▁bond 1
▁component 1
▁clinic 1
▁manage 1
▁fallu 1
▁compt 1
▁travaillons 1
▁auraient 1
▁Man 1
échapp 1
enfant 1
▁drawing 1
▁necessarily 1
▁universal 1
▁regular 1
▁consciousness 1
▁mauvaises 1
ération 1
▁proches 1
▁tourné 1
▁expériment 1
pris 1
▁artists 1
▁radiation 1
▁unlike 1
▁stone 1
▁molecules 1
▁mad 1
▁strategy 1
▁journalist 1
▁historique 1
▁croyez 1
▁désert 1
▁battre 1
▁principes 1
▁crash 1
cular 1
▁proud 1
▁venus 1
▁blanche 1
émission 1
enseigne 1
▁considérer 1
▁commençons 1
▁oiseaux 1
▁souci 1
▁auquel 1
▁vaut 1
▁benefits 1
▁quote 1
▁club 1
▁dialogue 1
▁bla 1
▁instruments 1
▁estimate 1
▁diagnostic 1
▁aient 1
▁triste 1
▁passée 1
▁surprenant 1
▁déplacer 1
▁chimiques 1
▁attendre 1
▁habitat 1
▁roman 1
▁bel 1
▁laser 1
▁avion 1
▁actuel 1
▁confront 1
▁australia 1
▁iraq 1
▁600 1
mark 1
▁pli 1
▁proportion 1
▁rose 1
▁mor 1
▁exposé 1
fait 1
atoire 1
▁demandez 1
▁venait 1
▁apparaît 1
▁telles 1
▁professionnel 1
▁offre 1
▁otherwise 1
▁1,000 1
▁foreign 1
that 1
▁batterie 1
▁civilization 1
▁stem 1
adapt 1
▁philosophe 1
▁2009 1
▁membre 1
▁considère 1
X 1
▁schéma 1
▁acheté 1
▁musée 1
▁étais 1
objet 1
hôpital 1
▁debate 1
▁bias 1
▁telescope 1
▁discipline 1
▁relative 1
▁sensible 1
▁suffisamment 1
▁aidé 1
▁deeply 1
▁brilliant 1
rim 1
▁mechanism 1
▁host 1
▁franc 1
▁cure 1
active 1
▁connaissent 1
▁chacune 1
▁augmenter 1
▁créatif 1
▁retrouve 1
▁basé 1
▁forêts 1
▁retourner 1
▁muscle 1
▁identify 1
gramme 1
▁vaste 1
▁boulot 1
▁ressentir 1
▁Dan 1
▁engineers 1
▁bottle 1
▁plat 1
▁eating 1
▁polar 1
▁formé 1
équivalent 1
oïde 1
▁amener 1
▁tumeur 1
▁médicale 1
▁invité 1
▁Ki 1
▁usine 1
́ 1
▁transfer 1
▁articles 1
▁marriage 1
▁hier 1
▁location 1
▁conduire 1
▁envie 1
▁dirais 1
▁bur 1
▁hip 1
▁artificial 1
▁complexity 1
▁vertical 1
▁forever 1
▁reward 1
▁rub 1
▁motion 1
onde 1
▁remote 1
ota 1
▁disparu 1
▁recul 1
▁majority 1
▁optim 1
▁crack 1
▁responsible 1
▁believed 1
▁fighting 1
ata 1
pass 1
▁presse 1
opportunité 1
▁Japon 1
▁musulman 1
ville 1
▁figured 1
▁flight 1
▁trend 1
▁pill 1
▁holding 1
▁paraît 1
▁utilis 1
issez 1
élev 1
▁américains 1
▁emplois 1
ulation 1
▁27 1
▁desert 1
▁fashion 1
▁particles 1
▁eva 1
▁adults 1
▁according 1
▁meters 1
▁colonie 1
▁excellent 1
▁bande 1
▁survivre 1
▁décrit 1
▁chaleur 1
▁niveaux 1
▁récompense 1
▁directeur 1
▁compared 1
▁turning 1
▁scanner 1
pin 1
▁2007 1
effet 1
▁présenté 1
▁parfaitement 1
▁murs 1
▁clar 1
▁attempt 1
ied 1
▁clip 1
▁finish 1
▁illusion 1
▁simulation 1
▁grade 1
▁survey 1
▁researchers 1
▁tunnel 1
▁Washington 1
▁agir 1
▁rire 1
▁jambes 1
▁earn 1
▁technical 1
▁gift 1
▁kenya 1
▁prize 1
▁advantage 1
▁sable 1
▁dedans 1
▁apporter 1
▁puisque 1
▁semblent 1
Internet 1
▁touché 1
▁sociales 1
▁réserve 1
▁david 1
▁leading 1
▁repeat 1
▁possibility 1
▁breast 1
▁trauma 1
▁expert 1
▁satellites 1
▁portrait 1
▁essay 1
▁combinaison 1
▁venant 1
▁Hi 1
▁composé 1
▁retrouver 1
▁vouloir 1
▁attribu 1
▁exercise 1
▁department 1
life 1
▁favor 1
cum 1
agé 1
▁traditionnelle 1
▁artistes 1
▁organismes 1
▁peinture 1
▁pauvre 1
▁juge 1
▁éducation 1
▁nigeria 1
▁opened 1
▁studied 1
▁previous 1
▁stream 1
▁agriculture 1
20 1
▁consequences 1
▁disorder 1
ologues 1
▁interactions 1
▁substance 1
▁tonnes 1
▁régul 1
▁produisent 1
ouvrir 1
▁participer 1
▁devriez 1
▁moindre 1
▁Encore 1
▁vin 1
▁roof 1
▁instinct 1
tting 1
▁monte 1
▁latin 1
▁monkey 1
▁british 1
▁metaphor 1
▁consiste 1
▁joie 1
▁écoute 1
▁emploi 1
▁victimes 1
▁morceaux 1
▁cible 1
▁subi 1
▁dinner 1
▁globe 1
fil 1
▁bol 1
▁odd 1
bed 1
chant 1
room 1
ogue 1
▁somme 1
▁poste 1
▁sélection 1
▁saut 1
▁Trois 1
▁meurt 1
▁Certaine 1
▁souhait 1
arrêter 1
▁planning 1
▁adult 1
▁verte 1
▁chip 1
▁shop 1
esse 1
accept 1
▁hui 1
▁poche 1
▁appareils 1
▁drôle 1
La 1
▁douce 1
▁décrire 1
▁fausse 1
▁extend 1
▁fold 1
wat 1
▁neuron 1
wan 1
▁bird 1
list 1
▁David 1
▁détail 1
▁CO 1
▁liens 1
emploi 1
Asie 1
▁honte 1
▁rejet 1
▁apparu 1
▁conduct 1
▁reveal 1
▁currently 1
▁childhood 1
▁weak 1
▁catastrophe 1
▁football 1
▁twitter 1
onner 1
▁bientôt 1
▁civilisation 1
▁dirait 1
accès 1
▁financière 1
▁conservation 1
▁excuse 1
▁discovery 1
poli 1
▁tester 1
lac 1
▁quasi 1
▁parlant 1
▁lettres 1
▁ancienne 1
▁washington 1
▁truck 1
▁grown 1
▁dozen 1
▁whale 1
▁cousin 1
▁joli 1
▁rentrer 1
élève 1
▁employés 1
▁joué 1
▁dépasse 1
▁amie 1
▁events 1
▁analog 1
▁flower 1
gh 1
▁suicide 1
add 1
▁ecosystem 1
▁tail 1
andis 1
▁flag 1
▁quitté 1
▁lettre 1
▁étiez 1
▁terminé 1
▁extérieur 1
▁déterminer 1
▁enseignants 1
▁photographie 1
▁récit 1
▁réussite 1
▁click 1
▁folks 1
▁limited 1
▁everyday 1
▁fro 1
▁paul 1
▁married 1
▁daily 1
▁businesses 1
▁received 1
▁failed 1
▁battle 1
▁250 1
▁infini 1
▁disais 1
▁payé 1
▁quitter 1
▁organisé 1
▁œil 1
▁chiffre 1
▁ring 1
▁vaccine 1
▁transparent 1
▁patent 1
▁typical 1
▁iran 1
▁indique 1
▁salaire 1
▁Pourtant 1
▁placé 1
▁row 1
▁trained 1
▁managed 1
▁independent 1
▁muscles 1
burg 1
▁1980 1
▁flat 1
lope 1
▁leaving 1
▁nourrir 1
▁fabriqué 1
▁échantillon 1
▁privé 1
avions 1
père 1
▁Bu 1
▁électronique 1
▁dirigeants 1
▁volunteer 1
▁cow 1
▁degree 1
▁paradigm 1
▁engagement 1
round 1
▁japan 1
▁monitor 1
iness 1
▁fluid 1
▁channel 1
▁orient 1
▁appren 1
▁handicap 1
arme 1
▁voulions 1
▁représentent 1
▁convaincu 1
▁Har 1
▁Brésil 1
▁appeler 1
▁judge 1
▁novel 1
▁harder 1
▁multipli 1
▁grab 1
▁watched 1
▁concert 1
▁mathematics 1
▁financier 1
vient 1
▁Ta 1
▁Mont 1
▁préféré 1
▁aiment 1
▁convaincre 1
▁constamment 1
▁meurent 1
bilité 1
▁mécanique 1
▁morte 1
▁précisément 1
▁sudden 1
▁fell 1
▁unless 1
ugh 1
▁fairly 1
▁french 1
maker 1
▁abuse 1
▁accumul 1
▁bubble 1
▁succeed 1
▁1990 1
▁wearing 1
▁confirm 1
▁flux 1
▁supplémentaire 1
▁créée 1
exprimer 1
▁créatures 1
▁necessary 1
▁chart 1
▁safety 1
▁log 1
▁smile 1
win 1
▁electronic 1
▁hidden 1
▁economist 1
▁curious 1
▁korea 1
marin 1
▁convention 1
▁émissions 1
▁allaient 1
aurait 1
▁dessous 1
▁espoir 1
▁mettent 1
▁basée 1
▁airplane 1
▁fresh 1
town 1
▁creatures 1
ouille 1
oyez 1
▁changent 1
▁Paul 1
▁principalement 1
▁retrouvé 1
▁durée 1
▁réussir 1
▁semblait 1
▁célébr 1
▁devrais 1
▁constantly 1
▁contribute 1
▁horse 1
dimensional 1
▁orange 1
vons 1
▁artificielle 1
▁Tra 1
▁cheveux 1
▁référence 1
▁évolution 1
▁frais 1
▁travaillant 1
▁creation 1
▁lunch 1
▁hack 1
▁concentration 1
▁pause 1
▁fellow 1
▁participants 1
▁pensaient 1
▁contient 1
▁excitant 1
▁jaune 1
▁brevet 1
▁operate 1
▁productive 1
▁translate 1
ndi 1
▁symptom 1
▁minuscule 1
▁parlait 1
▁mener 1
▁ferait 1
Homme 1
▁survie 1
▁amène 1
▁offrir 1
dépendant 1
▁augmenté 1
▁Royaume 1
▁Twitter 1
▁norm 1
▁grandmother 1
▁considered 1
▁piano 1
▁insist 1
30 1
▁revient 1
▁ingénieurs 1
▁intéresse 1
▁engagé 1
▁facteurs 1
▁management 1
▁spirit 1
▁copy 1
▁conscious 1
▁chocolat 1
▁slowly 1
▁elements 1
▁statistics 1
absence 1
▁parole 1
ingénierie 1
organisation 1
▁extrême 1
gné 1
▁writer 1
▁worried 1
▁snow 1
▁hopefully 1
▁compromis 1
late 1
▁client 1
▁chaos 1
▁valley 1
▁curve 1
▁jail 1
▁newspaper 1
▁experienced 1
▁pyramid 1
▁cul 1
▁défense 1
Il 1
▁solide 1
▁suffit 1
▁sûrement 1
▁accro 1
▁tiré 1
▁limite 1
▁observé 1
▁Or 1
60 1
▁versus 1
▁seriously 1
▁highest 1
▁tension 1
▁surprised 1
▁casse 1
▁release 1
▁ideal 1
▁bang 1
▁reform 1
▁forced 1
▁observe 1
▁rendent 1
▁élimin 1
▁signaux 1
▁héros 1
Q 1
▁comprennent 1
▁Peu 1
▁média 1
▁chromosome 1
▁golf 1
▁theater 1
▁verb 1
▁association 1
▁divers 1
▁wake 1
▁gratuit 1
▁foi 1
avec 1
▁Malheureusement 1
▁écriv 1
▁siège 1
▁traverser 1
▁frame 1
shirt 1
▁fascinating 1
▁distinct 1
▁stable 1
▁member 1
▁minor 1
▁tenu 1
▁mutation 1
▁launch 1
▁nurse 1
▁caught 1
▁foyer 1
▁frontières 1
▁trouvez 1
▁Ru 1
▁connue 1
▁étranger 1
▁Ben 1
view 1
▁mentioned 1
▁spring 1
▁tar 1
▁quiet 1
▁65 1
▁grim 1
▁gamin 1
▁commune 1
gène 1
▁remarquer 1
▁considér 1
▁goût 1
▁centrale 1
armée 1
▁Aucun 1
▁inspiration 1
.000 1
▁intellectual 1
▁insight 1
▁pounds 1
▁expose 1
▁comfortable 1
▁initiative 1
pulse 1
▁bloc 1
▁recevoir 1
▁décide 1
▁bleue 1
Australie 1
▁mirror 1
scale 1
▁fragment 1
▁disaster 1
▁admit 1
▁related 1
▁feedback 1
▁exchange 1
▁mentor 1
▁metal 1
▁brown 1
sser 1
efficacité 1
▁croyance 1
▁fera 1
▁défend 1
▁recev 1
applique 1
▁toilettes 1
▁National 1
▁poussé 1
ava 1
star 1
▁clinical 1
▁kick 1
▁agit 1
▁ultra 1
ancien 1
▁retourné 1
▁locaux 1
▁volonté 1
âche 1
▁résolu 1
▁oublié 1
▁généralement 1
▁travailleurs 1
▁closed 1
▁logic 1
ties 1
▁dimension 1
▁illness 1
▁round 1
▁milk 1
▁receive 1
▁prime 1
▁fourth 1
▁contrast 1
° 1
intérêt 1
▁accepté 1
▁compétition 1
▁soutenir 1
▁croient 1
autorité 1
▁avenir 1
▁concerned 1
▁losing 1
▁bra 1
▁finished 1
bot 1
▁normally 1
▁described 1
▁objective 1
▁roche 1
▁rappel 1
▁Rien 1
▁Grande 1
▁créent 1
▁devaient 1
▁mâle 1
▁gentil 1
èle 1
▁symbole 1
▁hill 1
▁implications 1
▁attract 1
▁phenomenon 1
▁weapons 1
▁2005 1
midi 1
▁aveugle 1
▁détect 1
▁Mc 1
Irak 1
▁topic 1
▁caused 1
▁expected 1
▁mouse 1
▁neuroscience 1
▁poem 1
▁rang 1
prime 1
▁camion 1
▁Prenez 1
▁affaire 1
▁Da 1
▁tient 1
▁poème 1
▁algorithmes 1
▁parfaite 1
▁éclair 1
▁caractère 1
▁bouteille 1
▁contribution 1
atory 1
law 1
▁lifetime 1
▁champion 1
ode 1
▁deeper 1
▁nerve 1
▁congress 1
▁rational 1
▁courte 1
▁âgé 1
▁entraîne 1
▁ajouter 1
▁pareil 1
▁faim 1
▁obtenez 1
In 1
▁baleine 1
▁quotidienne 1
assurer 1
auteur 1
▁comporte 1
▁Moyen 1
▁kilometers 1
▁cartoon 1
▁hol 1
▁official 1
▁lawyer 1
▁poster 1
▁fabric 1
▁autism 1
▁chute 1
▁Bill 1
▁vendu 1
▁bénéfici 1
▁confronté 1
▁fabriqu 1
▁fourniss 1
▁fragile 1
▁operating 1
▁shut 1
▁filled 1
▁calling 1
▁followed 1
▁invited 1
▁survival 1
▁refugees 1
▁2011 1
path 1
▁complet 1
▁debout 1
▁dispositif 1
▁apprennent 1
▁ADN 1
▁présence 1
▁magie 1
empêch 1
Orient 1
▁germany 1
▁ordinary 1
▁define 1
▁lung 1
▁lift 1
▁kit 1
▁interven 1
ouvre 1
icule 1
▁civile 1
▁Ga 1
▁idéal 1
▁chimpanzé 1
Est 1
agriculture 1
▁installation 1
▁israel 1
▁attire 1
▁frappe 1
▁levé 1
▁plaît 1
▁serre 1
▁Pri 1
▁insectes 1
appelait 1
▁générale 1
▁ballon 1
▁métaphore 1
▁profondeur 1
▁institute 1
▁dealing 1
▁brief 1
▁stood 1
▁wheel 1
water 1
▁encounter 1
▁fake 1
▁increasingly 1
▁venez 1
▁consommateur 1
▁apporté 1
▁posséd 1
▁avancer 1
exercice 1
uté 1
▁plante 1
▁liquide 1
▁repas 1
exemple 1
▁Quelqu 1
▁Kenya 1
▁charbon 1
engage 1
▁paradox 1
▁grad 1
▁1950 1
▁electric 1
▁diet 1
▁toxic 1
▁status 1
power 1
▁taste 1
▁bread 1
▁advance 1
▁alter 1
▁flip 1
▁fabrication 1
▁sert 1
▁séparé 1
▁pluie 1
▁continué 1
▁Steve 1
▁pouviez 1
▁produis 1
▁particulière 1
▁île 1
▁malheureusement 1
change 1
▁95 1
▁associated 1
stream 1
▁treated 1
rich 1
▁majeure 1
▁isolé 1
▁essaie 1
▁aviez 1
▁envoie 1
▁picked 1
▁nervous 1
▁32 1
▁provoque 1
▁surpris 1
▁Enfin 1
▁culturelle 1
▁matériau 1
▁soyez 1
▁embrace 1
▁steve 1
▁george 1
nny 1
expression 1
ik 1
▁anticip 1
▁pic 1
▁corde 1
▁bombe 1
▁sacré 1
▁volontaire 1
▁connaît 1
▁septembre 1
▁hauteur 1
▁intégré 1
▁visuel 1
arrête 1
▁péri 1
attaque 1
▁personnalité 1
Oh 1
▁scolaire 1
Occident 1
▁symptôme 1
▁shoes 1
▁participation 1
▁collapse 1
▁masculin 1
▁acquis 1
▁retard 1
▁protégé 1
▁arbre 1
affaire 1
▁George 1
▁mettez 1
obtenir 1
▁sauvage 1
▁Jusqu 1
▁représentation 1
▁magique 1
friend 1
▁perfectly 1
▁hadn 1
oli 1
▁surviv 1
▁flash 1
urgence 1
exploitation 1
▁trompe 1
▁tweet 1
▁bibliothèque 1
▁stupide 1
Américain 1
▁énormément 1
▁avancée 1
espèce 1
émotion 1
▁Celui 1
▁enregistré 1
arrière 1
▁plonge 1
▁publicité 1
▁télescope 1
▁oppos 1
▁army 1
▁pilot 1
▁designing 1
hey 1
stitution 1
▁gate 1
▁launched 1
▁1960 1
▁stupid 1
▁1970 1
▁accus 1
▁confi 1
audio 1
▁obstacles 1
▁destin 1
individu 1
▁commentaire 1
Angleterre 1
clé 1
▁automobile 1
▁director 1
▁setting 1
▁paying 1
▁accurate 1
▁transplant 1
▁label 1
▁migr 1
atom 1
vide 1
▁credit 1
▁abstract 1
▁26 1
neur 1
▁galaxy 1
▁divin 1
▁spectacle 1
▁remercie 1
▁Ceux 1
▁maintenir 1
▁bénéfice 1
▁secondaire 1
adresse 1
issait 1
équation 1
▁visuelle 1
▁probabilité 1
▁explique 1
▁vêtements 1
▁hasn 1
▁tomorrow 1
▁classic 1
▁compose 1
▁peer 1
▁select 1
▁description 1
▁usage 1
▁commande 1
▁prévu 1
▁souffrance 1
leur 1
▁abeilles 1
▁beach 1
▁extract 1
▁acid 1
▁processes 1
▁combin 1
▁epidemic 1
▁keeping 1
▁hide 1
▁toilet 1
▁robotic 1
▁psycho 1
▁vulnerable 1
▁gestion 1
▁réflexion 1
▁émotionnelle 1
nière 1
▁lentement 1
▁laptop 1
▁ethic 1
▁speaker 1
▁season 1
près 1
Allemagne 1
▁abandonn 1
▁demandent 1
▁analysis 1
▁firm 1
▁sweet 1
▁electro 1
80 1
▁hom 1
▁gér 1
▁remarque 1
▁demain 1
▁catégorie 1
▁Sel 1
arriver 1
▁limb 1
▁involve 1
▁pocket 1
▁practical 1
▁specifically 1
▁lady 1
▁cup 1
▁wisdom 1
▁wondering 1
▁collision 1
▁error 1
▁profession 1
▁elephant 1
source 1
▁display 1
▁2012 1
▁fondation 1
▁citation 1
▁mortalité 1
▁évalu 1
▁génie 1
empathie 1
▁The 1
▁facing 1
▁advanced 1
▁buck 1
▁killing 1
▁loud 1
administration 1
▁indicate 1
▁panel 1
▁liquid 1
▁2015 1
▁bless 1
▁manufacturing 1
▁illustr 1
▁assist 1
▁division 1
▁sync 1
▁bouton 1
▁fermé 1
▁trouvons 1
▁médical 1
▁négoci 1
▁mystère 1
▁permission 1
▁democratic 1
▁exploration 1
▁equivalent 1
▁kitchen 1
▁persist 1
▁maman 1
▁résolution 1
opéra 1
église 1
▁individuelle 1
▁maintain 1
▁skill 1
▁heavy 1
▁tear 1
▁disrupt 1
▁participate 1
▁pray 1
grade 1
▁organic 1
▁darwin 1
▁augmentation 1
▁doubt 1
altitude 1
▁réchauffement 1
▁portée 1
▁investissement 1
▁lourd 1
▁préfère 1
▁comparé 1
▁typique 1
▁artiste 1
▁title 1
house 1
▁essential 1
▁discrimination 1
▁énergétique 1
approche 1
▁reconnais 1
▁dents 1
▁échec 1
▁sanguin 1
▁essayant 1
aucun 1
▁universitaire 1
▁avocat 1
échec 1
▁indien 1
▁quarter 1
▁mathematical 1
▁statistic 1
▁quantum 1
▁emotion 1
▁dominant 1
▁equation 1
position 1
▁establish 1
arbre 1
écriture 1
▁avance 1
▁Bar 1
▁bataille 1
▁regardent 1
▁saison 1
▁warming 1
▁manager 1
▁homo 1
▁opening 1
▁reject 1
▁glacier 1
▁pollen 1
▁witness 1
▁released 1
aba 1
▁norme 1
▁devions 1
posant 1
▁correctement 1
▁abandonné 1
▁gène 1
▁fête 1
ménage 1
▁grandir 1
▁ouvrir 1
organiser 1
▁combination 1
▁broke 1
▁property 1
▁session 1
▁nulle 1
▁actif 1
▁garanti 1
▁fonctionnement 1
▁plateforme 1
▁technological 1
▁revenue 1
▁worldwide 1
▁testing 1
▁tape 1
▁element 1
▁factory 1
ibility 1
▁celebrate 1
▁plaque 1
▁transmission 1
imagine 1
▁exige 1
Vous 1
▁couverture 1
▁folle 1
américain 1
▁Congrès 1
▁minister 1
▁capita 1
▁pole 1
▁prince 1
▁script 1
▁weather 1
▁gravi 1
▁conservative 1
▁empty 1
▁load 1
▁electrical 1
▁definitely 1
▁chicken 1
▁intuition 1
▁vente 1
▁voter 1
▁volant 1
▁jouent 1
▁créateur 1
▁pilote 1
avion 1
▁ressenti 1
▁industrielle 1
humain 1
▁détecter 1
▁rassembler 1
ridge 1
scope 1
▁proposition 1
▁review 1
▁equipment 1
▁palm 1
▁tall 1
▁fac 1
▁assign 1
▁guard 1
▁saved 1
▁suspect 1
▁empathy 1
▁preserv 1
▁manifestation 1
▁adulte 1
▁interne 1
▁raconté 1
▁auxquel 1
▁hypothèse 1
▁ordre 1
▁Chacun 1
▁auront 1
▁excité 1
▁Angeles 1
▁autrement 1
▁Th 1
▁sending 1
▁discuss 1
▁appli 1
▁prefer 1
▁rig 1
bla 1
▁2006 1
▁smartphone 1
▁nouvel 1
▁SIDA 1
▁détruit 1
▁terminer 1
▁complète 1
▁Canada 1
▁ayons 1
▁pomme 1
▁bloqu 1
▁nasa 1
▁pleasure 1
▁bike 1
▁shame 1
▁teenager 1
▁canada 1
▁increasing 1
▁rocket 1
▁mexico 1
▁organized 1
▁2,000 1
cola 1
▁perceive 1
▁permettra 1
agir 1
▁aimé 1
▁conséquent 1
▁médicaux 1
▁réparer 1
entrée 1
▁diplôme 1
▁resource 1
▁handle 1
▁roughly 1
▁polio 1
down 1
▁escape 1
▁alien 1
▁internal 1
▁volcan 1
▁souvenez 1
▁Juste 1
▁chaise 1
▁enfance 1
▁rentre 1
▁quatrième 1
▁géo 1
▁historical 1
▁appreciate 1
▁promote 1
▁announce 1
▁tir 1
▁filter 1
▁evil 1
▁variety 1
▁southern 1
▁sight 1
tail 1
▁admir 1
▁hydro 1
▁underneath 1
▁dose 1
▁calme 1
▁ravi 1
▁chaussures 1
▁Grand 1
▁ressemblait 1
▁rassemble 1
▁concentré 1
▁ressort 1
▁journaux 1
Iran 1
aving 1
▁cutting 1
▁prediction 1
▁alarm 1
▁privilege 1
▁arrived 1
▁rou 1
▁float 1
▁circulation 1
orient 1
▁ridicule 1
▁extrait 1
▁essentiel 1
▁éloigné 1
▁rentré 1
▁Gu 1
▁entouré 1
▁connecter 1
▁autonome 1
▁hôpitaux 1
▁Ouais 1
▁emissions 1
▁brutal 1
product 1
▁2004 1
▁joke 1
▁educate 1
print 1
bro 1
▁inequality 1
▁interpret 1
igue 1
▁arabe 1
essaie 1
améliorer 1
▁artistique 1
▁récente 1
analyse 1
▁élections 1
▁assemble 1
▁consume 1
▁height 1
▁valuable 1
▁animation 1
▁fraction 1
▁healthcare 1
injustice 1
▁tag 1
▁grippe 1
▁largement 1
▁obtient 1
▁biais 1
▁frontière 1
▁miroir 1
▁assise 1
▁effrayant 1
▁cadeau 1
▁candidat 1
40 1
▁publish 1
▁increased 1
▁library 1
▁covered 1
▁amazon 1
american 1
▁variable 1
▁titan 1
▁settle 1
▁awesome 1
▁reef 1
▁élevée 1
▁quotidien 1
▁femelle 1
▁ouvre 1
▁citizen 1
▁fundamentally 1
▁shake 1
▁parasite 1
▁typically 1
▁explosion 1
▁selling 1
▁finit 1
employ 1
▁manuel 1
▁transaction 1
niste 1
▁nôtre 1
▁suggér 1
▁vache 1
▁développe 1
▁remplacer 1
▁frappé 1
▁récolte 1
▁puce 1
▁résume 1
éléphant 1
identité 1
▁vulnérable 1
▁fréquence 1
▁assumption 1
▁exclu 1
▁relatively 1
▁chemistry 1
▁grid 1
▁harvard 1
greg 1
▁scared 1
▁gdp 1
▁pm 1
oup 1
▁cependant 1
effondre 1
▁croyons 1
▁Ah 1
▁légèrement 1
▁Va 1
▁reconnu 1
▁coté 1
▁PIB 1
▁sugar 1
▁compete 1
▁meaningful 1
▁spiritual 1
last 1
▁academic 1
▁arrest 1
script 1
▁ladies 1
▁incentive 1
▁eh 1
▁identifier 1
▁assurer 1
▁représenter 1
avance 1
▁suffisant 1
▁boite 1
▁barrière 1
▁soudain 1
▁prétend 1
▁100,000 1
▁peak 1
▁jack 1
▁virgin 1
fully 1
▁baseball 1
code 1
▁deserve 1
▁totale 1
▁lendemain 1
ouverture 1
▁Cha 1
▁mouche 1
▁rapidly 1
▁28 1
▁voyager 1
▁tribe 1
▁flexible 1
▁possibilities 1
▁christian 1
▁sandwich 1
▁temple 1
▁pitch 1
▁soft 1
▁surgeon 1
▁prédiction 1
▁précision 1
▁théâtre 1
▁essayez 1
▁gravité 1
▁awful 1
▁statue 1
▁convinced 1
▁yesterday 1
▁relate 1
▁pulled 1
▁boom 1
▁sheet 1
invest 1
▁privacy 1
▁basse 1
▁prouver 1
▁majeur 1
▁Times 1
agissait 1
▁consomme 1
▁serez 1
▁mensonge 1
▁empêcher 1
▁remettre 1
▁cérébrale 1
▁severe 1
▁introduce 1
▁effectively 1
▁engaged 1
axe 1
▁string 1
▁vessel 1
▁36 1
▁120 1
▁explanation 1
▁illegal 1
angle 1
▁computation 1
▁dorm 1
▁brave 1
▁batte 1
▁claire 1
▁précise 1
▁travaux 1
▁procédé 1
▁étendu 1
écrire 1
▁Tom 1
▁Ver 1
▁savaient 1
assistance 1
▁instructions 1
▁funding 1
▁producing 1
▁empire 1
break 1
▁gravity 1
cast 1
▁plot 1
▁spatial 1
▁passionate 1
▁1000 1
▁vérifi 1
▁fossiles 1
▁parlez 1
▁Finalement 1
accueil 1
▁souches 1
▁eaux 1
▁représenté 1
Islam 1
▁advice 1
▁corn 1
▁critic 1
▁apartment 1
▁generally 1
▁carefully 1
box 1
▁naturally 1
▁german 1
fold 1
ball 1
▁racial 1
▁foie 1
▁gris 1
▁métier 1
▁tenter 1
▁facteur 1
▁composants 1
▁paire 1
▁métal 1
▁ancêtres 1
▁croit 1
▁aperçu 1
▁chirurgien 1
▁implement 1
▁britain 1
▁ticket 1
▁added 1
▁whereas 1
▁fortune 1
▁mile 1
▁bug 1
▁officer 1
▁tea 1
▁england 1
▁molecule 1
▁recycle 1
▁composition 1
▁susceptible 1
▁thème 1
▁ramener 1
▁MIT 1
envoyer 1
occasion 1
▁aimons 1
▁donnez 1
▁venaient 1
▁physicien 1
▁aurons 1
▁sagesse 1
▁priorité 1
assurance 1
▁comfort 1
▁consumption 1
▁85 1
▁commission 1
▁archive 1
▁swim 1
▁primary 1
▁dirigé 1
▁racine 1
▁décennie 1
▁restent 1
▁métro 1
▁entoure 1
▁comprenons 1
▁chirurgie 1
▁Mexique 1
▁accomplish 1
▁800 1
▁rapid 1
ifying 1
▁circumstance 1
▁properties 1
▁ignore 1
back 1
▁incident 1
▁cube 1
▁programmer 1
▁liberal 1
▁align 1
▁conduis 1
▁avéré 1
▁conséquence 1
aviez 1
cellulaire 1
▁forcément 1
▁scénario 1
▁recueil 1
▁molécule 1
▁affected 1
▁hotel 1
▁mammal 1
▁driven 1
▁pipe 1
▁francisco 1
astronome 1
▁formula 1
▁demonstrate 1
install 1
▁entré 1
▁achet 1
▁cherché 1
▁sauvé 1
▁Deuxièmement 1
▁NASA 1
▁sexuel 1
▁bâti 1
▁nécessite 1
▁répand 1
▁écosystème 1
▁projection 1
illumin 1
▁physically 1
▁repair 1
▁arrange 1
▁thin 1
▁robust 1
▁district 1
▁storm 1
▁probable 1
important 1
ndra 1
▁rapproche 1
▁écologique 1
▁vivante 1
▁poumon 1
▁guéri 1
▁interagi 1
▁retraite 1
▁essaye 1
▁drapeau 1
abandon 1
▁statement 1
▁clothes 1
▁wrap 1
▁welcome 1
▁consist 1
▁strip 1
▁reached 1
▁physicist 1
char 1
▁pakistan 1
▁export 1
▁marin 1
existence 1
▁cheval 1
▁tiens 1
▁supprim 1
▁sucre 1
▁mettons 1
▁enseigner 1
▁opposé 1
▁régl 1
▁galaxie 1
▁tip 1
▁staff 1
▁northern 1
▁angry 1
▁steel 1
▁varie 1
▁france 1
▁melt 1
mission 1
▁activities 1
▁dots 1
▁exposition 1
▁battu 1
▁permettant 1
▁faudrait 1
forme 1
▁suggère 1
▁résistance 1
▁semblable 1
▁identique 1
▁fermier 1
▁négatif 1
▁britannique 1
▁organes 1
▁conservateur 1
▁personally 1
▁compress 1
▁logo 1
osh 1
▁format 1
▁spectrum 1
▁appropriate 1
▁potentially 1
▁repose 1
▁français 1
▁économis 1
▁installé 1
▁déjeuner 1
▁mammifère 1
▁filtre 1
▁prédire 1
▁propriétaire 1
▁spécialiste 1
▁France 1
▁Corée 1
▁préfér 1
▁richard 1
▁japanese 1
▁expansion 1
▁decline 1
▁spider 1
oid 1
▁opera 1
▁einstein 1
▁knee 1
▁modifier 1
▁signature 1
▁innocent 1
quel 1
▁ray 1
▁candidate 1
tti 1
▁youtube 1
▁facial 1
▁ajouté 1
▁vérifier 1
▁Richard 1
▁supérieur 1
alimentation 1
▁Fa 1
▁déteste 1
▁viande 1
▁fondamental 1
enseignant 1
pouvant 1
▁témoin 1
▁terrorisme 1
▁dinosaures 1
▁transportation 1
▁entertain 1
▁prepared 1
▁required 1
▁psychological 1
▁idiot 1
▁publication 1
▁minimum 1
▁existing 1
▁relevant 1
▁emerging 1
▁coach 1
▁rescue 1
cub 1
parents 1
▁courir 1
héritage 1
▁investi 1
▁traditionnel 1
▁dessiner 1
affiche 1
▁restrict 1
▁2003 1
load 1
▁intuitive 1
▁balloon 1
▁geo 1
▁tomb 1
▁molecular 1
▁2050 1
▁gel 1
▁mosquito 1
▁challenging 1
oxy 1
▁reconnaissance 1
objectif 1
▁puissions 1
▁chimie 1
▁carburant 1
▁épidémie 1
▁psychologique 1
▁passionné 1
▁Harvard 1
▁relativement 1
▁armée 1
▁integrate 1
▁length 1
▁2001 1
▁defined 1
▁presentation 1
▁applied 1
▁assure 1
▁distant 1
▁campus 1
▁poetry 1
▁equality 1
▁chicago 1
▁murder 1
▁trap 1
▁routine 1
▁uniform 1
▁syndrome 1
▁naturellement 1
▁démocratique 1
▁quantique 1
artiste 1
hôtel 1
▁panneaux 1
▁plage 1
▁Francisco 1
▁disque 1
▁utilisateurs 1
▁Pouvez 1
▁défaut 1
▁nutrition 1
▁bicycle 1
▁commit 1
▁700 1
▁winter 1
▁housing 1
▁mechanical 1
▁rush 1
▁sauce 1
▁interrupt 1
▁confident 1
▁physician 1
▁sache 1
▁dîner 1
▁Afghanistan 1
▁créons 1
▁supérieure 1
▁pourcentage 1
▁réforme 1
second 1
▁absolute 1
▁cord 1
▁pump 1
▁frank 1
▁mystery 1
▁antibiotic 1
▁falling 1
▁transcend 1
▁racism 1
▁provenan 1
▁pirate 1
clav 1
▁roue 1
▁estime 1
chauffe 1
▁déroule 1
▁optimiste 1
▁Gal 1
▁immeuble 1
▁chimique 1
▁Allez 1
▁blessure 1
atteindre 1
▁âgées 1
▁destiné 1
▁Chicago 1
▁enceinte 1
▁quiconque 1
▁écart 1
▁urbain 1
▁donnant 1
▁tower 1
▁medium 1
▁barrier 1
▁essence 1
▁valid 1
▁contest 1
▁perturb 1
abri 1
instant 1
▁attaché 1
▁paie 1
inquiète 1
▁connait 1
expliquer 1
▁forcé 1
▁convince 1
▁bush 1
▁garage 1
▁chimpanzee 1
▁constitution 1
▁policies 1
stein 1
▁horizon 1
▁secure 1
▁unknown 1
▁dauphin 1
▁sophistiqué 1
▁auxquelles 1
▁agréable 1
▁Premièrement 1
▁El 1
▁conducteur 1
▁hôpital 1
▁recrut 1
▁equally 1
▁ruin 1
▁loan 1
▁motivate 1
▁confidence 1
▁centuries 1
▁gentlemen 1
▁diplomat 1
▁calories 1
▁costume 1
▁individu 1
▁prévoi 1
entendre 1
▁couvert 1
▁adapté 1
▁prenant 1
▁appellent 1
▁Mari 1
▁normalement 1
▁blessé 1
▁Wal 1
▁sustain 1
making 1
▁innovative 1
half 1
▁scenario 1
▁humor 1
▁govern 1
digit 1
▁introduced 1
▁teeth 1
▁consent 1
▁pregnant 1
culture 1
essence 1
Institut 1
▁bactérie 1
▁sourire 1
▁inévitable 1
▁virtuelle 1
▁thérapie 1
▁dangereuse 1
É 1
▁peint 1
▁criminel 1
▁poésie 1
▁moustique 1
▁joined 1
▁mayor 1
▁manufacture 1
▁astronaut 1
stimul 1
▁poet 1
▁rendez 1
nalis 1
▁fraud 1
▁procure 1
▁entrée 1
▁récupérer 1
▁nerveux 1
▁étage 1
▁résistant 1
▁cinéma 1
▁culturel 1
▁souffle 1
▁harvest 1
▁sophisticated 1
▁bound 1
▁grandfather 1
▁evolve 1
▁behave 1
▁providing 1
▁roi 1
▁primate 1
anglais 1
▁État 1
▁utilisez 1
▁intellectuelle 1
▁descendre 1
▁Mondiale 1
▁détruire 1
▁James 1
opération 1
essaye 1
▁prisonnier 1
▁terrorism 1
▁clever 1
▁evolutionary 1
charge 1
▁wal 1
▁33 1
▁atoms 1
stand 1
▁comic 1
▁conviction 1
▁syria 1
investissement 1
▁maîtrise 1
▁amoureux 1
▁préparé 1
▁blague 1
▁officiel 1
apparence 1
▁curiosité 1
▁calculate 1
▁corporation 1
▁flood 1
▁domestic 1
▁29 1
▁therapy 1
▁stretch 1
▁silk 1
▁printing 1
▁battery 1
▁dolphin 1
influence 1
▁accepter 1
▁essentielle 1
▁urbaine 1
écoule 1
▁ajoute 1
▁désolé 1
▁câble 1
▁retourne 1
▁obligé 1
▁fibre 1
▁moléculaire 1
born 1
▁neither 1
▁improvement 1
▁analyze 1
▁rising 1
▁struck 1
▁james 1
▁shadow 1
▁breathe 1
▁federal 1
▁authority 1
▁pardon 1
honneur 1
▁préparer 1
▁longueur 1
▁sérieusement 1
▁océan 1
▁Aussi 1
▁savions 1
▁plongé 1
▁sentais 1
▁grandissant 1
▁champignon 1
▁economies 1
▁trigger 1
▁wound 1
▁curiosity 1
▁laboratory 1
foot 1
elect 1
▁painful 1
ji 1
fond 1
▁bg 1
▁racont 1
▁répandu 1
▁discuter 1
▁éclat 1
▁spectre 1
▁Moi 1
▁spectaculaire 1
▁jambe 1
▁préjugé 1
▁framework 1
▁defend 1
▁reverse 1
class 1
▁statut 1
empreinte 1
▁Duran 1
▁considérable 1
▁financement 1
▁définir 1
▁malheur 1
▁écho 1
▁lève 1
Amazon 1
▁préférée 1
▁commencez 1
▁saine 1
▁busy 1
▁narrow 1
▁shall 1
▁passive 1
▁immune 1
▁sacrifice 1
nders 1
▁false 1
▁deploy 1
▁suppli 1
▁memories 1
▁hallucin 1
▁dame 1
▁diplômé 1
▁créative 1
▁féminin 1
imagination 1
▁physiquement 1
▁diriger 1
▁débarrasser 1
élection 1
▁sentent 1
équilibre 1
▁curieux 1
▁noyau 1
▁cacher 1
▁aident 1
iPhone 1
▁hydrogen 1
▁hoping 1
▁pool 1
▁tank 1
▁transmit 1
▁literature 1
▁organize 1
▁reference 1
▁unusual 1
▁dramatic 1
▁dossier 1
utilisateur 1
▁réduction 1
▁reçoit 1
▁Big 1
▁spatiale 1
▁transmettre 1
▁aurions 1
▁faisions 1
▁psychologue 1
▁vieilli 1
▁promesse 1
▁Soleil 1
▁généré 1
▁steal 1
▁frankly 1
▁abus 1
▁poison 1
▁awareness 1
▁distract 1
▁silicon 1
▁55 1
▁boring 1
▁afternoon 1
▁swimming 1
▁destination 1
▁colle 1
garde 1
▁cartographi 1
▁logement 1
▁équipement 1
▁reproduire 1
ouvri 1
▁montrant 1
▁démontre 1
aliment 1
▁variété 1
▁diminuer 1
araignée 1
▁Web 1
▁sphère 1
▁causé 1
▁paludisme 1
▁émergent 1
▁Noël 1
▁closely 1
▁carrying 1
▁psychologist 1
▁dropped 1
▁2014 1
▁sphere 1
▁perfection 1
group 1
▁piste 1
▁terroristes 1
▁réunir 1
étale 1
▁méchant 1
autoroute 1
accéder 1
▁reçoivent 1
▁créant 1
▁Prenons 1
▁Permettez 1
▁religieuse 1
▁Darwin 1
▁réveille 1
▁anderson 1
▁complain 1
▁agenda 1
▁solving 1
▁surrounded 1
▁defense 1
▁architectural 1
destruct 1
oeil 1
▁modifié 1
▁Frank 1
énormes 1
▁investir 1
autisme 1
▁maximum 1
▁russia 1
▁reproduction 1
▁split 1
▁boston 1
▁combined 1
approxim 1
▁retro 1
▁texture 1
▁porc 1
▁cache 1
▁rabbi 1
▁suggestion 1
▁Anderson 1
▁occupé 1
▁neige 1
▁adopté 1
▁Boston 1
▁disparaître 1
▁explication 1
▁formule 1
▁geste 1
petit 1
▁thick 1
▁concrete 1
▁navigate 1
▁cigarette 1
▁ignorance 1
▁refugee 1
▁rwanda 1
oyer 1
▁familial 1
▁aurez 1
▁Paris 1
▁désespéré 1
▁enquête 1
issaient 1
▁ennemi 1
▁ultimate 1
▁computing 1
▁silent 1
▁rio 1
lash 1
▁chapter 1
▁ratio 1
▁egypt 1
▁ingredient 1
▁viral 1
▁lying 1
▁citoyen 1
▁manifeste 1
▁Quoi 1
▁auriez 1
▁foule 1
appareil 1
▁Gra 1
▁empêche 1
▁panneau 1
▁contrôlé 1
▁burning 1
▁recommend 1
▁resistance 1
▁weigh 1
grand 1
▁scary 1
▁torture 1
▁greenhouse 1
▁mortality 1
▁graphic 1
▁stigma 1
fish 1
▁psychology 1
animal 1
▁haine 1
▁superbe 1
▁mathématique 1
hydrogène 1
▁Bonjour 1
▁primaire 1
▁imaginé 1
▁attiré 1
▁expliqué 1
▁donnait 1
▁chère 1
▁combattre 1
IA 1
▁BG 1
▁smoke 1
▁sculpt 1
▁scream 1
▁scratch 1
▁pace 1
▁wherever 1
▁doubl 1
▁michael 1
▁infinite 1
▁primitive 1
▁martin 1
▁charles 1
▁motive 1
▁penguin 1
▁immigrant 1
▁envisage 1
▁transmis 1
▁renouvelable 1
▁évènement 1
▁impressionnant 1
▁agricole 1
▁inutile 1
▁emprunt 1
▁Russie 1
▁sauter 1
▁Charles 1
▁équilibre 1
▁occidentale 1
▁incapable 1
design 1
pending 1
▁hub 1
▁senior 1
▁constrain 1
▁predator 1
natal 1
▁famine 1
▁ritual 1
▁goutte 1
▁collègue 1
▁brûle 1
▁ministre 1
▁Nations 1
▁atterri 1
▁avancé 1
▁Port 1
▁démonstration 1
▁intitulé 1
▁virtuel 1
▁trajet 1
▁récif 1
▁efficiency 1
▁somewhat 1
▁functional 1
▁basket 1
,500 1
▁influe 1
▁geek 1
▁debt 1
▁romantic 1
▁collaborative 1
▁underwater 1
▁fiber 1
▁authentic 1
▁reserve 1
▁supposé 1
▁gliss 1
▁productivité 1
évolu 1
dedans 1
▁négative 1
▁3,000 1
▁committed 1
▁commitment 1
▁nowhere 1
▁overcome 1
▁flies 1
▁obsession 1
▁extension 1
▁cluster 1
▁interactive 1
▁unexpected 1
▁victor 1
▁scholar 1
▁focal 1
▁oeuvre 1
▁inattendu 1
▁billet 1
▁éthique 1
▁religieux 1
attente 1
▁recommand 1
▁provient 1
▁Dès 1
▁Michael 1
▁pensant 1
▁crédit 1
▁transparence 1
▁gaspill 1
▁guérir 1
▁passons 1
▁maître 1
▁individuel 1
▁YouTube 1
▁colleague 1
erence 1
▁portion 1
▁consistent 1
▁emergency 1
▁occurred 1
▁genius 1
▁extinction 1
effort 1
▁contradiction 1
▁manifest 1
▁philosophie 1
▁obama 1
▁sperm 1
▁appartement 1
▁existant 1
▁conclure 1
▁approprié 1
▁appliqué 1
Y 1
▁brisé 1
▁poulet 1
▁travaillais 1
▁familier 1
▁poursuivre 1
▁license 1
▁congo 1
▁medication 1
▁42 1
▁suspend 1
▁rassemblé 1
▁emmené 1
▁organique 1
▁Martin 1
ifiant 1
▁coupable 1
occuper 1
▁venons 1
▁Heureusement 1
▁Hol 1
▁lointain 1
▁psychologie 1
▁graines 1
▁fauteuil 1
▁émerge 1
▁Super 1
▁anniversaire 1
▁Regardons 1
▁déclaré 1
▁administr 1
▁engaging 1
▁sunlight 1
human 1
▁extent 1
▁external 1
▁alzheimer 1
▁productivity 1
▁angeles 1
▁membrane 1
▁dramatically 1
▁birthday 1
▁distinction 1
level 1
▁rigid 1
▁eastern 1
▁vocal 1
▁hackers 1
▁combustible 1
▁trouvait 1
▁centaine 1
▁aléatoire 1
▁écrivain 1
▁déclin 1
▁ayez 1
▁grotte 1
envoi 1
▁september 1
▁wow 1
▁presence 1
▁causing 1
person 1
▁overall 1
introduction 1
▁agency 1
▁migration 1
▁tentative 1
▁exécut 1
▁dépassé 1
▁apparemment 1
arrêt 1
▁choc 1
ampoule 1
▁partagent 1
▁africaine 1
▁apprenons 1
▁régler 1
▁âme 1
▁étoile 1
▁Guerre 1
▁Pakistan 1
▁rejoindre 1
Israël 1
▁Avez 1
▁ought 1
▁bob 1
▁knock 1
▁neural 1
▁37 1
▁drill 1
▁raw 1
▁conventional 1
▁asteroid 1
▁assistant 1
▁sensors 1
▁triangle 1
▁2013 1
étudiant 1
▁recette 1
▁inférieur 1
▁faveur 1
▁innovant 1
▁Gar 1
▁parallèle 1
▁viendra 1
Nous 1
▁Street 1
▁sauve 1
▁toxique 1
Alzheimer 1
▁professionnelle 1
accélér 1
▁évoluer 1
▁réparti 1
▁examen 1
▁31 1
▁regime 1
▁regulation 1
▁sensitive 1
free 1
▁pond 1
▁strict 1
▁procedure 1
immigration 1
▁remis 1
▁seuil 1
▁significative 1
▁privilège 1
▁universel 1
▁amélioré 1
▁épaule 1
▁atteign 1
▁grateful 1
90 1
▁pretend 1
trans 1
stone 1
▁editor 1
▁protocol 1
▁christmas 1
▁cascade 1
▁germ 1
internet 1
oreille 1
acheter 1
▁comprenez 1
▁Public 1
▁magnétique 1
asseoir 1
▁marqué 1
étoile 1
▁déclenche 1
▁spirituel 1
▁Voyons 1
▁économistes 1
▁nécessairement 1
▁paquet 1
▁radicalement 1
▁mentionné 1
▁récupér 1
▁aventure 1
▁menacé 1
▁procédure 1
▁intersection 1
▁continuous 1
▁judgment 1
▁horizontal 1
▁edit 1
worth 1
▁ambition 1
▁festival 1
▁cassé 1
▁émet 1
▁rationnel 1
onsidérons 1
▁emmener 1
▁diminue 1
imagerie 1
▁Aux 1
▁fortement 1
▁reconnaissant 1
▁sondage 1
▁elite 1
▁frustration 1
▁blame 1
book 1
▁carried 1
▁singing 1
▁dispose 1
▁rebel 1
▁pertinent 1
▁espérons 1
Bretagne 1
▁boucle 1
▁sentez 1
▁automatiquement 1
▁industriel 1
▁ingénieur 1
▁interagir 1
▁propage 1
▁élu 1
▁météo 1
▁Einstein 1
▁dioxide 1
▁corporate 1
▁patron 1
▁telephone 1
▁stereo 1
▁wikipedia 1
▁papa 1
▁password 1
▁diapo 1
▁Voyez 1
œuvre 1
▁trafic 1
▁vivaient 1
▁favoris 1
▁écouté 1
▁tapis 1
▁Nouvelle 1
▁révélé 1
▁soirée 1
▁parallel 1
▁hal 1
called 1
▁magnetic 1
conscious 1
▁household 1
▁insurance 1
▁2002 1
▁mice 1
▁depth 1
▁zoo 1
▁adam 1
▁diffuse 1
exploration 1
▁désastre 1
infrastructure 1
▁circonstances 1
Univers 1
▁juridique 1
▁abstrait 1
▁donnons 1
▁colonne 1
▁systématique 1
▁coraux 1
▁illustrate 1
▁5,000 1
▁sweat 1
▁tight 1
▁neutral 1
▁download 1
▁exhibition 1
▁transparency 1
▁reconstruction 1
▁diagnosed 1
▁2016 1
▁obscur 1
aéroport 1
▁dépensé 1
▁survécu 1
▁japonais 1
▁terrestre 1
▁lecteur 1
▁voyant 1
▁récent 1
▁protège 1
▁quelconque 1
▁mathématicien 1
aîné 1
▁haiti 1
▁russian 1
▁monument 1
▁pacific 1
▁careful 1
▁conclude 1
▁promis 1
▁philosophy 1
▁divorce 1
▁obsessed 1
▁recognition 1
▁mathematician 1
▁2030 1
version 1
▁résumé 1
article 1
acier 1
▁Vraiment 1
▁personnellement 1
▁travaillait 1
▁rejoint 1
▁dignité 1
▁navire 1
▁chapitre 1
▁développent 1
▁littérature 1
▁fréquent 1
▁évolue 1
▁bref 1
▁dieu 1
▁acteurs 1
élite 1
entraînement 1
▁flew 1
▁partisan 1
▁dancing 1
▁greek 1
▁geographic 1
play 1
▁sustainability 1
▁dignity 1
▁gray 1
▁struggling 1
▁guarantee 1
osphere 1
▁taxi 1
▁hollywood 1
▁accent 1
▁coincé 1
▁bourse 1
▁stupéfiant 1
▁spécialisé 1
▁soyons 1
▁automatique 1
▁échoué 1
▁allemand 1
▁robotique 1
▁prédateur 1
▁humanitaire 1
emporte 1
▁oreilles 1
▁détecteur 1
▁compound 1
▁mandat 1
▁wireless 1
▁satisfaction 1
▁drove 1
▁blah 1
▁controlled 1
four 1
▁wage 1
▁tsunami 1
▁vibration 1
haut 1
▁déterminé 1
▁achète 1
▁franchement 1
▁densité 1
▁moelle 1
▁immunitaire 1
▁trajectoire 1
▁étrangère 1
▁poussière 1
▁contrat 1
▁situé 1
▁precisely 1
▁hook 1
▁automatically 1
▁column 1
▁database 1
intention 1
▁journalism 1
▁personality 1
▁conclu 1
▁appeal 1
▁hind 1
▁distributed 1
▁rhythm 1
▁affront 1
▁lampe 1
▁transmet 1
▁Nature 1
▁maternelle 1
▁communautaire 1
▁potentiellement 1
▁souffrent 1
▁Grâce 1
▁urge 1
▁selection 1
▁hardware 1
▁lifestyle 1
▁bump 1
▁craig 1
▁electron 1
▁incorpor 1
inspiration 1
▁stack 1
▁gps 1
▁introvert 1
▁intact 1
▁cherchai 1
▁vaisseaux 1
▁vôtre 1
▁fasciné 1
▁pattes 1
▁jugement 1
▁diront 1
▁couloir 1
▁corail 1
▁consensus 1
▁barel 1
▁tourist 1
▁creature 1
▁identical 1
▁twin 1
cture 1
▁diagram 1
▁resolution 1
▁cheat 1
field 1
dentifi 1
▁anxiety 1
▁chauve 1
écart 1
▁habituelle 1
▁renforce 1
▁domestique 1
▁introduit 1
▁fiable 1
▁boire 1
▁léger 1
espérance 1
▁déclaration 1
▁rituel 1
▁ressembl 1
▁airport 1
▁ensure 1
▁crops 1
▁raising 1
▁highway 1
▁expertise 1
▁herself 1
▁dopamine 1
▁apparently 1
▁ridiculous 1
▁album 1
▁council 1
▁absurd 1
▁confin 1
▁pink 1
▁expectations 1
▁indice 1
▁disposition 1
▁partenariat 1
▁puissiez 1
▁émotionnel 1
▁banlieue 1
érant 1
▁dirigeant 1
▁appliquer 1
▁demandais 1
▁territoire 1
▁perçu 1
▁procès 1
▁essayent 1
▁GPS 1
▁Han 1
▁$1 1
▁borrow 1
▁thomas 1
▁legacy 1
▁blank 1
▁strike 1
▁kingdom 1
▁bombard 1
▁promotion 1
word 1
▁marginal 1
▁marathon 1
aptitude 1
▁synapse 1
▁psychopath 1
▁_ 1
interaction 1
▁annoncé 1
▁douzaine 1
▁autorisé 1
▁bureaux 1
▁envahi 1
▁créature 1
▁deviendra 1
▁tragédie 1
orchestre 1
▁Président 1
▁renewable 1
▁190 1
▁dirty 1
▁prostate 1
related 1
▁exclusive 1
▁explicit 1
keep 1
▁cruel 1
sahara 1
▁shelter 1
▁dispute 1
rgie 1
▁enseigné 1
▁jeunesse 1
informatique 1
animaux 1
▁prothèse 1
▁constaté 1
▁Lorsqu 1
▁gagnant 1
▁pingouin 1
▁PM 1
▁symétrie 1
▁ugly 1
▁universities 1
▁enzyme 1
▁hunger 1
▁phenomena 1
▁doctorat 1
▁socio 1
▁disagree 1
▁adventure 1
▁commis 1
▁recherch 1
▁déplacé 1
▁instantané 1
▁comparaison 1
▁suivent 1
▁identifié 1
▁subtil 1
▁effectué 1
▁SMS 1
▁poète 1
▁strategies 1
▁acceptable 1
▁weekend 1
▁underground 1
▁estimation 1
▁honey 1
▁adjust 1
audience 1
▁properly 1
▁enemy 1
▁amongst 1
▁urgent 1
▁ethnic 1
▁isolated 1
▁rond 1
▁réfléchissez 1
▁explose 1
organisme 1
étape 1
▁World 1
applaudissements 1
humour 1
Pourquoi 1
▁réputation 1
▁attentes 1
▁centimètre 1
▁soigner 1
▁granted 1
▁recruit 1
▁illustration 1
▁optimistic 1
▁twenty 1
▁pixel 1
▁parachute 1
▁modification 1
▁import 1
▁orchestra 1
▁heaven 1
▁muti 1
▁contour 1
État 1
▁collectif 1
▁rendement 1
▁connaissais 1
▁mutuel 1
▁gratuitement 1
▁surmonter 1
▁thumb 1
▁2020 1
▁bible 1
▁plenty 1
▁breed 1
▁relax 1
▁pizza 1
▁disgust 1
▁slavery 1
▁suppos 1
île 1
▁divisé 1
▁éducatif 1
Afghanistan 1
▁vacances 1
▁dictionnaire 1
▁dormir 1
▁obsédé 1
▁enlevé 1
▁atomes 1
obscurité 1
▁plafond 1
▁dioxyde 1
▁enthousiaste 1
▁rappelez 1
esclavage 1
▁persuade 1
▁shopping 1
▁concentrate 1
▁fortunately 1
▁uncomfortable 1
century 1
▁spark 1
▁tragedy 1
▁olympic 1
▁subtle 1
▁darkness 1
▁pompe 1
▁grille 1
▁glamour 1
▁PDG 1
▁Thomas 1
▁reconstruire 1
▁mondiaux 1
inquiéter 1
▁naît 1
aiguille 1
Ouest 1
▁Chinois 1
▁diminué 1
▁sonore 1
▁génère 1
▁robert 1
▁350 1
▁chief 1
▁sharp 1
▁elsewhere 1
▁survivor 1
▁russe 1
▁slum 1
▁48 1
construct 1
▁headline 1
▁activate 1
▁concurrence 1
engagement 1
ignore 1
▁rétro 1
▁passionnant 1
▁décès 1
▁chargé 1
▁décharge 1
▁reflète 1
augmentation 1
▁flotte 1
▁fusée 1
▁Obama 1
▁royal 1
▁footprint 1
▁backwards 1
▁jungle 1
▁hungry 1
▁embedded 1
▁autonomous 1
▁anonymous 1
▁exponential 1
▁patch 1
▁decrease 1
▁stroke 1
▁72 1
▁pigeon 1
▁principaux 1
âme 1
▁Pacifique 1
▁mettant 1
▁influencé 1
▁bâton 1
Histoire 1
▁crâne 1
▁accueilli 1
▁ultime 1
sphère 1
▁Nigeria 1
▁acknowledge 1
▁globalization 1
▁snap 1
▁synthetic 1
▁segment 1
▁manipulation 1
▁glad 1
▁mindset 1
▁nobel 1
▁légale 1
erreur 1
▁stéréo 1
▁Noir 1
▁universelle 1
▁republican 1
▁textile 1
▁partnership 1
▁surrounding 1
▁1999 1
▁rebuild 1
▁humble 1
▁sacred 1
▁fascinated 1
▁controlling 1
▁suffi 1
▁missed 1
▁spiral 1
▁gulf 1
▁earthquake 1
changing 1
▁contempl 1
▁sponsor 1
▁tragic 1
▁passenger 1
▁circule 1
▁Robert 1
▁vieillissement 1
▁raisonnable 1
▁vingt 1
▁aliments 1
▁soudainement 1
▁lunettes 1
▁diagramme 1
▁vivait 1
▁régulièrement 1
▁représentant 1
▁sachant 1
▁Syrie 1
▁january 1
▁forgotten 1
▁1998 1
▁fifth 1
▁microphone 1
▁package 1
▁rainforest 1
▁cooperation 1
when 1
▁augment 1
▁paradis 1
▁affair 1
▁arctic 1
▁configuration 1
ternal 1
▁imaging 1
institut 1
▁diapositive 1
▁retiré 1
▁retenir 1
▁fédéral 1
▁révèle 1
ONU 1
▁démontré 1
▁dégâts 1
▁ressource 1
▁confortable 1
▁cochon 1
▁Commençons 1
▁hybrid 1
▁agricultural 1
▁vietnam 1
▁bathroom 1
▁measuring 1
▁depressed 1
▁terminal 1
▁rough 1
▁particle 1
▁opposition 1
▁governance 1
▁municipal 1
▁ethiopia 1
section 1
interprétation 1
▁policier 1
▁coopération 1
▁victoire 1
▁qualifié 1
▁gamme 1
▁soutenu 1
▁squelette 1
algré 1
▁peindre 1
▁ONG 1
▁revue 1
▁mesuré 1
souris 1
▁inhabituel 1
▁poitrine 1
▁Allons 1
▁Second 1
▁chronique 1
▁substitut 1
▁fulfill 1
▁jazz 1
▁enhance 1
▁reduction 1
▁frequent 1
▁zo 1
▁spell 1
▁ceiling 1
▁request 1
bourg 1
adolescence 1
▁addiction 1
▁pèse 1
▁modélis 1
▁ramène 1
▁mondialisation 1
▁signifiait 1
▁étroite 1
▁traduit 1
▁parlais 1
alcool 1
▁upset 1
▁democrat 1
▁vegetable 1
▁immediate 1
▁terror 1
▁magnitude 1
▁manhattan 1
▁infant 1
▁skull 1
▁clue 1
▁slave 1
▁intestin 1
sexual 1
▁USA 1
▁colline 1
▁Indien 1
▁précoce 1
▁remède 1
▁Manhattan 1
▁fuite 1
▁animé 1
▁permettez 1
▁imprimé 1
▁programmation 1
▁Rwanda 1
▁féministe 1
▁microsoft 1
▁consequence 1
▁attractive 1
▁confused 1
▁eliminate 1
▁module 1
▁addict 1
▁boundaries 1
▁limitations 1
▁patience 1
▁optimism 1
▁dedicated 1
▁trump 1
▁afro 1
▁permanence 1
▁vouliez 1
▁Faites 1
▁conseiller 1
▁rêv 1
▁commerciaux 1
▁vivez 1
▁refroidi 1
obésité 1
▁Banque 1
essayais 1
dessous 1
▁éteint 1
interromp 1
▁marchand 1
allume 1
▁assess 1
▁inevitable 1
yeah 1
▁resilience 1
▁pursue 1
▁fame 1
▁suppress 1
▁figuring 1
▁worm 1
▁texas 1
▁smooth 1
▁experiencing 1
struction 1
▁weapon 1
Oui 1
▁recommence 1
enthousiasme 1
▁piéton 1
▁lucratif 1
▁méga 1
escalier 1
▁ennuyeux 1
▁motivé 1
▁maintien 1
athlète 1
temps 1
actualité 1
▁dépens 1
incertitude 1
▁ghana 1
▁textbook 1
▁tangible 1
▁extinct 1
▁afterwards 1
▁inherent 1
▁reputation 1
▁feminist 1
▁slice 1
▁rival 1
▁tribal 1
▁yield 1
▁angel 1
▁athlete 1
▁inspiring 1
▁programming 1
invasive 1
▁flee 1
▁remplace 1
▁Microsoft 1
▁civique 1
▁bière 1
▁financé 1
enlève 1
apprécie 1
▁monnaie 1
▁secours 1
incendie 1
▁déclar 1
▁voyais 1
▁diagnostiqué 1
▁pathway 1
▁obesity 1
▁gesture 1
▁william 1
adoption 1
▁elected 1
▁frozen 1
alphabet 1
▁simulate 1
where 1
▁évidence 1
▁extraire 1
▁Congo 1
Comment 1
▁repousse 1
▁mangé 1
▁Texas 1
▁détermine 1
▁apparten 1
▁révolutionnaire 1
▁souffre 1
▁Nobel 1
▁garbage 1
▁rope 1
▁overwhelming 1
▁density 1
▁diabetes 1
▁wipe 1
▁spectacular 1
▁alert 1
▁exhaust 1
▁oppress 1
▁fluorescent 1
ennui 1
▁sincère 1
interroge 1
▁sérieuse 1
▁arrivons 1
aimais 1
▁Cinq 1
▁dérange 1
éclairage 1
▁prouvé 1
application 1
▁significatif 1
▁égale 1
▁Adam 1
abeille 1
▁afghan 1
▁hostile 1
▁discoveries 1
dollar 1
▁crew 1
▁embryo 1
▁resist 1
▁glori 1
▁slogan 1
procrastin 1
▁agriculteurs 1
▁faudra 1
▁secrète 1
▁apparaissent 1
▁Valley 1
▁supermarché 1
▁vallée 1
▁curieuse 1
enregistre 1
▁dégoût 1
▁tempête 1
▁nerf 1
▁sketch 1
▁collaborate 1
space 1
▁stanford 1
▁demographic 1
▁tackle 1
▁explode 1
▁fought 1
▁underlying 1
▁grace 1
▁bénévole 1
▁immédiat 1
▁prenait 1
▁cherchons 1
IRM 1
▁légère 1
▁oiseau 1
▁traduire 1
▁tremblement 1
▁copyright 1
▁injury 1
▁mimic 1
▁sweden 1
▁diffusion 1
▁identified 1
▁replicate 1
▁converge 1
á 1
▁serpent 1
▁cricket 1
apparition 1
▁infantile 1
▁recours 1
▁varié 1
▁épais 1
▁subvention 1
▁Saint 1
▁démographique 1
▁croyais 1
▁gouvernance 1
▁évoque 1
embauche 1
▁egyptian 1
▁ebola 1
▁zip 1
▁prescription 1
▁recipe 1
▁innovate 1
▁demonstration 1
▁advocate 1
▁uncertainty 1
▁twist 1
▁uganda 1
▁diagnosis 1
▁soumis 1
accroche 1
▁larmes 1
▁connaissait 1
▁diabète 1
épidémie 1
▁légumes 1
▁Dites 1
▁Voix 1
▁genoux 1
▁signification 1
Antarctique 1
▁traumatisme 1
▁messieurs 1
▁flèche 1
anxiété 1
▁comparison 1
▁capability 1
▁freak 1
▁suburb 1
▁restore 1
normal 1
▁linguist 1
▁pioneer 1
▁furniture 1
▁kidney 1
▁lobby 1
▁convey 1
▁1994 1
▁apparent 1
▁tribunal 1
“ 1
▁Haïti 1
▁entraîné 1
▁fonctionné 1
▁clavier 1
▁Stanford 1
▁élever 1
▁adéquat 1
▁Revenons 1
▁croyait 1
▁gigantesque 1
▁ethnique 1
▁Matt 1
▁condamné 1
▁annual 1
▁biomass 1
sufficient 1
▁frustrated 1
▁sneak 1
resistant 1
hrew 1
▁crystal 1
▁magnifi 1
▁damn 1
violent 1
implication 1
í 1
▁chronic 1
▁enlever 1
▁fantôme 1
▁annuel 1
▁parcourir 1
▁statistique 1
▁démarrer 1
Ebola 1
▁pharmaceutique 1
▁Évidemment 1
▁précieuse 1
▁William 1
▁intrinsèque 1
▁comédie 1
▁gâteau 1
▁œufs 1
▁acquire 1
▁reducing 1
▁competitive 1
▁burst 1
▁happier 1
▁simplicity 1
▁loving 1
inspire 1
▁naked 1
▁accelerate 1
▁cosmos 1
▁concours 1
▁crayon 1
▁choosing 1
▁improbable 1
▁scandal 1
▁higgs 1
▁protocell 1
▁exceptionnel 1
▁ingrédients 1
▁simplicité 1
exposition 1
▁parlaient 1
▁développ 1
▁interdit 1
▁chrétien 1
intermédiaire 1
accident 1
▁vulnérabilité 1
▁Africains 1
amitié 1
▁percevoir 1
▁resolve 1
▁130 1
▁civic 1
▁toxin 1
▁spray 1
▁glucose 1
▁bowl 1
▁marijuana 1
▁primordial 1
▁skeleton 1
▁creator 1
▁buried 1
▁jewish 1
▁stimulation 1
inflation 1
▁mushroom 1
illusion 1
▁enterprise 1
▁applaud 1
▁impatient 1
▁piège 1
▁dommage 1
▁printemps 1
▁travaillaient 1
▁Ghana 1
▁parcouru 1
▁anonyme 1
▁nettoyer 1
▁grenouille 1
▁jouant 1
▁prévision 1
▁relever 1
▁courageux 1
▁tragique 1
▁tyran 1
▁dominate 1
▁breakthrough 1
▁1995 1
▁inclusive 1
▁disconnect 1
▁advertising 1
▁smoking 1
▁theories 1
▁agencies 1
▁genetically 1
▁turkey 1
▁begun 1
▁alcohol 1
▁scott 1
▁cliff 1
▁primarily 1
” 1
▁allumé 1
▁satisfait 1
▁promouvoir 1
intimité 1
▁indépendante 1
ampleur 1
▁obtenons 1
▁inquiet 1
▁Science 1
▁délicat 1
▁embrass 1
▁Suède 1
▁risqué 1
appuie 1
▁abordable 1
▁téléphonique 1
▁october 1
▁mysterious 1
▁august 1
▁humanitarian 1
▁probability 1
improvisation 1
▁thrive 1
▁shore 1
▁terrifying 1
▁invitation 1
▁intimate 1
▁pesticide 1
▁narration 1
Oxford 1
▁voudrait 1
▁cancéreuse 1
programmé 1
▁Être 1
▁Environ 1
▁participe 1
▁soulève 1
▁terrifiant 1
▁confort 1
▁patrimoine 1
▁woke 1
▁atlantic 1
▁index 1
▁minimal 1
▁florida 1
▁storytelling 1
▁strand 1
control 1
▁structural 1
▁luxe 1
▁magnet 1
invention 1
▁trembl 1
extinction 1
▁cuir 1
▁précieux 1
incroyable 1
▁prospérité 1
▁biodiversité 1
▁Higgs 1
▁screw 1
▁aesthetic 1
▁multinational 1
▁coordination 1
▁sensory 1
▁mobility 1
▁confusion 1
▁broadcast 1
fiction 1
▁bureaucrat 1
▁contemporain 1
▁internationaux 1
▁licence 1
ingénieur 1
▁déplaç 1
▁séduisant 1
▁attentivement 1
▁Floride 1
évaluation 1
▁bidonville 1
▁exponentielle 1
▁résister 1
▁macro 1
▁soviet 1
▁array 1
▁indigenous 1
▁grandchildren 1
invasion 1
▁detroit 1
▁racist 1
▁mechanics 1
▁prepare 1
▁intensif 1
▁tranquille 1
▁cinquième 1
▁redéfini 1
viendront 1
▁épouse 1
enveloppe 1
▁pâte 1
▁frein 1
▁romantique 1
▁purchase 1
instruct 1
▁improving 1
▁province 1
▁helicopter 1
▁dictionary 1
school 1
▁trivial 1
▁shrink 1
▁unbelievable 1
efficient 1
▁genocide 1
▁prosperity 1
africa 1
▁symmetry 1
▁vaisseau 1
▁imprimer 1
▁élégant 1
▁temporaire 1
▁externe 1
▁Quatre 1
▁deviner 1
▁préférence 1
▁spectateur 1
emplacement 1
▁autiste 1
▁alimente 1
▁dingue 1
▁souffrir 1
Ouganda 1
▁astonishing 1
▁stomach 1
▁aspire 1
▁forgive 1
style 1
▁parliament 1
▁aggressive 1
▁fault 1
▁1984 1
▁janvier 1
▁assuré 1
▁remplacé 1
abondance 1
essentiel 1
▁fondamentaux 1
▁artificiel 1
▁congé 1
▁puits 1
▁intellectuel 1
amener 1
▁mobilité 1
▁hausse 1
▁équipé 1
Z 1
utilisa 1
établissement 1
▁judiciaire 1
▁inherit 1
▁capabilities 1
placing 1
▁catalog 1
▁wheelchair 1
▁frequency 1
▁tranche 1
▁burden 1
affect 1
▁wander 1
▁hectare 1
▁blockchain 1
harmonie 1
▁plaisante 1
explorer 1
▁assemblé 1
enfance 1
▁Island 1
▁cérébral 1
▁fossé 1
dimensionnel 1
▁recouvr 1
▁élargi 1
▁épargn 1
▁génocide 1
▁expedition 1
▁drift 1
▁contemporary 1
▁transistor 1
▁anecdote 1
▁vulnerability 1
▁register 1
▁biodiversity 1
# 1
▁hurl 1
inscri 1
habitat 1
▁cliché 1
▁camarade 1
▁personnalisé 1
extrémité 1
arrivée 1
▁pôle 1
▁corporel 1
▁choqué 1
▁millier 1
▁receptor 1
unclear 1
▁vacuum 1
▁composite 1
▁translation 1
▁supernova 1
▁fabulous 1
▁stimulant 1
▁whistle 1
▁certificat 1
▁shrimp 1
▁artisan 1
▁militant 1
intrigue 1
▁pénétr 1
▁maïs 1
▁synthétique 1
▁participé 1
▁gagn 1
▁ressens 1
▁dilemme 1
▁dédié 1
▁lentille 1
▁graisse 1
▁découpe 1
▁attaqué 1
▁millénaire 1
▁bancaire 1
identifier 1
▁Mesdames 1
▁sécheresse 1
▁smith 1
▁pharmaceutical 1
▁gadget 1
▁precious 1
▁fracture 1
▁beetle 1
▁valve 1
▁gradually 1
▁abilities 1
▁friction 1
▁jihad 1
▁heritage 1
▁guitar 1
▁incite 1
▁omniprésent 1
▁divertissement 1
▁provoqué 1
▁merveille 1
occupe 1
▁chapeau 1
▁poignée 1
approcha 1
▁oxford 1
▁italian 1
▁qualities 1
world 1
▁silver 1
patriot 1
▁reinvent 1
▁servant 1
▁basketball 1
▁bonobo 1
▁bangladesh 1
▁matrix 1
▁drought 1
▁fumée 1
▁débo 1
▁proviennent 1
▁discuté 1
▁spontané 1
▁cherchant 1
▁régénér 1
▁couteau 1
▁espérer 1
▁géographique 1
▁infirmières 1
hémisphère 1
▁grossesse 1
▁Numér 1
▁philip 1
▁category 1
▁ecological 1
▁dilemma 1
technology 1
▁investigation 1
▁pencil 1
▁distinguish 1
▁alpha 1
▁genuine 1
▁chamber 1
▁narrator 1
▁gratitude 1
▁snake 1
▁meditat 1
▁episode 1
▁currency 1
▁chéri 1
▁sévère 1
▁linéaire 1
▁imprimante 1
▁vapeur 1
▁kilomètre 1
▁proximité 1
▁traduction 1
▁neutre 1
▁pratiqu 1
▁vingtaine 1
▁Green 1
appuyer 1
▁stimule 1
autonomie 1
▁maintenance 1
▁1996 1
write 1
▁skate 1
▁algae 1
▁precise 1
▁ownership 1
▁executive 1
▁favela 1
▁antarctica 1
ustin 1
▁migrants 1
phori 1
▁altruist 1
▁authentique 1
▁repenser 1
pprovisionnement 1
▁International 1
amuser 1
▁silencieux 1
▁atelier 1
▁tuyau 1
▁Whit 1
▁Faisons 1
▁flottant 1
▁ceinture 1
▁sanitaire 1
▁prospère 1
▁adoré 1
▁nutriments 1
▁homosexuel 1
▁réservé 1
▁luckily 1
▁whatsoever 1
▁categories 1
▁exhibit 1
▁submit 1
▁exposure 1
= 1
▁veteran 1
▁Smith 1
▁autrefois 1
architecte 1
▁cloche 1
▁creuser 1
▁disparaît 1
implique 1
▁pensiez 1
▁Plutôt 1
Bruit 1
envoyai 1
« 1
▁december 1
▁microbial 1
▁unprecedented 1
▁spanish 1
▁tomato 1
▁supermarket 1
▁cheese 1
▁stunt 1
▁dispens 1
▁breakfast 1
▁beneath 1
▁enrichi 1
aussi 1
▁Voila 1
▁Philip 1
▁paralysé 1
▁déménagé 1
hélicoptère 1
▁sceptique 1
▁béton 1
▁prépare 1
▁étonnamment 1
économiste 1
▁rencontr 1
▁inscrit 1
opinion 1
▁diamètre 1
▁Central 1
horloge 1
▁investisseurs 1
▁fichier 1
▁inclut 1
▁réveillé 1
▁cognitif 1
▁Trump 1
▁1997 1
hypertension 1
▁improvise 1
▁threshold 1
▁seemingly 1
▁hypothesis 1
▁bribe 1
▁residents 1
▁brûlé 1
▁compelling 1
▁awkward 1
▁rectangle 1
▁solitude 1
▁joindre 1
▁vierge 1
▁trottoir 1
▁pilule 1
▁agences 1
▁inquiétant 1
▁dramatique 1
▁crevette 1
▁prenaient 1
▁bétail 1
▁équitable 1
▁intensive 1
▁radar 1
▁singular 1
▁cocktail 1
▁mutual 1
▁striking 1
▁nowadays 1
generating 1
▁vitamin 1
▁regulate 1
▁isolation 1
▁prosthetic 1
▁refuge 1
▁Nigéria 1
introduire 1
▁notamment 1
▁voyagé 1
▁déprimé 1
▁frustré 1
▁indigène 1
▁sèche 1
épreuve 1
▁étiquette 1
▁photographié 1
▁Turquie 1
▁bénéfique 1
▁accéléré 1
éteindre 1
▁chômage 1
▁Caroline 1
indépendance 1
Africain 1
▁nœud 1
infection 1
▁avatar 1
▁dictate 1
▁specula 1
▁bulb 1
▁closing 1
▁typo 1
▁enforcement 1
▁coordinate 1
▁counsel 1
▁located 1
▁pharma 1
▁audition 1
attache 1
▁cohérent 1
▁Italie 1
▁Parlons 1
▁officier 1
▁disparaissent 1
▁Sept 1
▁agrandi 1
▁problématique 1
▁échouer 1
▁activé 1
▁Titan 1
▁Récemment 1
apporter 1
▁NSA 1
▁diamond 1
▁missile 1
▁recall 1
▁cosmic 1
▁crawl 1
▁prairie 1
▁morph 1
horizon 1
▁curriculum 1
▁strategic 1
▁february 1
amplifie 1
▁ambulance 1
▁default 1
▁tattoo 1
▁fortunate 1
▁pivot 1
▁chauffeur 1
▁certitude 1
▁débrouill 1
▁déforestation 1
▁arrach 1
▁faculté 1
▁recouvert 1
▁bruyant 1
▁rebond 1
extrême 1
▁épisode 1
▁stratégique 1
▁décédé 1
▁douloureux 1
▁privilégi 1
▁Ensemble 1
▁détenu 1
▁collège 1
▁Brown 1
▁spontaneous 1
▁encouraging 1
populat 1
generation 1
▁warrior 1
▁indirect 1
▁prudent 1
▁hemisphere 1
known 1
▁ambitious 1
▁boost 1
▁assassin 1
argument 1
ignorance 1
▁aérienne 1
▁poubelle 1
▁démarré 1
▁ramené 1
▁Rappelez 1
▁rembours 1
▁algues 1
▁attentif 1
infirmière 1
▁néglige 1
Arctique 1
▁djihad 1
▁malnutrition 1
▁1945 1
▁abandoned 1
▁meanwhile 1
▁investigate 1
▁cuba 1
▁receiving 1
▁scrap 1
▁generous 1
excitation 1
▁awake 1
▁indonesia 1
▁preference 1
excuse 1
▁gamma 1
▁crypto 1
▁plasma 1
▁admis 1
▁sacrifi 1
oignant 1
▁encrypt 1
ë 1
utilité 1
▁souligner 1
▁pathogène 1
▁greffe 1
ométrique 1
inconnu 1
▁Souvent 1
▁appartient 1
écrase 1
augmenter 1
▁concrète 1
▁encouragé 1
▁flourish 1
▁ultraviolet 1
▁intended 1
▁accuracy 1
▁pedestrian 1
▁pandemic 1
▁deforestation 1
▁preparing 1
▁backyard 1
▁alliance 1
adulte 1
▁shelf 1
▁virtue 1
▁offshore 1
excellence 1
explosion 1
▁monsieur 1
écologie 1
▁améliore 1
▁détruis 1
▁endommagé 1
▁diviser 1
▁revanche 1
▁éventail 1
nçaient 1
veillant 1
▁monstre 1
▁télécharger 1
▁marvel 1
▁renaissance 1
▁smallpox 1
▁erect 1
engineer 1
▁sapiens 1
▁compliment 1
▁acoustic 1
▁luxury 1
▁deliberate 1
▁hamburger 1
▁variant 1
▁activism 1
observation 1
Atlantique 1
Ange 1
▁résilience 1
▁icône 1
intégration 1
▁reviennent 1
▁Monsieur 1
▁égard 1
▁néanmoins 1
▁accélérer 1
▁décembre 1
▁terrifié 1
▁methane 1
▁reinforce 1
▁disabled 1
▁historic 1
▁oxytocin 1
▁cambridge 1
▁trajectory 1
▁supreme 1
▁soccer 1
▁dictator 1
▁theoretical 1
▁retina 1
▁appreciat 1
▁teenage 1
▁pursuit 1
▁academy 1
social 1
▁disabilities 1
ã 1
▁concurrent 1
▁fatigué 1
▁chevaux 1
intègre 1
▁thermique 1
▁relâche 1
▁voyaient 1
▁réfrigér 1
▁gratte 1
▁moustiquaire 1
▁académique 1
▁exprimé 1
▁rethink 1
▁temporary 1
▁1991 1
▁articulat 1
▁complication 1
▁straightforward 1
▁stimulate 1
▁terribly 1
▁fractal 1
▁believing 1
▁identities 1
▁flavor 1
▁carolina 1
▁loyal 1
▁therapist 1
iussani 1
▁solitaire 1
Trouv 1
▁synthèse 1
▁prévention 1
▁éduqué 1
▁Cambridge 1
▁superficie 1
▁Jésus 1
▁expliqu 1
▁prévisible 1
éprouve 1
▁Pouvons 1
▁combler 1
▁réservoir 1
▁Premier 1
scientifique 1
▁workforce 1
▁reproduce 1
▁indication 1
▁elegant 1
▁devastating 1
▁distort 1
▁describing 1
▁expectancy 1
▁hawaii 1
+ 1
▁implicit 1
▁emphasize 1
▁independence 1
people 1
identification 1
▁répète 1
inondation 1
▁égoïste 1
▁espéran 1
▁enfermé 1
▁variole 1
▁Souvenez 1
encourage 1
▁complément 1
intéressant 1
▁élaboré 1
▁analysé 1
▁planétaire 1
▁déploie 1
▁stabilis 1
▁raisonnement 1
▁célibataire 1
▁prononcé 1
▁surprend 1
▁Désolé 1
▁parvenu 1
▁débarrass 1
▁mémoris 1
interpréter 1
saharienne 1
▁interrogé 1
▁poursuite 1
algorithme 1
▁impressive 1
▁swallow 1
auditorium 1
▁paralyzed 1
▁tanzania 1
▁corrupt 1
▁knife 1
▁territory 1
▁anatomy 1
▁taliban 1
▁yourselves 1
communication 1
▁sulfur 1
humiliation 1
▁pregnancy 1
▁condom 1
▁locomotion 1
▁emmène 1
hypothèse 1
▁méthane 1
▁tristesse 1
▁Disney 1
Espagne 1
vrai 1
apercev 1
▁gardien 1
▁bascule 1
▁Soudain 1
▁centimes 1
appartenance 1
▁bourdonnement 1
▁logistique 1
▁siffle 1
▁capturé 1
▁schedule 1
▁steam 1
▁inhibit 1
▁cocaine 1
▁beijing 1
▁purple 1
▁separation 1
million 1
▁recognizing 1
▁precision 1
▁canadian 1
▁recycling 1
▁migraine 1
▁diameter 1
▁millennia 1
▁unfair 1
▁deposit 1
intervention 1
▁rupture 1
▁massacre 1
▁brièvement 1
▁plomb 1
▁apparait 1
▁satisfaire 1
intégrer 1
intéressai 1
▁souterrain 1
▁Louis 1
▁différenci 1
▁retenu 1
▁inconscient 1
▁savon 1
intensité 1
▁pompier 1
aventure 1
▁familière 1
entraîne 1
▁céréales 1
▁douloureuse 1
▁Bangladesh 1
▁réconfort 1
▁chèvre 1
▁délibéré 1
▁Black 1
▁LED 1
▁tuberculose 1
▁Actuellement 1
▁FBI 1
épargne 1
▁legitimate 1
▁henry 1
▁compatible 1
▁spike 1
▁capsule 1
▁antenna 1
▁interior 1
▁miserable 1
▁blink 1
▁execute 1
▁advertise 1
▁jordan 1
color 1
▁rhino 1
▁assault 1
▁ideology 1
▁approfondi 1
▁Vietnam 1
▁Michel 1
▁fassiez 1
▁légitime 1
horreur 1
estomac 1
▁corrélation 1
▁valoris 1
▁traîne 1
▁explosé 1
▁prouve 1
▁compétence 1
▁raccourci 1
▁européenne 1
▁mélodie 1
▁perpétue 1
▁recyclage 1
▁accompagné 1
▁Droit 1
▁mosquée 1
Indonésie 1
ambassade 1
▁hawk 1
▁communicating 1
exploit 1
▁frightening 1
▁drunk 1
▁flick 1
▁1989 1
▁crocodile 1
▁potato 1
▁endangered 1
▁thylacine 1
accélère 1
▁Norvège 1
▁occidental 1
▁cosmique 1
▁Fondation 1
▁préparation 1
▁imaginaire 1
▁février 1
▁plancton 1
▁communiquent 1
▁spécul 1
▁réplique 1
▁simultané 1
▁Presque 1
anatomie 1
▁croyant 1
▁Scott 1
▁Enfant 1
▁éternelle 1
ocytocine 1
▁pathogen 1
▁earliest 1
▁substantial 1
▁extraordinari 1
▁remarkably 1
▁1975 1
▁storage 1
structure 1
▁bronx 1
because 1
▁livestock 1
ironie 1
▁tactile 1
ü 1
oeuvre 1
▁pandémie 1
▁fidèle 1
▁libère 1
▁cauchemar 1
▁Bronx 1
▁pantalon 1
incitation 1
▁Chili 1
▁Arabe 1
▁sensibilité 1
▁méduse 1
▁sauvetage 1
▁Brooklyn 1
▁negotiate 1
▁spaghetti 1
▁causal 1
▁captain 1
▁scheme 1
▁catholic 1
▁cambodia 1
▁outdoor 1
▁legislation 1
expansion 1
▁palestinian 1
▁alexander 1
▁welfare 1
afflu 1
▁democracies 1
▁inhabit 1
▁jellyfish 1
▁propulsion 1
ó 1
▁brooklyn 1
▁immobile 1
▁juillet 1
▁domicile 1
▁produir 1
▁expédition 1
▁technicien 1
▁semblant 1
▁déposé 1
▁effondré 1
▁Donnez 1
▁numér 1
▁témoignage 1
▁croyaient 1
éclair 1
▁vœu 1
orphelinat 1
▁polaire 1
▁cérémonie 1
▁seringue 1
▁wheat 1
▁retreat 1
▁congestion 1
▁memorial 1
▁gallery 1
▁mandela 1
▁inevitably 1
▁imperfect 1
▁saturday 1
▁sanitation 1
▁summit 1
▁resilient 1
▁geometry 1
▁jupiter 1
entrepreneur 1
▁choquant 1
▁fleuve 1
ascenseur 1
▁relève 1
▁théorique 1
▁chimiothérapie 1
▁consacré 1
▁suivez 1
▁meubles 1
ARN 1
▁Wikipedia 1
acquérir 1
▁vaincre 1
▁éventuel 1
▁requiert 1
▁vivais 1
▁genou 1
▁negotiation 1
▁concret 1
▁literacy 1
▁glimpse 1
quality 1
machine 1
▁graffiti 1
▁anomalie 1
▁Tanzanie 1
événement 1
▁hiérarchie 1
héroïne 1
▁effrayé 1
▁Jupiter 1
ö 1
nçait 1
appliqu 1
▁hôte 1
évaluer 1
ontrairement 1
Ê 1
accomplir 1
Ç 1
dependent 1
qualifi 1
ù 1
ñ 1
— 1
@ 1
% 1
‘ 1
* 1
Â 1
^ 1
Î 1
[ 1
ā 1
ø 1
€ 1
̈ 1
ä 1
£ 1
⁄ 1
æ 1
ú 1
È 1
อ 1
ō 1
ī 1
ì 1
Ô 1
ʾ 1
® 1
( 1
ȇ 1
Œ 1
ć 1
♫ 1
ร 1
่ 1
ย 1
♪ 1
» 1
 1
š 1
 1
Ï 1
α 1
Á 1
送 1
你 1
葱 1
¡ 1
å 1
ě 1
ū 1
• 1
ð 1
प 1
् 1
र 1
े 1
म 1
_ 1
ọ 1
̀ 1
ẹ 1
© 1
~ 1
Ė 1
¥ 1
υ 1
χ 1
τ 1
κ 1
­ 1
̊ 1
ò 1
¢ 1
 1
 1
ă 1
ť 1
č 1
¿ 1
Ì 1
ň 1
| 1
≈ 1
̐ 1
μ 1
ט 1
Ō 1
Ε 1
ρ 1
ι 1
σ 1
ω 1
ε 1
λ 1
η 1
ν 1
{ 1
Č 1
Å 1
Ü 1
 1
Ö 1
’ 1
ś 1
/ 1